{
  "version": "1.0",
  "truncation": null,
  "padding": null,
  "added_tokens": [],
  "normalizer": {
    "type": "Sequence",
    "normalizers": [
      {
        "type": "NFKC"
      }
    ]
  },
  "pre_tokenizer": {
    "type": "ByteLevel",
    "add_prefix_space": true,
    "trim_offsets": true,
    "use_regex": true
  },
  "post_processor": null,
  "decoder": {
    "type": "ByteLevel",
    "add_prefix_space": true,
    "trim_offsets": true,
    "use_regex": true
  },
  "model": {
    "type": "BPE",
    "dropout": null,
    "unk_token": "<unk>",
    "continuing_subword_prefix": null,
    "end_of_word_suffix": null,
    "fuse_unk": false,
    "byte_fallback": false,
    "ignore_merges": false,
    "vocab": {
      "<pad>": 0,
      "<unk>": 1,
      "<mask>": 2,
      "<s>": 3,
      "</s>": 4,
      "!": 5,
      "\"": 6,
      "#": 7,
      "$": 8,
      "%": 9,
      "&": 10,
      "'": 11,
      "(": 12,
      ")": 13,
      "*": 14,
      ",": 15,
      "-": 16,
      ".": 17,
      "/": 18,
      "0": 19,
      "1": 20,
      "2": 21,
      "3": 22,
      "4": 23,
      "5": 24,
      "6": 25,
      "7": 26,
      "8": 27,
      "9": 28,
      ":": 29,
      ";": 30,
      "=": 31,
      "?": 32,
      "A": 33,
      "B": 34,
      "C": 35,
      "D": 36,
      "E": 37,
      "F": 38,
      "G": 39,
      "H": 40,
      "I": 41,
      "J": 42,
      "K": 43,
      "L": 44,
      "M": 45,
      "N": 46,
      "O": 47,
      "P": 48,
      "Q": 49,
      "R": 50,
      "S": 51,
      "T": 52,
      "U": 53,
      "V": 54,
      "W": 55,
      "X": 56,
      "Y": 57,
      "Z": 58,
      "[": 59,
      "\\": 60,
      "]": 61,
      "_": 62,
      "a": 63,
      "b": 64,
      "c": 65,
      "d": 66,
      "e": 67,
      "f": 68,
      "g": 69,
      "h": 70,
      "i": 71,
      "j": 72,
      "k": 73,
      "l": 74,
      "m": 75,
      "n": 76,
      "o": 77,
      "p": 78,
      "q": 79,
      "r": 80,
      "s": 81,
      "t": 82,
      "u": 83,
      "v": 84,
      "w": 85,
      "x": 86,
      "y": 87,
      "z": 88,
      "~": 89,
      "Ġ": 90,
      "Ġt": 91,
      "in": 92,
      "Ġa": 93,
      "er": 94,
      "Ġs": 95,
      "Ġo": 96,
      "he": 97,
      "es": 98,
      "on": 99,
      "Ġi": 100,
      "an": 101,
      "or": 102,
      "en": 103,
      "Ġr": 104,
      "ar": 105,
      "ed": 106,
      "at": 107,
      "Ġc": 108,
      "Ġl": 109,
      "it": 110,
      "Ġf": 111,
      "Ġe": 112,
      "al": 113,
      "Ġn": 114,
      "Ġb": 115,
      "st": 116,
      "Ġw": 117,
      "Ġp": 118,
      "Ġh": 119,
      "il": 120,
      "Ġd": 121,
      "Ġ-": 122,
      "ic": 123,
      "is": 124,
      "et": 125,
      "Ġm": 126,
      "ĠS": 127,
      "el": 128,
      "ing": 129,
      "as": 130,
      "Ġthe": 131,
      "ro": 132,
      "Ġin": 133,
      "Ġto": 134,
      "re": 135,
      "ĠI": 136,
      "ut": 137,
      "ĠA": 138,
      "ay": 139,
      "ĠT": 140,
      "id": 141,
      "ur": 142,
      "ĠC": 143,
      "Ġof": 144,
      "ir": 145,
      "le": 146,
      "ot": 147,
      "om": 148,
      "ec": 149,
      "ol": 150,
      "ĠM": 151,
      "ion": 152,
      "ac": 153,
      "Ġg": 154,
      "ad": 155,
      "ĠP": 156,
      "ou": 157,
      "Ġ.": 158,
      "ĠB": 159,
      "ts": 160,
      "Ġu": 161,
      "ig": 162,
      "Ġon": 163,
      "ie": 164,
      "th": 165,
      "ers": 166,
      "am": 167,
      "ve": 168,
      "to": 169,
      "Ġ'": 170,
      "ĠW": 171,
      "ĠN": 172,
      "ent": 173,
      "ĠR": 174,
      "ĠF": 175,
      "us": 176,
      "Ġ#": 177,
      "39": 178,
      "ra": 179,
      "ri": 180,
      "ll": 181,
      "nt": 182,
      "ee": 183,
      "ĠD": 184,
      "Ġ(": 185,
      "ow": 186,
      "Ġan": 187,
      "Ġand": 188,
      "Ġv": 189,
      "Ġ1": 190,
      "ĠO": 191,
      "Ġy": 192,
      "ch": 193,
      "ce": 194,
      "ĠG": 195,
      "im": 196,
      "ĠE": 197,
      "io": 198,
      "est": 199,
      "Ġ,": 200,
      "ĠH": 201,
      "ea": 202,
      "ĠL": 203,
      "Ġfor": 204,
      "Ġst": 205,
      "un": 206,
      "'s": 207,
      "and": 208,
      "ld": 209,
      "Ġat": 210,
      "day": 211,
      "se": 212,
      "Ġre": 213,
      "ly": 214,
      "ng": 215,
      "Ġhe": 216,
      "ne": 217,
      "qu": 218,
      "ag": 219,
      "ht": 220,
      "op": 221,
      "ter": 222,
      "ai": 223,
      "em": 224,
      "ver": 225,
      "Ġas": 226,
      "la": 227,
      "ct": 228,
      "ak": 229,
      "od": 230,
      "li": 231,
      "rs": 232,
      "Ġis": 233,
      "ew": 234,
      "ĠJ": 235,
      "lo": 236,
      "Ġit": 237,
      "ĠĠ": 238,
      "ith": 239,
      "ap": 240,
      "ns": 241,
      "ear": 242,
      "be": 243,
      "ks": 244,
      "iv": 245,
      "ls": 246,
      "if": 247,
      "ess": 248,
      "up": 249,
      "Ġk": 250,
      "ist": 251,
      "'t": 252,
      "ul": 253,
      "ip": 254,
      "um": 255,
      "ain": 256,
      "ab": 257,
      "ian": 258,
      "rt": 259,
      "ho": 260,
      "ĠK": 261,
      "..": 262,
      "ud": 263,
      "ate": 264,
      "ss": 265,
      "ge": 266,
      "for": 267,
      "av": 268,
      "nc": 269,
      "Ġen": 270,
      "ei": 271,
      "ef": 272,
      "Ġsa": 273,
      "ry": 274,
      "all": 275,
      "ti": 276,
      "ast": 277,
      "oo": 278,
      "Ġer": 279,
      "ue": 280,
      "ha": 281,
      "mp": 282,
      "ĠThe": 283,
      "ies": 284,
      "ug": 285,
      "me": 286,
      "tr": 287,
      "ke": 288,
      "ation": 289,
      "ĠV": 290,
      "omp": 291,
      "ort": 292,
      "ii": 293,
      "ov": 294,
      "Ġpro": 295,
      "uc": 296,
      "Ġpr": 297,
      "ev": 298,
      "Ġby": 299,
      "gt": 300,
      "art": 301,
      "--": 302,
      "si": 303,
      "ust": 304,
      "pe": 305,
      "Ġsh": 306,
      "ine": 307,
      "ae": 308,
      "our": 309,
      "Ġte": 310,
      "Ġor": 311,
      "ob": 312,
      "ĠTh": 313,
      "Ġch": 314,
      "Ġcon": 315,
      "Ġar": 316,
      "ost": 317,
      "Ġqu": 318,
      "rom": 319,
      "end": 320,
      "ĠY": 321,
      "Ġex": 322,
      "out": 323,
      "eb": 324,
      "ub": 325,
      "Ġj": 326,
      "Ġits": 327,
      "Ġaf": 328,
      "ial": 329,
      "ack": 330,
      "ĠSt": 331,
      "ard": 332,
      "Ġal": 333,
      "Ġag": 334,
      "Ġse": 335,
      "\\$": 336,
      "Ġwith": 337,
      "co": 338,
      "Ġpl": 339,
      "her": 340,
      "ib": 341,
      "Ġthat": 342,
      "ity": 343,
      "af": 344,
      "sh": 345,
      "Ġle": 346,
      "ore": 347,
      "ĠCh": 348,
      "Ġhas": 349,
      "oe": 350,
      "Ġes": 351,
      "are": 352,
      "ni": 353,
      "oi": 354,
      "ant": 355,
      "pl": 356,
      "Ġac": 357,
      "ĠIn": 358,
      "de": 359,
      "Ġha": 360,
      "Ġco": 361,
      "wo": 362,
      "ell": 363,
      "rn": 364,
      "ice": 365,
      "Ġ3": 366,
      "ect": 367,
      "Ġsp": 368,
      "ds": 369,
      "res": 370,
      "AP": 371,
      "und": 372,
      "ight": 373,
      "ern": 374,
      "hn": 375,
      "Ġtr": 376,
      "ĠUS": 377,
      "Ġ;": 378,
      "In": 379,
      "ans": 380,
      "Ġ~": 381,
      "tt": 382,
      "hi": 383,
      "its": 384,
      ",-": 385,
      "sl": 386,
      "ck": 387,
      "Ġed": 388,
      "Ġ:": 389,
      "tl": 390,
      "ff": 391,
      "Ġad": 392,
      ".-": 393,
      "mer": 394,
      "Ġoff": 395,
      "Ġab": 396,
      "ln": 397,
      "uters": 398,
      "ond": 399,
      "rd": 400,
      "Ġup": 401,
      "Ġhis": 402,
      "cl": 403,
      "ive": 404,
      "Ġsaid": 405,
      "ih": 406,
      "Ġwh": 407,
      "ets": 408,
      "igh": 409,
      "Ġde": 410,
      "ah": 411,
      "ors": 412,
      "Ġfo": 413,
      "ace": 414,
      "Ġ\\$": 415,
      "ide": 416,
      "ile": 417,
      "pr": 418,
      "ment": 419,
      "ens": 420,
      "any": 421,
      "one": 422,
      "ong": 423,
      "Ġla": 424,
      "ite": 425,
      "old": 426,
      "Ġ--": 427,
      "ord": 428,
      "ree": 429,
      "ons": 430,
      "Ġwas": 431,
      "It": 432,
      "ins": 433,
      "nes": 434,
      "Ġ&": 435,
      "Is": 436,
      "ome": 437,
      "ber": 438,
      "ick": 439,
      "cr": 440,
      "ues": 441,
      "'d": 442,
      "Ġcomp": 443,
      "Ġ\"": 444,
      "Ġnew": 445,
      "ind": 446,
      "ĠFr": 447,
      "Ġts": 448,
      "ions": 449,
      "ays": 450,
      "Ġfrom": 451,
      "ta": 452,
      "gh": 453,
      "Ġun": 454,
      "ame": 455,
      "-.": 456,
      "da": 457,
      "Ġfir": 458,
      "ok": 459,
      "ati": 460,
      "Ġcl": 461,
      "sa": 462,
      "fo": 463,
      "arg": 464,
      "nn": 465,
      "Ġop": 466,
      "rl": 467,
      "Ġsc": 468,
      "Ġ4": 469,
      "Ġnd": 470,
      "anc": 471,
      "ass": 472,
      "Ġng": 473,
      "Ġti": 474,
      "ex": 475,
      "ure": 476,
      "nl": 477,
      "ould": 478,
      "ish": 479,
      "ark": 480,
      "na": 481,
      "Ġout": 482,
      "Ġgo": 483,
      "con": 484,
      "ina": 485,
      "Ġ9": 486,
      "ric": 487,
      "ase": 488,
      "ys": 489,
      "amp": 490,
      "ake": 491,
      ";/": 492,
      "Ġot": 493,
      "com": 494,
      "erv": 495,
      "iss": 496,
      "ire": 497,
      "oll": 498,
      "Ġwill": 499,
      "hs": 500,
      "ary": 501,
      "Ġ6": 502,
      "raq": 503,
      "act": 504,
      "man": 505,
      "Ġwi": 506,
      "age": 507,
      "ote": 508,
      "Ġta": 509,
      "Ie": 510,
      "Ġpe": 511,
      "ws": 512,
      "Ir": 513,
      "Ġcom": 514,
      "ĠAP": 515,
      "ier": 516,
      "bs": 517,
      "fe": 518,
      "po": 519,
      "Ġare": 520,
      "rit": 521,
      "Ġres": 522,
      "Ġq": 523,
      "ich": 524,
      ".,": 525,
      "Ġet": 526,
      "Ġso": 527,
      "hed": 528,
      "iu": 529,
      "ps": 530,
      "Ġover": 531,
      "OR": 532,
      "Ġrs": 533,
      "fi": 534,
      "pt": 535,
      "Ġma": 536,
      "ars": 537,
      "ade": 538,
      "bl": 539,
      "by": 540,
      "ert": 541,
      "ank": 542,
      "Ġsi": 543,
      "ict": 544,
      "oh": 545,
      "oy": 546,
      "ory": 547,
      "ise": 548,
      "Ġsec": 549,
      "ach": 550,
      "ont": 551,
      "orld": 552,
      "ime": 553,
      "ci": 554,
      "ous": 555,
      "we": 556,
      "own": 557,
      "por": 558,
      "Ġrec": 559,
      "ĠUn": 560,
      "rr": 561,
      "cs": 562,
      "ĠCo": 563,
      "ĠNew": 564,
      "Ġel": 565,
      "hat": 566,
      "Ġsl": 567,
      "Ġra": 568,
      "Ġme": 569,
      "Ġli": 570,
      "els": 571,
      "Ġol": 572,
      "'-": 573,
      "Ġfi": 574,
      "au": 575,
      "men": 576,
      "ĠIs": 577,
      "enc": 578,
      "Ġbu": 579,
      "ru": 580,
      "rg": 581,
      "Ġus": 582,
      "Ġper": 583,
      "ral": 584,
      "Ġtl": 585,
      "port": 586,
      "Ġsu": 587,
      "oa": 588,
      "ose": 589,
      "Ġfr": 590,
      "-,": 591,
      "Ġil": 592,
      "The": 593,
      "ele": 594,
      "xt": 595,
      "Ġ5": 596,
      "iday": 597,
      "Qu": 598,
      "ang": 599,
      "att": 600,
      "Ġyear": 601,
      "ash": 602,
      "AN": 603,
      "-'": 604,
      "Ġ200": 605,
      "hen": 606,
      "per": 607,
      "ett": 608,
      "ates": 609,
      "Ġut": 610,
      "gr": 611,
      "bo": 612,
      "led": 613,
      "iI": 614,
      "les": 615,
      "iz": 616,
      "ound": 617,
      "ĠMic": 618,
      "'m": 619,
      ".'": 620,
      "Ġss": 621,
      "ĠInt": 622,
      "ned": 623,
      "Ġquot": 624,
      "uro": 625,
      "Ġbut": 626,
      "Ġhave": 627,
      "ird": 628,
      "ĠIt": 629,
      "Ġlo": 630,
      "lr": 631,
      "Ġcr": 632,
      "Ġca": 633,
      "Ġpo": 634,
      "Ġmo": 635,
      "lin": 636,
      "ba": 637,
      "br": 638,
      "ces": 639,
      "eld": 640,
      "Id": 641,
      "ty": 642,
      "Ġur": 643,
      "Ġid": 644,
      "Ġall": 645,
      "mi": 646,
      "Ġnot": 647,
      ",.": 648,
      "AS": 649,
      "Ġwe": 650,
      "Ġbo": 651,
      "row": 652,
      "Ġafter": 653,
      "Ġtwo": 654,
      "sp": 655,
      "ices": 656,
      "Ġro": 657,
      "ves": 658,
      "Ġll": 659,
      "fl": 660,
      "nr": 661,
      "Ġing": 662,
      "ĠSh": 663,
      "aw": 664,
      "Ġ7": 665,
      "orp": 666,
      "ĠSp": 667,
      "Ġns": 668,
      "ĠWed": 669,
      "vi": 670,
      "ats": 671,
      "ush": 672,
      "ey": 673,
      "ĠInc": 674,
      "Ġic": 675,
      "Ġcou": 676,
      "Ġhi": 677,
      "Ġno": 678,
      "Ġtb": 679,
      "ĠAf": 680,
      "uter": 681,
      "ied": 682,
      "sr": 683,
      "Ġir": 684,
      "iy": 685,
      "ĠIraq": 686,
      "lp": 687,
      "ny": 688,
      "aI": 689,
      "ven": 690,
      "oss": 691,
      "Ġif": 692,
      "FP": 693,
      "Ġtt": 694,
      "Ġdo": 695,
      "ĠInd": 696,
      "hes": 697,
      "US": 698,
      "ited": 699,
      "ĠPr": 700,
      "ĠNo": 701,
      "bt": 702,
      "Ġear": 703,
      "ute": 704,
      "ph": 705,
      "ance": 706,
      "Ġone": 707,
      "Ġter": 708,
      "EW": 709,
      "ated": 710,
      "Ġef": 711,
      "ted": 712,
      "Ġwit": 713,
      "ble": 714,
      "hd": 715,
      ",'": 716,
      "aa": 717,
      "ww": 718,
      "Ġim": 719,
      "'.": 720,
      "hr": 721,
      "yst": 722,
      "ely": 723,
      "ik": 724,
      "Ġov": 725,
      "mo": 726,
      "Ġia": 727,
      "go": 728,
      "Ġfin": 729,
      "Ġint": 730,
      "ĠIr": 731,
      "ui": 732,
      "Reuters": 733,
      "Ġwin": 734,
      "wa": 735,
      "Th": 736,
      "Ġos": 737,
      "Ġay": 738,
      "ident": 739,
      "Ġve": 740,
      "Ġrt": 741,
      "orn": 742,
      "oun": 743,
      "Il": 744,
      "Ġwa": 745,
      "fr": 746,
      "off": 747,
      "Ġfl": 748,
      "mb": 749,
      "Ġie": 750,
      "ĠSe": 751,
      "Ġtn": 752,
      "Ġday": 753,
      "Ġ8": 754,
      "ĠEx": 755,
      "Ġ0": 756,
      "Ġsto": 757,
      "Ġret": 758,
      "Ġho": 759,
      "ock": 760,
      "use": 761,
      "Ġec": 762,
      "di": 763,
      "ica": 764,
      "ĠMon": 765,
      "ath": 766,
      "du": 767,
      "iti": 768,
      "Ġtheir": 769,
      "urn": 770,
      "ence": 771,
      "so": 772,
      "Ġtw": 773,
      "ief": 774,
      "illion": 775,
      "his": 776,
      "itt": 777,
      "ings": 778,
      "rm": 779,
      "Ġou": 780,
      "inc": 781,
      "uss": 782,
      "ĠPro": 783,
      "tn": 784,
      "ople": 785,
      "eri": 786,
      "Ġai": 787,
      "rc": 788,
      "lc": 789,
      "Ġea": 790,
      "alt": 791,
      "Ġlead": 792,
      "with": 793,
      "red": 794,
      "Ġtha": 795,
      "Ġend": 796,
      "Ġapp": 797,
      "Ġent": 798,
      "Ġls": 799,
      "bi": 800,
      "ĠAs": 801,
      "ght": 802,
      "Ġtbe": 803,
      "ther": 804,
      "ton": 805,
      "ason": 806,
      "der": 807,
      "Ġx": 808,
      "ĠAn": 809,
      "ann": 810,
      "gy": 811,
      "Ġlea": 812,
      "Ġwho": 813,
      "ao": 814,
      "hl": 815,
      "etw": 816,
      "roup": 817,
      "ene": 818,
      "lect": 819,
      "bu": 820,
      "sn": 821,
      "Ġwo": 822,
      "sc": 823,
      "Ġio": 824,
      "air": 825,
      "fer": 826,
      "ents": 827,
      "ler": 828,
      "Ġion": 829,
      "cc": 830,
      "that": 831,
      "Ġap": 832,
      "Ġfirst": 833,
      "ĠTues": 834,
      "Ġmore": 835,
      "Ġlt": 836,
      "Ġhad": 837,
      "ows": 838,
      "wi": 839,
      "Ġpre": 840,
      "Ch": 841,
      "ook": 842,
      "Ġthis": 843,
      "ult": 844,
      "arr": 845,
      "over": 846,
      "ani": 847,
      "Ġann": 848,
      "Ġoi": 849,
      "ĠAl": 850,
      "Ġind": 851,
      "Ġmon": 852,
      "arter": 853,
      "Ġbl": 854,
      "ally": 855,
      "has": 856,
      "ester": 857,
      "Ġsn": 858,
      "Ġpol": 859,
      "fs": 860,
      "dr": 861,
      "ainst": 862,
      "Ġdi": 863,
      "Ġacc": 864,
      "Ġln": 865,
      "do": 866,
      "lic": 867,
      "Ġmi": 868,
      "Ġoil": 869,
      "ete": 870,
      "err": 871,
      "Ġom": 872,
      "Ġlast": 873,
      "Ġ)": 874,
      "Ġri": 875,
      "Ġ10": 876,
      "Ġev": 877,
      "ales": 878,
      "ĠSo": 879,
      ";-": 880,
      "Ġmak": 881,
      "Ġdr": 882,
      "eo": 883,
      "lay": 884,
      "era": 885,
      "ĠMi": 886,
      "ua": 887,
      "Ġwar": 888,
      "ots": 889,
      "pi": 890,
      "irs": 891,
      "ze": 892,
      "ition": 893,
      "year": 894,
      "ead": 895,
      "Ġdec": 896,
      "ĠMa": 897,
      "Ġba": 898,
      "eg": 899,
      ",,": 900,
      "ines": 901,
      "ĠMo": 902,
      "Ġrel": 903,
      "ams": 904,
      "reat": 905,
      "Ġweek": 906,
      "ount": 907,
      "ĠBr": 908,
      "lan": 909,
      "ower": 910,
      "pa": 911,
      "td": 912,
      "ounc": 913,
      "vo": 914,
      "eral": 915,
      "Ġem": 916,
      "cks": 917,
      "vs": 918,
      "ware": 919,
      "inl": 920,
      "pen": 921,
      "Ġdes": 922,
      "Ġsup": 923,
      "Ġtro": 924,
      "ations": 925,
      "Ġplay": 926,
      "Ġset": 927,
      "Ġdef": 928,
      "Ġund": 929,
      "inn": 930,
      "fir": 931,
      "ER": 932,
      "ical": 933,
      "Ġii": 934,
      "ged": 935,
      "rat": 936,
      "ursday": 937,
      "uts": 938,
      "Ġinto": 939,
      "ech": 940,
      "gl": 941,
      "Ġant": 942,
      "Ġee": 943,
      "',": 944,
      "000": 945,
      "Io": 946,
      "Ġsur": 947,
      "ĠX": 948,
      "Ġrn": 949,
      "su": 950,
      "Ġtho": 951,
      "olog": 952,
      "ĠCl": 953,
      "IS": 954,
      "etr": 955,
      "ĠAr": 956,
      "fit": 957,
      "AT": 958,
      "ger": 959,
      "\"&": 960,
      "icial": 961,
      "elt": 962,
      "min": 963,
      "ĠQ": 964,
      "ĠNEW": 965,
      "Ic": 966,
      "Ġcan": 967,
      "Ġiu": 968,
      "way": 969,
      "iat": 970,
      "va": 971,
      "Ġthey": 972,
      "Ġld": 973,
      "//": 974,
      "Ġgr": 975,
      "able": 976,
      "nesday": 977,
      "lu": 978,
      "tp": 979,
      "Ġsay": 980,
      "gs": 981,
      "str": 982,
      "ved": 983,
      "lh": 984,
      "che": 985,
      "omb": 986,
      "Ġtie": 987,
      "10": 988,
      "cy": 989,
      "orm": 990,
      "sts": 991,
      "Ġimp": 992,
      "Ġins": 993,
      "Ġwil": 994,
      "vern": 995,
      "AL": 996,
      "Ġbeen": 997,
      "Ġye": 998,
      "atch": 999,
      "arn": 1000,
      "tion": 1001,
      "Ġow": 1002,
      "Ġ19": 1003,
      "ata": 1004,
      "''": 1005,
      "ĠCon": 1006,
      "land": 1007,
      "Ġvi": 1008,
      "Ġwere": 1009,
      "ĠSu": 1010,
      "ster": 1011,
      "ga": 1012,
      "ĠAt": 1013,
      "han": 1014,
      "Ġtri": 1015,
      "'re": 1016,
      "Ia": 1017,
      "Ġinc": 1018,
      "Ġae": 1019,
      "ĠCorp": 1020,
      "Ġpa": 1021,
      "ker": 1022,
      "was": 1023,
      "Ġtal": 1024,
      "orth": 1025,
      "oI": 1026,
      "ĠPe": 1027,
      "ĠTr": 1028,
      "Ġbi": 1029,
      "Ġers": 1030,
      "ony": 1031,
      "Ġsm": 1032,
      ")-": 1033,
      "ĠSund": 1034,
      "Ġtra": 1035,
      "Ġod": 1036,
      "app": 1037,
      "gn": 1038,
      "bal": 1039,
      "urt": 1040,
      "Ġback": 1041,
      "ret": 1042,
      "Ġcar": 1043,
      "ĠEuro": 1044,
      "Ġav": 1045,
      "fa": 1046,
      "Ii": 1047,
      "Ġtor": 1048,
      "AFP": 1049,
      "Ġda": 1050,
      "Ġserv": 1051,
      "pos": 1052,
      "iin": 1053,
      "Ġmay": 1054,
      "Ġfour": 1055,
      "ĠTo": 1056,
      "Ġmark": 1057,
      "echn": 1058,
      ";.": 1059,
      "ims": 1060,
      "oin": 1061,
      "Ġrd": 1062,
      "urity": 1063,
      "ald": 1064,
      "Ing": 1065,
      "Ġni": 1066,
      "cd": 1067,
      "Ġabout": 1068,
      "Ġher": 1069,
      "enn": 1070,
      "Reut": 1071,
      "lv": 1072,
      "ĠBl": 1073,
      "Ġfro": 1074,
      "ced": 1075,
      "ĠWe": 1076,
      "Ġkill": 1077,
      "ican": 1078,
      "ĠtI": 1079,
      "Ġser": 1080,
      "ĠQu": 1081,
      "Ġdev": 1082,
      "gu": 1083,
      "mt": 1084,
      "ĠSa": 1085,
      "Ġrun": 1086,
      "mon": 1087,
      "uch": 1088,
      "ĠPri": 1089,
      "ĠMonday": 1090,
      "ki": 1091,
      "erd": 1092,
      "Ġmed": 1093,
      "ists": 1094,
      "ecut": 1095,
      "ĠPh": 1096,
      "comp": 1097,
      "eep": 1098,
      "Ġair": 1099,
      "Ġiin": 1100,
      "ope": 1101,
      "xp": 1102,
      "lor": 1103,
      "get": 1104,
      "Ġht": 1105,
      "let": 1106,
      "ating": 1107,
      "jor": 1108,
      "Ġei": 1109,
      "EN": 1110,
      "ari": 1111,
      "=/": 1112,
      "ked": 1113,
      "ĠPa": 1114,
      "ING": 1115,
      "mn": 1116,
      "uf": 1117,
      "ĠTe": 1118,
      "sd": 1119,
      "nal": 1120,
      "Ġmin": 1121,
      "ares": 1122,
      "ita": 1123,
      "Ġhav": 1124,
      "vel": 1125,
      "Ġtak": 1126,
      "net": 1127,
      "ĠBu": 1128,
      "ĠSec": 1129,
      "eal": 1130,
      "Ġtop": 1131,
      "ges": 1132,
      "lear": 1133,
      "Ġly": 1134,
      "Ġmor": 1135,
      "Ġge": 1136,
      "ling": 1137,
      "Ġworld": 1138,
      "Ġnn": 1139,
      "ĠNe": 1140,
      "ĠFriday": 1141,
      "Ġbhe": 1142,
      "sto": 1143,
      "ilt": 1144,
      "ands": 1145,
      "uo": 1146,
      "://": 1147,
      "fin": 1148,
      "vt": 1149,
      "atl": 1150,
      "Ġah": 1151,
      "ĠUp": 1152,
      "rh": 1153,
      "ury": 1154,
      "ones": 1155,
      "Ġteam": 1156,
      "Ġci": 1157,
      "king": 1158,
      "new": 1159,
      "ley": 1160,
      "itn": 1161,
      "ici": 1162,
      "dn": 1163,
      "ater": 1164,
      "Ġsoft": 1165,
      "isc": 1166,
      "ths": 1167,
      "iness": 1168,
      "Ġplan": 1169,
      "elr": 1170,
      "Ġpos": 1171,
      "from": 1172,
      "ily": 1173,
      "ĠUN": 1174,
      "ĠAm": 1175,
      "Ġaa": 1176,
      "erm": 1177,
      "CO": 1178,
      "Ġlin": 1179,
      "Ġds": 1180,
      "Ġaid": 1181,
      "ĠCan": 1182,
      "ince": 1183,
      "DA": 1184,
      "Ġeo": 1185,
      "ori": 1186,
      "Ġnc": 1187,
      "ĠFo": 1188,
      "Ġew": 1189,
      "ste": 1190,
      "ourt": 1191,
      "hel": 1192,
      "ĠJo": 1193,
      "Int": 1194,
      "adi": 1195,
      "ady": 1196,
      "Ġih": 1197,
      "ris": 1198,
      "fu": 1199,
      "inu": 1200,
      "Ġyou": 1201,
      "anl": 1202,
      "ĠAust": 1203,
      "ove": 1204,
      "200": 1205,
      "rosoft": 1206,
      "89": 1207,
      "Ġsb": 1208,
      "outh": 1209,
      "ĠOn": 1210,
      "hip": 1211,
      "head": 1212,
      "EL": 1213,
      "Ġith": 1214,
      "ision": 1215,
      "said": 1216,
      "uk": 1217,
      "As": 1218,
      "irt": 1219,
      "uring": 1220,
      "edi": 1221,
      "Ġwork": 1222,
      "Ġsays": 1223,
      "ĠHe": 1224,
      "fn": 1225,
      "ĠSto": 1226,
      "ister": 1227,
      "ĠYORK": 1228,
      "acks": 1229,
      "Ġtime": 1230,
      "ĠGr": 1231,
      "Ġtel": 1232,
      "ĠSun": 1233,
      "iee": 1234,
      "Ġru": 1235,
      "OS": 1236,
      "Ġty": 1237,
      "alf": 1238,
      "Ġwould": 1239,
      "Ġgro": 1240,
      "Ġib": 1241,
      "Ġpart": 1242,
      "Ġthei": 1243,
      "Ġton": 1244,
      "Ġhigh": 1245,
      "Ġgame": 1246,
      "Ġcont": 1247,
      "will": 1248,
      "cess": 1249,
      "ange": 1250,
      "ĠCa": 1251,
      "Ġtd": 1252,
      "rv": 1253,
      "On": 1254,
      "Ġ39": 1255,
      "lI": 1256,
      "Ġthree": 1257,
      "arm": 1258,
      "irst": 1259,
      "Ġwhen": 1260,
      "Ġtle": 1261,
      "Ġthi": 1262,
      "bd": 1263,
      "Ġthre": 1264,
      "uld": 1265,
      "ĠBush": 1266,
      "Ġcould": 1267,
      "ana": 1268,
      "illi": 1269,
      "ĠOly": 1270,
      "mm": 1271,
      "ols": 1272,
      "Ġill": 1273,
      "ito": 1274,
      "top": 1275,
      "ĠWi": 1276,
      "uth": 1277,
      "ement": 1278,
      "Ġaft": 1279,
      "ĠPal": 1280,
      "ĠRed": 1281,
      "orl": 1282,
      "Ġpi": 1283,
      "Ġdown": 1284,
      "ude": 1285,
      "back": 1286,
      "Ġtf": 1287,
      "Ġnext": 1288,
      "oul": 1289,
      "ears": 1290,
      "Ġ11": 1291,
      "New": 1292,
      ";&": 1293,
      "ped": 1294,
      "ĠCup": 1295,
      "Ġcompany": 1296,
      "Ġrep": 1297,
      "Ġtc": 1298,
      "ational": 1299,
      "Ġpla": 1300,
      "fore": 1301,
      "nh": 1302,
      "uit": 1303,
      "Ġoe": 1304,
      "Ġbas": 1305,
      "iant": 1306,
      "Ġig": 1307,
      "ries": 1308,
      "ren": 1309,
      "Ġwhe": 1310,
      "Ġcons": 1311,
      "ids": 1312,
      "rel": 1313,
      "-;": 1314,
      "Ġtthe": 1315,
      "tb": 1316,
      "lf": 1317,
      "ĠOil": 1318,
      "ece": 1319,
      "Ġoa": 1320,
      "Ġeh": 1321,
      "Se": 1322,
      "Ġ2004": 1323,
      "gest": 1324,
      "Ġred": 1325,
      "itl": 1326,
      "ĠGe": 1327,
      "Ġlat": 1328,
      "Ġwon": 1329,
      "ĠĠĠ": 1330,
      "Ġhs": 1331,
      "An": 1332,
      "rI": 1333,
      "ised": 1334,
      "ĠSer": 1335,
      "ism": 1336,
      "ĠIBM": 1337,
      "Ġtoday": 1338,
      "Ion": 1339,
      "form": 1340,
      "gan": 1341,
      "lat": 1342,
      "arge": 1343,
      "Ġche": 1344,
      "Ġcs": 1345,
      "ĠRep": 1346,
      "Ih": 1347,
      "here": 1348,
      "Ġwhich": 1349,
      "Ġact": 1350,
      "rec": 1351,
      "ĠEng": 1352,
      "IT": 1353,
      "Ġkn": 1354,
      "ery": 1355,
      "ures": 1356,
      "rb": 1357,
      "erl": 1358,
      "Ġget": 1359,
      "ĠTuesday": 1360,
      "dy": 1361,
      "ĠiP": 1362,
      "20": 1363,
      "ĠSte": 1364,
      "At": 1365,
      "Ġcut": 1366,
      "Ġyears": 1367,
      "atn": 1368,
      "dl": 1369,
      "ept": 1370,
      "Ġamp": 1371,
      "Ġshe": 1372,
      "Ġpub": 1373,
      "isn": 1374,
      "ĠLa": 1375,
      "leg": 1376,
      "ato": 1377,
      "rol": 1378,
      "36": 1379,
      "ney": 1380,
      "ads": 1381,
      "Ġopen": 1382,
      "Ġip": 1383,
      "Ġep": 1384,
      "Ġove": 1385,
      "ĠGoo": 1386,
      "lb": 1387,
      "Ġecon": 1388,
      "Ġain": 1389,
      "riv": 1390,
      "ek": 1391,
      "Ġcn": 1392,
      "Ġsr": 1393,
      "Ġelect": 1394,
      "Ġbel": 1395,
      "Ġtio": 1396,
      "Ġob": 1397,
      "ona": 1398,
      "ods": 1399,
      ":-": 1400,
      "eat": 1401,
      "asp": 1402,
      "rew": 1403,
      "Ġcal": 1404,
      "uy": 1405,
      "Ġjob": 1406,
      "Ġdeal": 1407,
      "Ġtake": 1408,
      "tes": 1409,
      "reed": 1410,
      "tor": 1411,
      "Ġmar": 1412,
      "ino": 1413,
      "yo": 1414,
      "ink": 1415,
      "Ġnight": 1416,
      "Ġhit": 1417,
      "Ġthr": 1418,
      "ians": 1419,
      "www": 1420,
      "ency": 1421,
      "Ġele": 1422,
      "cal": 1423,
      "Ġhat": 1424,
      "Ġihe": 1425,
      "bh": 1426,
      "Ġoo": 1427,
      "Ġmost": 1428,
      "ait": 1429,
      "irn": 1430,
      "have": 1431,
      "ĠWorld": 1432,
      "ocks": 1433,
      "Ġnow": 1434,
      "can": 1435,
      "Ġoft": 1436,
      "Ġhelp": 1437,
      "Iy": 1438,
      "Ġito": 1439,
      "Ar": 1440,
      "esi": 1441,
      "Ġlow": 1442,
      "Ġreport": 1443,
      "11": 1444,
      "my": 1445,
      "Ġrl": 1446,
      "ded": 1447,
      "Ġcor": 1448,
      "ĠTu": 1449,
      "Ġagainst": 1450,
      "Ig": 1451,
      "Ġmov": 1452,
      "bel": 1453,
      "Ġry": 1454,
      "atr": 1455,
      "ami": 1456,
      "Al": 1457,
      "EC": 1458,
      "eto": 1459,
      "rup": 1460,
      "ĠSi": 1461,
      "lon": 1462,
      "arget": 1463,
      "ĠSunday": 1464,
      "),": 1465,
      "-#": 1466,
      "ernet": 1467,
      "ede": 1468,
      "Ġrc": 1469,
      "Ġbuy": 1470,
      "ison": 1471,
      "Ġvict": 1472,
      "ips": 1473,
      "ĠBa": 1474,
      "usic": 1475,
      "arch": 1476,
      "enr": 1477,
      "oln": 1478,
      "vn": 1479,
      "ĠWo": 1480,
      "IC": 1481,
      "Ġtto": 1482,
      "Ġao": 1483,
      "Ġrr": 1484,
      "Ġass": 1485,
      "Ġbs": 1486,
      "Ġany": 1487,
      "Ġsit": 1488,
      "ml": 1489,
      "Ġsho": 1490,
      "ĠWeb": 1491,
      "Ġbid": 1492,
      "bed": 1493,
      "Ġsd": 1494,
      "Ġoh": 1495,
      "esd": 1496,
      "Ġcla": 1497,
      "otn": 1498,
      "Ġsome": 1499,
      ".;": 1500,
      "Ġlas": 1501,
      "aln": 1502,
      "ĠUnited": 1503,
      "Ġoc": 1504,
      "esr": 1505,
      "Ġmp": 1506,
      "Ġaw": 1507,
      "eter": 1508,
      "ĠGo": 1509,
      "Ġthird": 1510,
      "Im": 1511,
      "Ġriv": 1512,
      "Or": 1513,
      "Inc": 1514,
      "ints": 1515,
      "Ġian": 1516,
      "Ġnear": 1517,
      "Ġthee": 1518,
      "ĠJapan": 1519,
      "lng": 1520,
      "erc": 1521,
      "ued": 1522,
      "EO": 1523,
      "ĠChina": 1524,
      ").": 1525,
      "dd": 1526,
      "acc": 1527,
      "Ġ12": 1528,
      "ung": 1529,
      "Ġnl": 1530,
      "Wed": 1531,
      "yi": 1532,
      "Ġway": 1533,
      "iln": 1534,
      "reak": 1535,
      "Ġtin": 1536,
      "Ġms": 1537,
      "etd": 1538,
      "ior": 1539,
      "Ġpay": 1540,
      "ĠEn": 1541,
      "quot": 1542,
      "Reu": 1543,
      "Ġwer": 1544,
      "So": 1545,
      "ards": 1546,
      "ĠPak": 1547,
      "Ġtot": 1548,
      "arc": 1549,
      "Ġck": 1550,
      "Ġpt": 1551,
      "Ġtoo": 1552,
      "Ġps": 1553,
      "elop": 1554,
      "ĠEU": 1555,
      "omy": 1556,
      "Ġuse": 1557,
      "Ġjust": 1558,
      "esday": 1559,
      "ĠBy": 1560,
      "Ġrh": 1561,
      "ĠCr": 1562,
      "ump": 1563,
      "win": 1564,
      "tha": 1565,
      "Ġau": 1566,
      "Ġshow": 1567,
      "Ġithe": 1568,
      "full": 1569,
      "lar": 1570,
      "onal": 1571,
      "after": 1572,
      "ding": 1573,
      "Ġist": 1574,
      "Ġther": 1575,
      "ring": 1576,
      "nce": 1577,
      "Ġhim": 1578,
      "Ġga": 1579,
      "Ġeb": 1580,
      "ĠAFP": 1581,
      "Ġthem": 1582,
      "loy": 1583,
      "Ġeas": 1584,
      "hy": 1585,
      "Ġthie": 1586,
      "Ġhead": 1587,
      "tu": 1588,
      "Ġown": 1589,
      "ĠMe": 1590,
      "ĠThursday": 1591,
      "eak": 1592,
      "ular": 1593,
      "mes": 1594,
      "sb": 1595,
      "Ġsta": 1596,
      "Ġiv": 1597,
      "key": 1598,
      ".&": 1599,
      "tc": 1600,
      "ero": 1601,
      "Ġinn": 1602,
      "ĠComp": 1603,
      "Ġlh": 1604,
      "Ġke": 1605,
      "ĠFi": 1606,
      "ĠWith": 1607,
      "iS": 1608,
      "ĠCom": 1609,
      "ages": 1610,
      "BC": 1611,
      "Ġgovern": 1612,
      "iing": 1613,
      "ria": 1614,
      "even": 1615,
      ";...&": 1616,
      "Ġths": 1617,
      "-(": 1618,
      "Ġled": 1619,
      "Ġhn": 1620,
      "Ġsub": 1621,
      "ounced": 1622,
      "Ġlhe": 1623,
      "Ġine": 1624,
      ";'": 1625,
      "Ġtihe": 1626,
      "Ġart": 1627,
      "Ġinj": 1628,
      "rst": 1629,
      "Ġver": 1630,
      "eu": 1631,
      "Ġsf": 1632,
      "inst": 1633,
      "Ġnet": 1634,
      "ider": 1635,
      "Ġmake": 1636,
      "bor": 1637,
      "tI": 1638,
      "Ġted": 1639,
      "lly": 1640,
      "ship": 1641,
      "Pr": 1642,
      "nts": 1643,
      "ters": 1644,
      "http": 1645,
      "wit": 1646,
      "ĠsI": 1647,
      "isl": 1648,
      "Ġpeople": 1649,
      "otr": 1650,
      "ĠBus": 1651,
      "ween": 1652,
      "Ġey": 1653,
      "ĠChe": 1654,
      "ĠDo": 1655,
      "Ġwl": 1656,
      "Ġws": 1657,
      "eta": 1658,
      "ĠSl": 1659,
      "fd": 1660,
      "vers": 1661,
      "Ġban": 1662,
      "Ġmen": 1663,
      "Ġfs": 1664,
      "Ġpu": 1665,
      "Ġmillion": 1666,
      "rer": 1667,
      "ĠTa": 1668,
      "Ġ...": 1669,
      "Ġlong": 1670,
      "19": 1671,
      "Ġpost": 1672,
      "Ġhy": 1673,
      "ĠaI": 1674,
      "ĠPo": 1675,
      "Ġbt": 1676,
      "Ġgroup": 1677,
      "nter": 1678,
      "wor": 1679,
      "IA": 1680,
      "Ġrm": 1681,
      "Ġlf": 1682,
      "Ġyes": 1683,
      "ĠUK": 1684,
      "Ġsecond": 1685,
      "ĠThurs": 1686,
      "ĠYork": 1687,
      "ities": 1688,
      "IL": 1689,
      "ya": 1690,
      "Ġtre": 1691,
      "het": 1692,
      "kes": 1693,
      "Ġgam": 1694,
      "round": 1695,
      "ĠAnd": 1696,
      "bas": 1697,
      "Ġtes": 1698,
      "ĠPre": 1699,
      "Ġ15": 1700,
      "Quote": 1701,
      "erry": 1702,
      "ĠWa": 1703,
      "Ġanl": 1704,
      "ĠSan": 1705,
      "Ġhome": 1706,
      "Ġdeb": 1707,
      "ĠGre": 1708,
      "ĠHa": 1709,
      "Ġseason": 1710,
      "inf": 1711,
      "gen": 1712,
      "Ġbank": 1713,
      "vr": 1714,
      "Ġrea": 1715,
      "Ġsea": 1716,
      "Af": 1717,
      "olr": 1718,
      "iag": 1719,
      "Ġwn": 1720,
      "Ġput": 1721,
      "Ġprices": 1722,
      "aq": 1723,
      "'ll": 1724,
      "ico": 1725,
      "inr": 1726,
      "eI": 1727,
      "ĠAll": 1728,
      "oni": 1729,
      "eir": 1730,
      "fur": 1731,
      "Ġdet": 1732,
      "Ġree": 1733,
      "Ġbh": 1734,
      "ift": 1735,
      "alk": 1736,
      "ama": 1737,
      "nds": 1738,
      "Ġ18": 1739,
      "Ġrev": 1740,
      "ĠReuters": 1741,
      "Ġfn": 1742,
      "estin": 1743,
      "heir": 1744,
      "Ġmer": 1745,
      "ĠAss": 1746,
      "ĠTi": 1747,
      "mpic": 1748,
      "rot": 1749,
      "ago": 1750,
      "cor": 1751,
      "Ġwr": 1752,
      "Ġhl": 1753,
      "aiy": 1754,
      "hing": 1755,
      "ĠiS": 1756,
      "Ġnum": 1757,
      "Ġcall": 1758,
      "ises": 1759,
      "Ġcomm": 1760,
      "oup": 1761,
      "ĠHo": 1762,
      "Ġsof": 1763,
      "uti": 1764,
      "ĠDel": 1765,
      "ext": 1766,
      "oti": 1767,
      "Ġother": 1768,
      "onr": 1769,
      "Ġmilit": 1770,
      "TA": 1771,
      "Ġthet": 1772,
      "Ġ/": 1773,
      "ara": 1774,
      "eme": 1775,
      "Ġagain": 1776,
      "uj": 1777,
      "ĠNov": 1778,
      "ĠSox": 1779,
      "onn": 1780,
      "itr": 1781,
      "ĠIndia": 1782,
      "Ġtm": 1783,
      "info": 1784,
      "Ġtion": 1785,
      "Ġmonth": 1786,
      "owing": 1787,
      "iw": 1788,
      "inig": 1789,
      "tle": 1790,
      "ila": 1791,
      "ĠIT": 1792,
      "play": 1793,
      "Ma": 1794,
      "Ġoif": 1795,
      "30": 1796,
      "olt": 1797,
      "'ve": 1798,
      "mar": 1799,
      "esp": 1800,
      "Ġsk": 1801,
      "Ġmarket": 1802,
      "bus": 1803,
      "Ġopp": 1804,
      "Ġff": 1805,
      "Ġlaw": 1806,
      "nday": 1807,
      "vid": 1808,
      "tho": 1809,
      "cb": 1810,
      "ĠLo": 1811,
      "14": 1812,
      "oli": 1813,
      "tic": 1814,
      "Ġlr": 1815,
      "irm": 1816,
      "ape": 1817,
      "yl": 1818,
      "Ġons": 1819,
      "inal": 1820,
      "Ġhu": 1821,
      "vl": 1822,
      "esl": 1823,
      "ĠRa": 1824,
      "edt": 1825,
      "ĠUs": 1826,
      "ments": 1827,
      "ban": 1828,
      "Ġfu": 1829,
      "inng": 1830,
      "Ġdt": 1831,
      "Ġini": 1832,
      "Ġyea": 1833,
      "nst": 1834,
      "enl": 1835,
      "Ġever": 1836,
      "Ġhop": 1837,
      "Ġoth": 1838,
      "Ġdn": 1839,
      "ĠIf": 1840,
      "ĠNet": 1841,
      "ĠDa": 1842,
      "idd": 1843,
      "ĠOr": 1844,
      "ampion": 1845,
      "Ġtry": 1846,
      "Ġbill": 1847,
      "osp": 1848,
      "Ġcu": 1849,
      "Ġeven": 1850,
      "Ġ14": 1851,
      "Ġstart": 1852,
      "Ġsuc": 1853,
      "Ġ16": 1854,
      "Full": 1855,
      "Ġeff": 1856,
      "Ġ.-": 1857,
      "Ier": 1858,
      "set": 1859,
      "Ġbat": 1860,
      "vd": 1861,
      "Ġbn": 1862,
      "Ġlc": 1863,
      "ĠWednesday": 1864,
      "Ġ-.": 1865,
      "son": 1866,
      "Ġate": 1867,
      "etwork": 1868,
      "alr": 1869,
      "Mo": 1870,
      "Ġ-'": 1871,
      "Ġrat": 1872,
      "ores": 1873,
      "mr": 1874,
      "Ġmu": 1875,
      "Ġ17": 1876,
      "Ġland": 1877,
      "Le": 1878,
      "Ġtechn": 1879,
      "abl": 1880,
      "Ġcost": 1881,
      "rie": 1882,
      "osn": 1883,
      "ĠJohn": 1884,
      "Ġsales": 1885,
      "iter": 1886,
      "Ġvo": 1887,
      "Ai": 1888,
      "Ġtol": 1889,
      "Ġfive": 1890,
      "Ġstar": 1891,
      "aspx": 1892,
      "Ġies": 1893,
      "Ġhand": 1894,
      "Ġtoi": 1895,
      "lee": 1896,
      "Ġgl": 1897,
      "Ġrecord": 1898,
      "nk": 1899,
      "Ġoin": 1900,
      "Ġfer": 1901,
      "rab": 1902,
      "ĠOf": 1903,
      "Ġquarter": 1904,
      "Ġtur": 1905,
      "Ġnews": 1906,
      "bat": 1907,
      "mber": 1908,
      "Ġsy": 1909,
      "Ġlon": 1910,
      "Ip": 1911,
      "LE": 1912,
      "No": 1913,
      "date": 1914,
      "Ġsin": 1915,
      "Ġki": 1916,
      "Ġnf": 1917,
      "ustry": 1918,
      "12": 1919,
      "~-": 1920,
      "Ġ30": 1921,
      "rin": 1922,
      "ĠAu": 1923,
      "ĠOpen": 1924,
      "ix": 1925,
      "sec": 1926,
      "ĠiT": 1927,
      "Ġson": 1928,
      "Ġinvest": 1929,
      "ĠCi": 1930,
      "bes": 1931,
      "elf": 1932,
      "Ġago": 1933,
      "hc": 1934,
      "Reuter": 1935,
      "wl": 1936,
      "Ġina": 1937,
      "eas": 1938,
      "ĠHREF": 1939,
      "Ġlor": 1940,
      "Soft": 1941,
      "ined": 1942,
      "itc": 1943,
      "SE": 1944,
      "za": 1945,
      "Ġks": 1946,
      "amm": 1947,
      "esh": 1948,
      "Ġdou": 1949,
      "Ġ13": 1950,
      "Ġtv": 1951,
      "Ġmade": 1952,
      "uns": 1953,
      "ility": 1954,
      "Ġiw": 1955,
      "ivers": 1956,
      "hu": 1957,
      "Ġtest": 1958,
      "Ġcb": 1959,
      "Ġfar": 1960,
      "Ġfut": 1961,
      "eln": 1962,
      "ĠAi": 1963,
      "iea": 1964,
      "jo": 1965,
      "Ġthel": 1966,
      "ĠEd": 1967,
      "ĠIran": 1968,
      "asl": 1969,
      "Ġtht": 1970,
      "ody": 1971,
      "ĠVi": 1972,
      "Ġwhat": 1973,
      "pon": 1974,
      "Ġunder": 1975,
      "Ġinf": 1976,
      "lec": 1977,
      "ige": 1978,
      "FL": 1979,
      "To": 1980,
      "Ġaut": 1981,
      "Ġmn": 1982,
      "Ġeg": 1983,
      "ĠNot": 1984,
      "Ġshar": 1985,
      "ĠBank": 1986,
      "Ġrest": 1987,
      "Ġgt": 1988,
      "ĠWar": 1989,
      "sta": 1990,
      "ific": 1991,
      "nm": 1992,
      "nin": 1993,
      "Ġdep": 1994,
      "Ġcompan": 1995,
      "Ġess": 1996,
      "ko": 1997,
      "yr": 1998,
      "Ġloss": 1999,
      "nti": 2000,
      "Ġkey": 2001,
      "Ġhan": 2002,
      "hei": 2003,
      "ora": 2004,
      "ĠEl": 2005,
      "onl": 2006,
      "aty": 2007,
      "Ġnin": 2008,
      "isco": 2009,
      "than": 2010,
      "ering": 2011,
      "Ġfou": 2012,
      "ilng": 2013,
      "ela": 2014,
      "asi": 2015,
      "asn": 2016,
      "Ġrul": 2017,
      "Ġemp": 2018,
      "Ġnr": 2019,
      "Ġthen": 2020,
      "';": 2021,
      "aft": 2022,
      "Ġmove": 2023,
      "pped": 2024,
      "atd": 2025,
      "Ġgi": 2026,
      "ĠWin": 2027,
      "wt": 2028,
      "ened": 2029,
      "ĠAug": 2030,
      "ĠYa": 2031,
      "Ġbomb": 2032,
      "nf": 2033,
      "Ġold": 2034,
      "tei": 2035,
      "-:": 2036,
      "attle": 2037,
      "Ies": 2038,
      "Ġdri": 2039,
      "Ġlthe": 2040,
      "iles": 2041,
      "icl": 2042,
      "ĠIS": 2043,
      "eca": 2044,
      "lls": 2045,
      "Ġsen": 2046,
      "ume": 2047,
      "ills": 2048,
      "ĠPol": 2049,
      "etn": 2050,
      "Ġgov": 2051,
      "rf": 2052,
      "ĠWor": 2053,
      "iri": 2054,
      "Ġrf": 2055,
      "orea": 2056,
      "Ġhow": 2057,
      "iei": 2058,
      "rip": 2059,
      "Ġwt": 2060,
      "acl": 2061,
      "Mi": 2062,
      "inv": 2063,
      "Ġite": 2064,
      "Ġmt": 2065,
      "Ġinl": 2066,
      "ean": 2067,
      "Ġond": 2068,
      ".\"": 2069,
      "ĠSw": 2070,
      "Ġplans": 2071,
      "Ġlm": 2072,
      "Ġwou": 2073,
      "ĠSn": 2074,
      "ĠDec": 2075,
      "iod": 2076,
      "quick": 2077,
      "Ġsat": 2078,
      "ĠIa": 2079,
      "Ġthc": 2080,
      "rim": 2081,
      "edl": 2082,
      "ilg": 2083,
      "ĠIra": 2084,
      "imed": 2085,
      "Ġagre": 2086,
      "ĠWal": 2087,
      "eting": 2088,
      "ĠBi": 2089,
      "Ġvic": 2090,
      "hey": 2091,
      "oci": 2092,
      "ults": 2093,
      "ĠIraqi": 2094,
      "Ġtar": 2095,
      "ĠWest": 2096,
      "ĠDi": 2097,
      "iai": 2098,
      "Ġdays": 2099,
      "Ġros": 2100,
      "ira": 2101,
      "ĠUni": 2102,
      "-~": 2103,
      "Ġral": 2104,
      "ying": 2105,
      "ĠDr": 2106,
      "Ġmajor": 2107,
      "Ġspe": 2108,
      "ĠOrac": 2109,
      "Ġclos": 2110,
      "week": 2111,
      "Ġnto": 2112,
      "ĠJa": 2113,
      "Ġfinal": 2114,
      "oil": 2115,
      "Ġofi": 2116,
      "Pa": 2117,
      "Ġrb": 2118,
      "ided": 2119,
      "Ġont": 2120,
      "ĠJu": 2121,
      "ife": 2122,
      "Ied": 2123,
      "ham": 2124,
      "Ġtlo": 2125,
      "hin": 2126,
      "pol": 2127,
      "ader": 2128,
      "04": 2129,
      "Ġran": 2130,
      "Fi": 2131,
      "Ġles": 2132,
      "Ġlar": 2133,
      "Ġdow": 2134,
      "Ġpercent": 2135,
      "Ġcc": 2136,
      "Ġjo": 2137,
      "Sa": 2138,
      "Ġiof": 2139,
      "Ġglo": 2140,
      "Ġlb": 2141,
      "oney": 2142,
      "Cl": 2143,
      "had": 2144,
      "Ġlto": 2145,
      "Ġref": 2146,
      "ĠStr": 2147,
      "thi": 2148,
      "ending": 2149,
      "arte": 2150,
      "Ot": 2151,
      "etl": 2152,
      "Ġgh": 2153,
      "Ġdrug": 2154,
      "Ġlit": 2155,
      "We": 2156,
      "Ġrhe": 2157,
      "hm": 2158,
      "ioi": 2159,
      "Ġafte": 2160,
      "For": 2161,
      "Ġcas": 2162,
      "ecs": 2163,
      "que": 2164,
      "Ġdead": 2165,
      "irc": 2166,
      "Ġ-#": 2167,
      "ires": 2168,
      "16": 2169,
      "ety": 2170,
      "ĠRu": 2171,
      "Ġdu": 2172,
      "Ġans": 2173,
      "UN": 2174,
      "ites": 2175,
      "lei": 2176,
      "tos": 2177,
      "tm": 2178,
      "Ġsold": 2179,
      "itch": 2180,
      "cted": 2181,
      "Ġtalks": 2182,
      "ials": 2183,
      "Ġkilled": 2184,
      "bro": 2185,
      "ĠlI": 2186,
      "usi": 2187,
      "Ġadv": 2188,
      "Ġmaker": 2189,
      "Ġiis": 2190,
      "orr": 2191,
      "itg": 2192,
      "ieg": 2193,
      "Ġleast": 2194,
      "Ġalt": 2195,
      "Ġnat": 2196,
      "ĠHol": 2197,
      "inux": 2198,
      "Ġore": 2199,
      "Ġleft": 2200,
      "ĠtO": 2201,
      "alls": 2202,
      "ĠSch": 2203,
      "Ġani": 2204,
      "Si": 2205,
      "ithe": 2206,
      "Ġtoe": 2207,
      "ĠFe": 2208,
      "Ġnh": 2209,
      "lion": 2210,
      "Ġren": 2211,
      "ala": 2212,
      "Ġtlhe": 2213,
      "ends": 2214,
      "Ġadd": 2215,
      "Ġul": 2216,
      "Ġort": 2217,
      "ethe": 2218,
      "ingi": 2219,
      "Ġtp": 2220,
      "ĠDep": 2221,
      "Ġpric": 2222,
      "Ġfol": 2223,
      "Ġthte": 2224,
      "ĠMay": 2225,
      "umer": 2226,
      "UR": 2227,
      "tal": 2228,
      "bc": 2229,
      "Ġrin": 2230,
      "ĠTwo": 2231,
      "ught": 2232,
      "Te": 2233,
      "Ġrac": 2234,
      "Ġfre": 2235,
      "Ġdom": 2236,
      "Ġmis": 2237,
      "Ġue": 2238,
      "Ġhel": 2239,
      "Ġyesterday": 2240,
      "Br": 2241,
      "Ġdea": 2242,
      "ĠNor": 2243,
      "ĠAustral": 2244,
      "ĠiI": 2245,
      "Ġonly": 2246,
      "sti": 2247,
      "ĠMicrosoft": 2248,
      "Ġny": 2249,
      "ĠSouth": 2250,
      "cha": 2251,
      "ĠGroup": 2252,
      "ĠThur": 2253,
      "ky": 2254,
      "enti": 2255,
      "illed": 2256,
      "Ġ25": 2257,
      "ĠState": 2258,
      "nb": 2259,
      "Ġothe": 2260,
      "np": 2261,
      "wr": 2262,
      "elo": 2263,
      "Ġtos": 2264,
      "Iv": 2265,
      "md": 2266,
      "Ġlan": 2267,
      "quote": 2268,
      "Ġtth": 2269,
      "ĠNorth": 2270,
      "ĠGa": 2271,
      "ĠIntern": 2272,
      "first": 2273,
      "sy": 2274,
      "uer": 2275,
      "Ġtarget": 2276,
      "ĠOne": 2277,
      "tro": 2278,
      "ux": 2279,
      "Ġrp": 2280,
      "Ġbillion": 2281,
      "Ġbeat": 2282,
      "Ġder": 2283,
      "Ad": 2284,
      "Ġtec": 2285,
      "who": 2286,
      "ĠCe": 2287,
      "tive": 2288,
      "ource": 2289,
      "Reute": 2290,
      "cle": 2291,
      "ilo": 2292,
      "Ġthle": 2293,
      "ĠBar": 2294,
      "ngs": 2295,
      "Sl": 2296,
      "hol": 2297,
      "Ġiln": 2298,
      "enal": 2299,
      "Ġfam": 2300,
      "aii": 2301,
      "uI": 2302,
      "ioe": 2303,
      "ĠeI": 2304,
      "Be": 2305,
      "Ġstate": 2306,
      "lies": 2307,
      "25": 2308,
      "ging": 2309,
      "sI": 2310,
      "arly": 2311,
      "run": 2312,
      "Ġbil": 2313,
      "sf": 2314,
      "igi": 2315,
      "Ġaud": 2316,
      "ola": 2317,
      "Ġfirm": 2318,
      "met": 2319,
      "into": 2320,
      "Ġien": 2321,
      "ĠCha": 2322,
      "cut": 2323,
      "Ġlet": 2324,
      "ides": 2325,
      "Ġline": 2326,
      "ĠBost": 2327,
      "hit": 2328,
      "Ġtih": 2329,
      "ano": 2330,
      "rio": 2331,
      "asd": 2332,
      "Ġys": 2333,
      "ĠNews": 2334,
      "Ġonl": 2335,
      "rain": 2336,
      "their": 2337,
      "yt": 2338,
      "ĠoI": 2339,
      "iting": 2340,
      "Ġlike": 2341,
      "Ġsell": 2342,
      "ĠfI": 2343,
      "Ġprov": 2344,
      ":.": 2345,
      "Ġcos": 2346,
      "Ġcoach": 2347,
      "car": 2348,
      "col": 2349,
      "Ġcity": 2350,
      "Ġthes": 2351,
      "Ġ21": 2352,
      ",;": 2353,
      "edr": 2354,
      "atin": 2355,
      "Ġ..": 2356,
      "obs": 2357,
      "hea": 2358,
      "exp": 2359,
      "tio": 2360,
      "vic": 2361,
      "lli": 2362,
      "gram": 2363,
      "Ġire": 2364,
      "Ġcam": 2365,
      "ox": 2366,
      "Ġomp": 2367,
      "Ġfound": 2368,
      "otl": 2369,
      "Ġyest": 2370,
      "Ġchief": 2371,
      "SP": 2372,
      "lem": 2373,
      "Ġitn": 2374,
      "Ġprof": 2375,
      "Ġ'-": 2376,
      "ĠAfter": 2377,
      "elp": 2378,
      "ĠMac": 2379,
      "sed": 2380,
      "ĠBla": 2381,
      "Ġhist": 2382,
      "emp": 2383,
      "Ġface": 2384,
      "dh": 2385,
      "lad": 2386,
      "icn": 2387,
      "lex": 2388,
      "ĠFri": 2389,
      "Ġdiv": 2390,
      "ĠBri": 2391,
      "eed": 2392,
      "Ġsystem": 2393,
      "Ġeve": 2394,
      "Ġmany": 2395,
      "bet": 2396,
      "Ġpn": 2397,
      "oma": 2398,
      "Ġva": 2399,
      "Ġdon": 2400,
      "Ġtof": 2401,
      "Ġkil": 2402,
      "~.": 2403,
      "ĠBig": 2404,
      "Ġheld": 2405,
      "Ġ2005": 2406,
      "ĠShar": 2407,
      ",\"": 2408,
      "nv": 2409,
      "oer": 2410,
      "ĠiM": 2411,
      "Ġrepor": 2412,
      "Ġvs": 2413,
      "Amer": 2414,
      "De": 2415,
      "isg": 2416,
      "iev": 2417,
      "ios": 2418,
      "tw": 2419,
      "13": 2420,
      "ĠtS": 2421,
      "Ġduring": 2422,
      "Ca": 2423,
      "Ġdl": 2424,
      "ĠMil": 2425,
      "owl": 2426,
      "Ġearly": 2427,
      "ja": 2428,
      "eco": 2429,
      "Pl": 2430,
      "vy": 2431,
      "this": 2432,
      "ĠInter": 2433,
      ")--": 2434,
      "Iu": 2435,
      "Os": 2436,
      "tim": 2437,
      "Ġpast": 2438,
      "Ġhar": 2439,
      "arges": 2440,
      "edn": 2441,
      "rts": 2442,
      "Ġior": 2443,
      "ĠIsl": 2444,
      "ĠPi": 2445,
      "plan": 2446,
      "hdad": 2447,
      "17": 2448,
      "Corp": 2449,
      "more": 2450,
      "oon": 2451,
      "Ġato": 2452,
      "Ġlp": 2453,
      "Ġhold": 2454,
      "ĠChin": 2455,
      "Ġacqu": 2456,
      "Ġrom": 2457,
      "Ġein": 2458,
      "Ġtrad": 2459,
      "ming": 2460,
      "Ġhum": 2461,
      "kees": 2462,
      "Ġpower": 2463,
      "ĠAM": 2464,
      "ended": 2465,
      "Ian": 2466,
      "Ol": 2467,
      "Ġvictory": 2468,
      "Ist": 2469,
      "Ġlate": 2470,
      ".\\": 2471,
      "Ss": 2472,
      "ĠiB": 2473,
      "intg": 2474,
      "iry": 2475,
      "Ġisn": 2476,
      "ĠSta": 2477,
      "eer": 2478,
      "Ġsts": 2479,
      "Ġpat": 2480,
      "Ġhot": 2481,
      "iff": 2482,
      "Ġshare": 2483,
      "aer": 2484,
      "Ġround": 2485,
      "ĠCalif": 2486,
      "iig": 2487,
      "uce": 2488,
      "ingl": 2489,
      "ĠAp": 2490,
      "inlg": 2491,
      "je": 2492,
      "Ġten": 2493,
      "Ġsusp": 2494,
      "ative": 2495,
      "Ġcel": 2496,
      "ĠPrime": 2497,
      "Ne": 2498,
      "des": 2499,
      "Ġlw": 2500,
      "utt": 2501,
      "PC": 2502,
      "alo": 2503,
      "iae": 2504,
      "aed": 2505,
      "invest": 2506,
      "hee": 2507,
      "ieh": 2508,
      "ĠApple": 2509,
      "den": 2510,
      "Ġcf": 2511,
      "Ġethe": 2512,
      "Ġmet": 2513,
      "ĠCu": 2514,
      "amed": 2515,
      "lled": 2516,
      "cti": 2517,
      "Ġbeing": 2518,
      "90": 2519,
      "most": 2520,
      "Ġnes": 2521,
      "Ġben": 2522,
      "IM": 2523,
      "val": 2524,
      "Ġeat": 2525,
      "Ġnon": 2526,
      "reg": 2527,
      "Ġofl": 2528,
      "ĠRet": 2529,
      "Ġ24": 2530,
      "Ġoon": 2531,
      "Ġstill": 2532,
      "time": 2533,
      "itng": 2534,
      "Ġfail": 2535,
      "Ġbv": 2536,
      "Ġmod": 2537,
      "ublic": 2538,
      "ĠGoogle": 2539,
      "Ġmain": 2540,
      "Ġmuch": 2541,
      "Monday": 2542,
      "based": 2543,
      "nI": 2544,
      "ses": 2545,
      "Ġsince": 2546,
      "Ġrg": 2547,
      "atic": 2548,
      "ĠlS": 2549,
      "Ġgold": 2550,
      "Ġeto": 2551,
      "iso": 2552,
      "ĠFin": 2553,
      "ĠSaturday": 2554,
      "kt": 2555,
      "anr": 2556,
      "bur": 2557,
      "ĠiC": 2558,
      "been": 2559,
      "Ġage": 2560,
      "Ġple": 2561,
      "aci": 2562,
      "lll": 2563,
      "ĠEu": 2564,
      "ĠHi": 2565,
      "rupt": 2566,
      "Bl": 2567,
      "Ġformer": 2568,
      "Ġsem": 2569,
      "Ġsha": 2570,
      "asy": 2571,
      "stocks": 2572,
      "Ġden": 2573,
      "ĠSAN": 2574,
      "Ġgiant": 2575,
      "ĠRi": 2576,
      "ĠOl": 2577,
      "fy": 2578,
      "Ġcur": 2579,
      "Ġbar": 2580,
      "lock": 2581,
      "Ġaga": 2582,
      "ĠInte": 2583,
      "tel": 2584,
      "ĠSen": 2585,
      "ĠWill": 2586,
      "Ġyo": 2587,
      "ĠEar": 2588,
      "EF": 2589,
      "-)": 2590,
      ":'": 2591,
      "Ġcri": 2592,
      "Ġber": 2593,
      "ĠIns": 2594,
      "ĠPat": 2595,
      "very": 2596,
      "ĠiA": 2597,
      "Ġron": 2598,
      "ĠIts": 2599,
      "ĠRec": 2600,
      "Ġ,-": 2601,
      "Ġprofit": 2602,
      "Ġoffer": 2603,
      "Ġattack": 2604,
      "Ġrof": 2605,
      "Ġnb": 2606,
      "Ġdata": 2607,
      "ĠFa": 2608,
      "Ġtan": 2609,
      "Ġfoll": 2610,
      "Ġtte": 2611,
      "Ġtea": 2612,
      "Ġaro": 2613,
      "Ġsv": 2614,
      "ared": 2615,
      "iem": 2616,
      "log": 2617,
      "ĠStates": 2618,
      "Ġstock": 2619,
      "hold": 2620,
      "esa": 2621,
      "Ġial": 2622,
      "Ġfall": 2623,
      "ĠrI": 2624,
      "inge": 2625,
      "Ġgs": 2626,
      "CP": 2627,
      "pn": 2628,
      "sday": 2629,
      "ĠIv": 2630,
      "llion": 2631,
      "ĠIntel": 2632,
      "ĠNASA": 2633,
      "bit": 2634,
      "lg": 2635,
      "omer": 2636,
      "cre": 2637,
      "ness": 2638,
      "Ġsus": 2639,
      "Ġsev": 2640,
      "Ġdig": 2641,
      "ĠMu": 2642,
      "Ġolf": 2643,
      "dat": 2644,
      "Ġope": 2645,
      "ĠCal": 2646,
      "ĠOct": 2647,
      "NA": 2648,
      "Ġak": 2649,
      "Ġcot": 2650,
      "tof": 2651,
      "apan": 2652,
      "ties": 2653,
      "tract": 2654,
      ".:": 2655,
      "oes": 2656,
      "Ġath": 2657,
      "Ġias": 2658,
      "Ġlay": 2659,
      "itor": 2660,
      "Ġfree": 2661,
      "aps": 2662,
      "Ġprice": 2663,
      ".~": 2664,
      "pri": 2665,
      "Ġwhi": 2666,
      "oms": 2667,
      "Pro": 2668,
      "less": 2669,
      "two": 2670,
      "Ġcourt": 2671,
      "ĠIm": 2672,
      "osi": 2673,
      "chn": 2674,
      "Ġteo": 2675,
      "Ġlis": 2676,
      "Ġhard": 2677,
      "aces": 2678,
      "ĠMicro": 2679,
      "Ġsent": 2680,
      "Ġrk": 2681,
      "Ġ-(": 2682,
      "Ġ100": 2683,
      "Ġwhile": 2684,
      ",~": 2685,
      "Ġcen": 2686,
      "Ġpor": 2687,
      "ĠId": 2688,
      "oud": 2689,
      "ĠWall": 2690,
      "nge": 2691,
      "tan": 2692,
      "Ġlof": 2693,
      "lie": 2694,
      "Ġase": 2695,
      "ono": 2696,
      "ĠThu": 2697,
      "OO": 2698,
      "dow": 2699,
      "part": 2700,
      "zed": 2701,
      "Ġtee": 2702,
      "Ġdid": 2703,
      "rib": 2704,
      "Euro": 2705,
      "vis": 2706,
      "Ġlu": 2707,
      "Ġnce": 2708,
      "ĠIo": 2709,
      "ĠFlor": 2710,
      "Fo": 2711,
      "Ġsum": 2712,
      "Ġnal": 2713,
      "ĠOver": 2714,
      "Ġhea": 2715,
      "ews": 2716,
      "about": 2717,
      "Gr": 2718,
      "Ġcle": 2719,
      "Ib": 2720,
      "Mar": 2721,
      "Ġice": 2722,
      "Ġehe": 2723,
      "ilc": 2724,
      "Ġdue": 2725,
      "icy": 2726,
      "ĠBas": 2727,
      "imb": 2728,
      "ineg": 2729,
      "IP": 2730,
      "Ġrose": 2731,
      "eles": 2732,
      "ĠCity": 2733,
      "omers": 2734,
      "El": 2735,
      "En": 2736,
      "Ġnthe": 2737,
      "eted": 2738,
      "nat": 2739,
      "Ġars": 2740,
      "Ġrthe": 2741,
      "Ġfight": 2742,
      "NEW": 2743,
      "urday": 2744,
      "ĠGaza": 2745,
      "Ġsou": 2746,
      "umb": 2747,
      "Ġmanag": 2748,
      "fh": 2749,
      "mil": 2750,
      "Ġtat": 2751,
      "isd": 2752,
      "Ġtoa": 2753,
      "ecr": 2754,
      "ĠEur": 2755,
      "Ġbeg": 2756,
      "Ġphone": 2757,
      "ĠIc": 2758,
      "ĠIi": 2759,
      "Ġud": 2760,
      "quarter": 2761,
      "ĠChi": 2762,
      "game": 2763,
      "Ġace": 2764,
      "ĠOlymp": 2765,
      "cial": 2766,
      "pu": 2767,
      "Ġses": 2768,
      "Ġhal": 2769,
      "Ġoni": 2770,
      "Ġnation": 2771,
      "ĠID": 2772,
      "Ġtehe": 2773,
      "Ġju": 2774,
      "HL": 2775,
      "Ġhalf": 2776,
      "Ġml": 2777,
      "ecu": 2778,
      "ioa": 2779,
      "lty": 2780,
      "bin": 2781,
      "iit": 2782,
      "Ġemb": 2783,
      "Ġsett": 2784,
      "ĠhI": 2785,
      "Ġtook": 2786,
      "ĠCEO": 2787,
      "Ġgn": 2788,
      "ĠUt": 2789,
      "Ġeng": 2790,
      "ĠEurope": 2791,
      "Wo": 2792,
      "ĠIN": 2793,
      "Ġyour": 2794,
      "Ġbeca": 2795,
      "hon": 2796,
      "Ġlev": 2797,
      "rld": 2798,
      "Ġters": 2799,
      "ators": 2800,
      "Ġell": 2801,
      "Ġbre": 2802,
      "ĠSet": 2803,
      "Ġard": 2804,
      ")'": 2805,
      "Ġhd": 2806,
      "Ġmid": 2807,
      "Ġgre": 2808,
      "ĠBay": 2809,
      "Ġleader": 2810,
      "Ġnig": 2811,
      "ĠLab": 2812,
      "ived": 2813,
      "Ġfirs": 2814,
      "ĠReut": 2815,
      "Ġotf": 2816,
      "ĠIsrael": 2817,
      "Ce": 2818,
      "Ġflo": 2819,
      "Ġght": 2820,
      "rae": 2821,
      "Ġbefore": 2822,
      "Ġere": 2823,
      "Ġexecut": 2824,
      "ĠInternet": 2825,
      "len": 2826,
      "ticker": 2827,
      "Ġsid": 2828,
      "Ġclo": 2829,
      "itd": 2830,
      "ĠSony": 2831,
      "aper": 2832,
      "cI": 2833,
      "rth": 2834,
      "sw": 2835,
      "vh": 2836,
      "Ġald": 2837,
      "Ġrto": 2838,
      "Ġdol": 2839,
      "ĠMor": 2840,
      "chi": 2841,
      "bar": 2842,
      "sted": 2843,
      "ĠTha": 2844,
      "Ġrv": 2845,
      "Ġbea": 2846,
      "Ġchip": 2847,
      ",:": 2848,
      "He": 2849,
      "hal": 2850,
      "Ġfew": 2851,
      "Ġhos": 2852,
      "Ġyet": 2853,
      "Ġord": 2854,
      "nit": 2855,
      "Ġlist": 2856,
      "ĠNi": 2857,
      "Ġgot": 2858,
      "Ġ#-": 2859,
      "\"-": 2860,
      "nto": 2861,
      "Ġead": 2862,
      "uto": 2863,
      "Su": 2864,
      "Ġrst": 2865,
      "ofi": 2866,
      "istr": 2867,
      "osts": 2868,
      "Con": 2869,
      "inter": 2870,
      "Ġats": 2871,
      "Ġmusic": 2872,
      "ĠTl": 2873,
      "ĠTw": 2874,
      "ĠPresident": 2875,
      "ole": 2876,
      "sth": 2877,
      "thr": 2878,
      "tea": 2879,
      "Ġcontin": 2880,
      "Ġmeet": 2881,
      "Ġused": 2882,
      "Ġ50": 2883,
      "ests": 2884,
      "rei": 2885,
      "mat": 2886,
      "aring": 2887,
      "Ġdd": 2888,
      "Ġgive": 2889,
      "Ġug": 2890,
      "uni": 2891,
      "Ġpas": 2892,
      "Et": 2893,
      "Ġahe": 2894,
      "bb": 2895,
      "fc": 2896,
      "low": 2897,
      "Ġmos": 2898,
      "Ġsoftware": 2899,
      "Ġive": 2900,
      "ember": 2901,
      "ĠProf": 2902,
      "Wi": 2903,
      "hI": 2904,
      "zz": 2905,
      "Ġeon": 2906,
      "ĠArm": 2907,
      "ĠYO": 2908,
      "SA": 2909,
      "een": 2910,
      "nte": 2911,
      "irng": 2912,
      "ĠDis": 2913,
      "vin": 2914,
      "Ġave": 2915,
      "Ġsearch": 2916,
      "orks": 2917,
      "ĠWedn": 2918,
      "Ba": 2919,
      "Li": 2920,
      "ram": 2921,
      "Ġail": 2922,
      "etro": 2923,
      "Ġthere": 2924,
      "ĠBritish": 2925,
      "ĠnI": 2926,
      "ible": 2927,
      "bil": 2928,
      "cat": 2929,
      "ees": 2930,
      "Ġtse": 2931,
      "itic": 2932,
      "Ġhere": 2933,
      "inga": 2934,
      "Ġise": 2935,
      "Ġnp": 2936,
      "ingh": 2937,
      "ize": 2938,
      "Ġiit": 2939,
      "Ġcd": 2940,
      "Ġcit": 2941,
      "Ġner": 2942,
      "reuters": 2943,
      "ĠDev": 2944,
      "cts": 2945,
      "Ġpot": 2946,
      "Ġcountry": 2947,
      "One": 2948,
      "eS": 2949,
      "eday": 2950,
      "Ġinclud": 2951,
      "aey": 2952,
      "ĠRussia": 2953,
      "Ġirn": 2954,
      "osed": 2955,
      "EI": 2956,
      "Ġ00": 2957,
      "Ġaim": 2958,
      "Ġiat": 2959,
      "Ġsecurity": 2960,
      "iot": 2961,
      "oro": 2962,
      "Ġcour": 2963,
      "sk": 2964,
      "Ġsed": 2965,
      "irus": 2966,
      "Ġkeep": 2967,
      "under": 2968,
      "Ġbest": 2969,
      "Ġthl": 2970,
      "Ġunc": 2971,
      "eff": 2972,
      "ompany": 2973,
      "Min": 2974,
      "ael": 2975,
      "temp": 2976,
      "vert": 2977,
      "Ġdisc": 2978,
      "2004": 2979,
      "rday": 2980,
      "itio": 2981,
      "ĠeS": 2982,
      "ĠOcto": 2983,
      "ĠHu": 2984,
      "ipl": 2985,
      "ĠPress": 2986,
      "hor": 2987,
      "tar": 2988,
      "were": 2989,
      "ĠrS": 2990,
      "Ġmb": 2991,
      "Am": 2992,
      "151": 2993,
      "cel": 2994,
      "Ġcome": 2995,
      "Cr": 2996,
      "uot": 2997,
      "Ġless": 2998,
      "ĠIh": 2999,
      "-\"": 3000,
      "ĠcI": 3001,
      "Ġbac": 3002,
      "Ġport": 3003,
      "tod": 3004,
      "Ġbusiness": 3005,
      "Ġhur": 3006,
      "Ġinr": 3007,
      "Ġofa": 3008,
      "ĠLead": 3009,
      "NY": 3010,
      "Ġ27": 3011,
      "Ġsch": 3012,
      "Ġdat": 3013,
      "Ġust": 3014,
      "ĠHow": 3015,
      "Ġabo": 3016,
      "aes": 3017,
      "Ġlic": 3018,
      "iton": 3019,
      ",\\": 3020,
      "World": 3021,
      "Ġdur": 3022,
      "ĠSays": 3023,
      "Ġthea": 3024,
      "ĠIe": 3025,
      "ĠLinux": 3026,
      "05": 3027,
      "vet": 3028,
      "ĠSea": 3029,
      "ĠAus": 3030,
      "Ġneed": 3031,
      "')": 3032,
      "rch": 3033,
      "Ġrow": 3034,
      "Ġfoi": 3035,
      "ĠIB": 3036,
      "ĠGame": 3037,
      "CIS": 3038,
      "Jo": 3039,
      "Ġsear": 3040,
      "18": 3041,
      "dis": 3042,
      "nan": 3043,
      "rove": 3044,
      "ĠTop": 3045,
      "Ġrou": 3046,
      "Ġpur": 3047,
      "ĠSs": 3048,
      "ĠMore": 3049,
      "Ġgames": 3050,
      "ades": 3051,
      "Ġstand": 3052,
      "Ġ23": 3053,
      "ĠExp": 3054,
      "Ci": 3055,
      "bon": 3056,
      "Ġright": 3057,
      "Ġbf": 3058,
      "Ġment": 3059,
      "Ġgain": 3060,
      "ieve": 3061,
      "Us": 3062,
      "Ġtold": 3063,
      "ĠKerry": 3064,
      "nis": 3065,
      "tra": 3066,
      "Ġoll": 3067,
      "Ġrth": 3068,
      "aled": 3069,
      "list": 3070,
      "Ġnm": 3071,
      "ima": 3072,
      "Ġagai": 3073,
      "Friday": 3074,
      "MW": 3075,
      "UK": 3076,
      "ĠaS": 3077,
      "Ġait": 3078,
      "Ġlost": 3079,
      "Ġeir": 3080,
      "Ġdee": 3081,
      "ĠRob": 3082,
      "ĠKe": 3083,
      "CH": 3084,
      "Web": 3085,
      "kl": 3086,
      "Ġahead": 3087,
      "Ġrise": 3088,
      "Ġsing": 3089,
      "Ġean": 3090,
      "Ġeth": 3091,
      "elc": 3092,
      "asr": 3093,
      "ĠNFL": 3094,
      "esterday": 3095,
      "Ġjobs": 3096,
      "wil": 3097,
      "Ġfire": 3098,
      "Ġwell": 3099,
      "rep": 3100,
      "ĠTho": 3101,
      "ĠuS": 3102,
      "ential": 3103,
      "Ġgood": 3104,
      "Ġrival": 3105,
      "tf": 3106,
      "Ġide": 3107,
      "rough": 3108,
      "ĠLos": 3109,
      "Ve": 3110,
      "bhe": 3111,
      "mir": 3112,
      "Ġces": 3113,
      "ĠeB": 3114,
      "ĠTra": 3115,
      "ĠNow": 3116,
      "ĠHar": 3117,
      "big": 3118,
      "stor": 3119,
      "roe": 3120,
      "eee": 3121,
      "Ġ40": 3122,
      ":,": 3123,
      "KYO": 3124,
      "Lo": 3125,
      "aign": 3126,
      "omi": 3127,
      "Ġchi": 3128,
      "world": 3129,
      "osr": 3130,
      "Ġven": 3131,
      "ances": 3132,
      "ĠSudan": 3133,
      "bec": 3134,
      "lle": 3135,
      "tur": 3136,
      "tie": 3137,
      "athe": 3138,
      "ĠChamp": 3139,
      "Ġgover": 3140,
      "Ġstrong": 3141,
      "100": 3142,
      "Oi": 3143,
      "Po": 3144,
      "Ps": 3145,
      "lal": 3146,
      "lst": 3147,
      "mu": 3148,
      "Ġmus": 3149,
      "iog": 3150,
      "Tuesday": 3151,
      "Ġned": 3152,
      "Ġnts": 3153,
      "Ġhc": 3154,
      "ĠAL": 3155,
      "ĠPM": 3156,
      "ĠON": 3157,
      "40": 3158,
      "500": 3159,
      "Ġoef": 3160,
      "Ġdevelop": 3161,
      "-&": 3162,
      "las": 3163,
      "Ġting": 3164,
      "ening": 3165,
      "Ġrol": 3166,
      "Ġrate": 3167,
      "Ġpan": 3168,
      "Ġval": 3169,
      "Ġspace": 3170,
      "Ġofficial": 3171,
      "ĠXP": 3172,
      "Ġsnd": 3173,
      "Ġsday": 3174,
      "Ġnst": 3175,
      "Ġens": 3176,
      "ancial": 3177,
      "Ġseven": 3178,
      "Ġboth": 3179,
      "rev": 3180,
      "Ġthae": 3181,
      "ĠEa": 3182,
      "pla": 3183,
      "Ġaway": 3184,
      "Ġrie": 3185,
      "Ġweb": 3186,
      "ĠWas": 3187,
      "lif": 3188,
      "Ġity": 3189,
      "peed": 3190,
      "Ġlargest": 3191,
      "'#": 3192,
      "Ġoof": 3193,
      "Ġlot": 3194,
      "Ġmy": 3195,
      "ĠKo": 3196,
      "orted": 3197,
      "ju": 3198,
      "lS": 3199,
      "Ġcase": 3200,
      "Ġnw": 3201,
      "aded": 3202,
      "cm": 3203,
      "post": 3204,
      "Ġ*": 3205,
      "Ġfull": 3206,
      "ĠWil": 3207,
      "ĠGro": 3208,
      "esti": 3209,
      "cou": 3210,
      "ĠiD": 3211,
      "Ġcat": 3212,
      "Ġcro": 3213,
      "icks": 3214,
      "ĠSur": 3215,
      "Ġtoh": 3216,
      "ague": 3217,
      "los": 3218,
      "vice": 3219,
      "Ġsale": 3220,
      "Ġfot": 3221,
      "iona": 3222,
      "lti": 3223,
      "80": 3224,
      "ben": 3225,
      "high": 3226,
      "lia": 3227,
      "Ġpen": 3228,
      "ĠLou": 3229,
      "TI": 3230,
      "iA": 3231,
      "Ġrit": 3232,
      "Ġeof": 3233,
      "tht": 3234,
      "Ġ(-": 3235,
      "eai": 3236,
      "Ġbeh": 3237,
      "Ġ22": 3238,
      "Ġcho": 3239,
      "Ġinthe": 3240,
      "aged": 3241,
      "Ġcond": 3242,
      "ĠLeague": 3243,
      "kin": 3244,
      "ĠmI": 3245,
      "Ġtrhe": 3246,
      "Ġtnhe": 3247,
      "cf": 3248,
      "enb": 3249,
      "utes": 3250,
      "ĠGold": 3251,
      "ias": 3252,
      "tbe": 3253,
      "Ġ$": 3254,
      "Ġbal": 3255,
      "Ġmas": 3256,
      "Ġgas": 3257,
      "unn": 3258,
      "aking": 3259,
      "iang": 3260,
      "Ġsor": 3261,
      "Ġfit": 3262,
      "eci": 3263,
      "ione": 3264,
      "vei": 3265,
      "bm": 3266,
      "bout": 3267,
      "Ġais": 3268,
      "aro": 3269,
      "Ġincl": 3270,
      "ĠCou": 3271,
      "Ġuni": 3272,
      "Ġonf": 3273,
      "ieo": 3274,
      "Ġsthe": 3275,
      "cient": 3276,
      "Air": 3277,
      "bI": 3278,
      "Ġrace": 3279,
      "Ġlef": 3280,
      "Ġnee": 3281,
      "Ġdf": 3282,
      "ĠAnt": 3283,
      "tse": 3284,
      "Ġvis": 3285,
      "Ġofthe": 3286,
      "Ġthse": 3287,
      "ĠOi": 3288,
      "ized": 3289,
      "YORK": 3290,
      "ax": 3291,
      "Ġtas": 3292,
      "Ġek": 3293,
      "ĠBan": 3294,
      "toi": 3295,
      "ĠStat": 3296,
      "ĠAfghan": 3297,
      "aS": 3298,
      "Ġtno": 3299,
      "ĠnS": 3300,
      "ĠSr": 3301,
      "ĠIM": 3302,
      "alled": 3303,
      "ĠYo": 3304,
      "uv": 3305,
      "ĠTok": 3306,
      "oly": 3307,
      "II": 3308,
      "Ġcer": 3309,
      "Ġhin": 3310,
      "Ġthne": 3311,
      "illa": 3312,
      "hout": 3313,
      "Ġusers": 3314,
      "Ġeal": 3315,
      "econd": 3316,
      "they": 3317,
      "dc": 3318,
      "hie": 3319,
      "vc": 3320,
      "Ġect": 3321,
      "ĠSept": 3322,
      "igs": 3323,
      "ails": 3324,
      "non": 3325,
      "~,": 3326,
      "Ġdie": 3327,
      "Ġonn": 3328,
      "ĠGi": 3329,
      "':": 3330,
      "60": 3331,
      "qt": 3332,
      "ĠlA": 3333,
      "iga": 3334,
      "ĠUnion": 3335,
      "ĠEuropean": 3336,
      ".)": 3337,
      "mark": 3338,
      "tS": 3339,
      "Ġtg": 3340,
      "Ġox": 3341,
      "eno": 3342,
      "ĠTbe": 3343,
      "Ġsti": 3344,
      "Ġern": 3345,
      "Ġtso": 3346,
      "24": 3347,
      "Ro": 3348,
      "hb": 3349,
      "uar": 3350,
      "wing": 3351,
      "Ġiy": 3352,
      "ĠMark": 3353,
      "which": 3354,
      "Ġweeks": 3355,
      "din": 3356,
      "just": 3357,
      "Ġ---": 3358,
      "icr": 3359,
      "isr": 3360,
      "ĠFir": 3361,
      "ogy": 3362,
      "Ġsupp": 3363,
      "21": 3364,
      "Its": 3365,
      "isng": 3366,
      "lian": 3367,
      "ĠYou": 3368,
      "Ġtrade": 3369,
      "Bo": 3370,
      "Es": 3371,
      "rad": 3372,
      "sit": 3373,
      "Ġ-,": 3374,
      "ura": 3375,
      "igns": 3376,
      "ify": 3377,
      "ained": 3378,
      "Ġstocks": 3379,
      "ĠStocks": 3380,
      "Ġalso": 3381,
      "Col": 3382,
      "gers": 3383,
      "Ġiand": 3384,
      "Ġbit": 3385,
      "Ġvote": 3386,
      "ĠGam": 3387,
      "Ġshares": 3388,
      "Ġlaunch": 3389,
      "Ġservice": 3390,
      "hem": 3391,
      "onc": 3392,
      "Ġmad": 3393,
      "Ġclose": 3394,
      "ĠAmerican": 3395,
      "Ġlth": 3396,
      "idt": 3397,
      "ĠHP": 3398,
      "nei": 3399,
      "lss": 3400,
      "anta": 3401,
      "Ill": 3402,
      "bing": 3403,
      "kers": 3404,
      "Ġror": 3405,
      "Ġeen": 3406,
      "Ġanti": 3407,
      "Ial": 3408,
      "Ġrai": 3409,
      "Ġum": 3410,
      "Ġati": 3411,
      "ugs": 3412,
      "ours": 3413,
      "icket": 3414,
      "Ġbetween": 3415,
      "Ġsia": 3416,
      "Ġets": 3417,
      "Ġwant": 3418,
      "Ġpow": 3419,
      "ntr": 3420,
      "ĠEurop": 3421,
      "LA": 3422,
      "wed": 3423,
      "Ġwat": 3424,
      "Ġthn": 3425,
      "uses": 3426,
      "Ġane": 3427,
      "ĠKorea": 3428,
      "Ġshot": 3429,
      "Iin": 3430,
      "Ra": 3431,
      "Ġsite": 3432,
      "Ġile": 3433,
      "Ġring": 3434,
      "Ġfal": 3435,
      "ĠSal": 3436,
      "ĠtheI": 3437,
      "Ġathe": 3438,
      "Ġ28": 3439,
      "Ġpublic": 3440,
      "Ġreported": 3441,
      "ĠLONDON": 3442,
      "bac": 3443,
      "Ġcare": 3444,
      "Ġlower": 3445,
      "Ġbot": 3446,
      "Ġhf": 3447,
      "utch": 3448,
      "Ġofn": 3449,
      "Ġgra": 3450,
      "ĠEast": 3451,
      "6666": 3452,
      "uet": 3453,
      "ĠNBA": 3454,
      "ĠDes": 3455,
      "ĠEgy": 3456,
      "Ġ90": 3457,
      "field": 3458,
      "Ġstep": 3459,
      "Ġthrough": 3460,
      "Ins": 3461,
      "OM": 3462,
      "mic": 3463,
      "yea": 3464,
      "ref": 3465,
      "aye": 3466,
      "rted": 3467,
      "hae": 3468,
      "Ġannounced": 3469,
      "hot": 3470,
      "Ġsil": 3471,
      "Ġbes": 3472,
      "reo": 3473,
      "Ġofr": 3474,
      "sib": 3475,
      "shi": 3476,
      "ĠOracle": 3477,
      "Mart": 3478,
      "cot": 3479,
      "eet": 3480,
      "ĠSou": 3481,
      "Ġofe": 3482,
      "omin": 3483,
      "ĠBill": 3484,
      "ĠLin": 3485,
      "ivi": 3486,
      "month": 3487,
      "'(": 3488,
      "Cup": 3489,
      "tri": 3490,
      "vit": 3491,
      "Ġturn": 3492,
      "Ġ(.": 3493,
      "ĠLtd": 3494,
      "next": 3495,
      "Ġtshe": 3496,
      "Ġua": 3497,
      "ersi": 3498,
      "Ġana": 3499,
      "Ġnk": 3500,
      "ĠdI": 3501,
      "ĠCle": 3502,
      "ĠGerm": 3503,
      "Ġhes": 3504,
      "emb": 3505,
      "Ġpeace": 3506,
      "Ġmonths": 3507,
      "Er": 3508,
      "Ll": 3509,
      "Ġaind": 3510,
      "Ġanid": 3511,
      "ĠThis": 3512,
      "Ġsuch": 3513,
      "Tues": 3514,
      "may": 3515,
      "xe": 3516,
      "Ġtech": 3517,
      "Ġog": 3518,
      "ĠAnn": 3519,
      "oter": 3520,
      "oted": 3521,
      "Ġune": 3522,
      "Ġrepo": 3523,
      "ĠKen": 3524,
      "Com": 3525,
      "Ġtis": 3526,
      "stt": 3527,
      "Ġwhere": 3528,
      "Ġhor": 3529,
      "Ġmai": 3530,
      "Ġlatest": 3531,
      "ED": 3532,
      "tions": 3533,
      "Ġtch": 3534,
      "inrg": 3535,
      "Ġsyst": 3536,
      "ĠFra": 3537,
      "qui": 3538,
      "Ġjoin": 3539,
      "Ġagreed": 3540,
      "mal": 3541,
      "ĠIthe": 3542,
      "adl": 3543,
      "Ġanother": 3544,
      "uled": 3545,
      "oftware": 3546,
      "Ġgovernment": 3547,
      "Ġgrowth": 3548,
      "cas": 3549,
      "cons": 3550,
      "Ġoy": 3551,
      "Ġcell": 3552,
      "Ġbreak": 3553,
      "Ġhie": 3554,
      "utr": 3555,
      "oting": 3556,
      "Ġthreat": 3557,
      "Ġui": 3558,
      "Ġvol": 3559,
      "Ġ26": 3560,
      "Ġcharg": 3561,
      "Ik": 3562,
      "TV": 3563,
      "hig": 3564,
      "hav": 3565,
      "lel": 3566,
      "nor": 3567,
      "Ġach": 3568,
      "Ġric": 3569,
      "ĠpI": 3570,
      "isb": 3571,
      "open": 3572,
      "ifi": 3573,
      "Ġhon": 3574,
      "ĠAtl": 3575,
      "Ġpolice": 3576,
      "Ed": 3577,
      "ray": 3578,
      "atu": 3579,
      "ĠOnl": 3580,
      "nesd": 3581,
      "ĠTuesd": 3582,
      "kee": 3583,
      "rly": 3584,
      "vie": 3585,
      "Ġoan": 3586,
      "Ġdc": 3587,
      "ĠAF": 3588,
      "ĠHigh": 3589,
      "Ġbuild": 3590,
      "Ġsla": 3591,
      "Ġok": 3592,
      "Ġlg": 3593,
      "Ġofs": 3594,
      "ĠMart": 3595,
      "ford": 3596,
      "ebr": 3597,
      "insg": 3598,
      "Ġtsh": 3599,
      "Ġrig": 3600,
      "ĠbI": 3601,
      "ĠAme": 3602,
      "nde": 3603,
      "ido": 3604,
      "ioin": 3605,
      "Ġtitle": 3606,
      "hp": 3607,
      "help": 3608,
      "Ġbad": 3609,
      "ilon": 3610,
      "Ġmal": 3611,
      "Ġtour": 3612,
      "ĠCourt": 3613,
      "news": 3614,
      "Ġorf": 3615,
      "Ġack": 3616,
      "Ls": 3617,
      "Ri": 3618,
      "oit": 3619,
      "sin": 3620,
      "Ġsli": 3621,
      "Ġoun": 3622,
      "ĠiIn": 3623,
      "Ġnte": 3624,
      "Ġnetw": 3625,
      "ready": 3626,
      "lta": 3627,
      "aine": 3628,
      "\".": 3629,
      "Sports": 3630,
      "ched": 3631,
      "iay": 3632,
      "uis": 3633,
      "Ġame": 3634,
      "ilr": 3635,
      "ĠEr": 3636,
      "illing": 3637,
      "Ġpresident": 3638,
      "Go": 3639,
      "Ġaq": 3640,
      "Ġmm": 3641,
      "Ġslow": 3642,
      "ĠOlympic": 3643,
      "Ġhigher": 3644,
      "ein": 3645,
      "vol": 3646,
      "Ġnof": 3647,
      "stan": 3648,
      "eland": 3649,
      "Ġino": 3650,
      "too": 3651,
      "ival": 3652,
      "ulat": 3653,
      "Pi": 3654,
      "Ġtic": 3655,
      "Ġtarg": 3656,
      "Ġfast": 3657,
      "acle": 3658,
      "Ġ29": 3659,
      "hre": 3660,
      "Ġions": 3661,
      "amo": 3662,
      "ioc": 3663,
      "dey": 3664,
      "bg": 3665,
      "Ġnorth": 3666,
      "Ġwid": 3667,
      "Ġstt": 3668,
      "opp": 3669,
      "mpany": 3670,
      "ais": 3671,
      "iic": 3672,
      "Ġight": 3673,
      "Ġbetw": 3674,
      "iees": 3675,
      "tial": 3676,
      "Ġquar": 3677,
      "Brit": 3678,
      "uat": 3679,
      "uls": 3680,
      "Ġrer": 3681,
      "alm": 3682,
      "Ġthir": 3683,
      "Ġuc": 3684,
      "ĠRel": 3685,
      "lla": 3686,
      "ĠQuote": 3687,
      "don": 3688,
      "hle": 3689,
      "ĠAcc": 3690,
      "eei": 3691,
      "Ġation": 3692,
      "Ġpoints": 3693,
      "gg": 3694,
      "hf": 3695,
      "Ġfter": 3696,
      "ells": 3697,
      "Ġster": 3698,
      "ĠKar": 3699,
      "Ġcompa": 3700,
      "Ġsecur": 3701,
      "oed": 3702,
      "vor": 3703,
      "ĠYOR": 3704,
      "comm": 3705,
      "actor": 3706,
      "Cs": 3707,
      "lth": 3708,
      "oen": 3709,
      "inte": 3710,
      "Ġsun": 3711,
      "Ġwih": 3712,
      "ĠTHE": 3713,
      "enter": 3714,
      "team": 3715,
      "ĠDVD": 3716,
      "Ġreve": 3717,
      "lab": 3718,
      "ĠFrench": 3719,
      "Ġtahe": 3720,
      "CE": 3721,
      "cet": 3722,
      "Ġier": 3723,
      "ĠSA": 3724,
      "ĠinI": 3725,
      "aying": 3726,
      "ĠTor": 3727,
      "htt": 3728,
      "Ġshort": 3729,
      "argest": 3730,
      "ĠMinister": 3731,
      "tember": 3732,
      "Ġmobile": 3733,
      "):": 3734,
      "bre": 3735,
      "lts": 3736,
      "ĠsS": 3737,
      "Ġors": 3738,
      "Ġrw": 3739,
      "Ġnth": 3740,
      "Ġmight": 3741,
      "aday": 3742,
      "Ġ.#": 3743,
      "Ġonline": 3744,
      "nthe": 3745,
      "Ġclaim": 3746,
      "cit": 3747,
      "crs": 3748,
      "iis": 3749,
      "Ġoln": 3750,
      "ĠIin": 3751,
      "ĠAthe": 3752,
      "erse": 3753,
      "iving": 3754,
      "Ġouts": 3755,
      "Ġtao": 3756,
      "Ġlife": 3757,
      "Red": 3758,
      "fro": 3759,
      "iar": 3760,
      "Ġeco": 3761,
      "Ġnea": 3762,
      "Ġmot": 3763,
      "ĠCit": 3764,
      "lling": 3765,
      "resh": 3766,
      "ĠMicr": 3767,
      "now": 3768,
      "pany": 3769,
      "ĠsP": 3770,
      "Ġsco": 3771,
      "Ġrob": 3772,
      "Ġwel": 3773,
      "Ġdra": 3774,
      "oty": 3775,
      "Ġ'#": 3776,
      "ieng": 3777,
      "ĠBoston": 3778,
      "ND": 3779,
      "Tu": 3780,
      "dec": 3781,
      "sv": 3782,
      "xi": 3783,
      "Ġsas": 3784,
      "Ġsth": 3785,
      "Ġlec": 3786,
      "Ġfans": 3787,
      "iong": 3788,
      "ĠDon": 3789,
      "sei": 3790,
      "rty": 3791,
      "ĠAmerica": 3792,
      "ĠiPod": 3793,
      "aon": 3794,
      "aet": 3795,
      "nth": 3796,
      "uff": 3797,
      "erb": 3798,
      "eso": 3799,
      "ĠlB": 3800,
      "Ġexpe": 3801,
      "Ġtalk": 3802,
      "HI": 3803,
      "lers": 3804,
      "nel": 3805,
      "rce": 3806,
      "Ġseek": 3807,
      "Ġbc": 3808,
      "Ġmr": 3809,
      "Ġtou": 3810,
      "Ġona": 3811,
      "Ġhed": 3812,
      "rsday": 3813,
      "aste": 3814,
      "ported": 3815,
      "Me": 3816,
      "oid": 3817,
      "~'": 3818,
      "Ġcli": 3819,
      "ĠSI": 3820,
      "ream": 3821,
      "lev": 3822,
      "ĠNat": 3823,
      "ofit": 3824,
      "Ġunit": 3825,
      "35": 3826,
      "gb": 3827,
      "Ġ.'": 3828,
      "iah": 3829,
      "ĠJe": 3830,
      "how": 3831,
      "Ġsot": 3832,
      "Ġlv": 3833,
      "Ġtouch": 3834,
      "ĠCap": 3835,
      "adt": 3836,
      "lld": 3837,
      "change": 3838,
      "imes": 3839,
      "ĠWedne": 3840,
      "Ġincre": 3841,
      "adium": 3842,
      "Ġoto": 3843,
      "Ġrop": 3844,
      "Ġler": 3845,
      "Ġded": 3846,
      "Ġding": 3847,
      "ĠCt": 3848,
      "quo": 3849,
      "ĠFranc": 3850,
      "Ġpoint": 3851,
      "Ġscr": 3852,
      "ĠShi": 3853,
      "using": 3854,
      "Ġitt": 3855,
      "bv": 3856,
      "four": 3857,
      "ĠFRAN": 3858,
      "quar": 3859,
      "'~": 3860,
      "OP": 3861,
      "gain": 3862,
      "mI": 3863,
      "zen": 3864,
      "Ġwan": 3865,
      "ĠNetw": 3866,
      "usl": 3867,
      "Ġano": 3868,
      "ĠSpace": 3869,
      "ecutive": 3870,
      "Ġnumber": 3871,
      "75": 3872,
      "cnt": 3873,
      "dI": 3874,
      "lhe": 3875,
      "see": 3876,
      "ĠtP": 3877,
      "ĠlP": 3878,
      "Ġnv": 3879,
      "Ġmes": 3880,
      "ĠMt": 3881,
      "ĠMich": 3882,
      "igt": 3883,
      "amic": 3884,
      "pd": 3885,
      "edo": 3886,
      "Ġfiv": 3887,
      "idl": 3888,
      "ĠFal": 3889,
      "Ġandi": 3890,
      "Ġreach": 3891,
      "loo": 3892,
      "ipe": 3893,
      "Ġ60": 3894,
      "Ġexpect": 3895,
      "ystems": 3896,
      "ET": 3897,
      "iug": 3898,
      "Ġfel": 3899,
      "Ġpush": 3900,
      "iding": 3901,
      "Ġvideo": 3902,
      "upt": 3903,
      "Ġtbat": 3904,
      "dem": 3905,
      "lot": 3906,
      "qn": 3907,
      "arv": 3908,
      "isis": 3909,
      "Ġtow": 3910,
      "erss": 3911,
      "Ġreal": 3912,
      "Ġiti": 3913,
      "ova": 3914,
      "Ġwhic": 3915,
      "Ae": 3916,
      "CI": 3917,
      "dev": 3918,
      "nch": 3919,
      "rte": 3920,
      "ergy": 3921,
      "Ġote": 3922,
      "Ġrse": 3923,
      "Ġlie": 3924,
      "ĠNok": 3925,
      "ĠDow": 3926,
      "unes": 3927,
      "=\"-": 3928,
      "Ġtne": 3929,
      "onf": 3930,
      "Ġils": 3931,
      "Ġnigh": 3932,
      "read": 3933,
      "Ġub": 3934,
      "rav": 3935,
      "imi": 3936,
      "---": 3937,
      "Ġexper": 3938,
      "ĠReal": 3939,
      "maker": 3940,
      "Lt": 3941,
      "RI": 3942,
      "Ġale": 3943,
      "oles": 3944,
      "lthe": 3945,
      "years": 3946,
      "apped": 3947,
      "Ġfourth": 3948,
      "ĠEngland": 3949,
      "lte": 3950,
      "ĠtA": 3951,
      "Ġdollar": 3952,
      "roi": 3953,
      "ĠBt": 3954,
      "nted": 3955,
      "Ġnuclear": 3956,
      "rS": 3957,
      "Ġifor": 3958,
      "Ġnit": 3959,
      "Ġwins": 3960,
      "roduc": 3961,
      "ĠTest": 3962,
      "ĠPay": 3963,
      "Ġuo": 3964,
      "eea": 3965,
      "Ġreturn": 3966,
      "Wa": 3967,
      "uing": 3968,
      "ĠtC": 3969,
      "Ġrot": 3970,
      "Ġrap": 3971,
      "Ġuf": 3972,
      "Ġconc": 3973,
      "Ġannou": 3974,
      "CBS": 3975,
      "Ha": 3976,
      "Mond": 3977,
      "NT": 3978,
      "rge": 3979,
      "Ġiet": 3980,
      "Ġfos": 3981,
      "Ġbis": 3982,
      "nda": 3983,
      "Ġfort": 3984,
      "ĠJob": 3985,
      "Ġchang": 3986,
      "ĠDeal": 3987,
      "bf": 3988,
      "inag": 3989,
      "arts": 3990,
      "alle": 3991,
      "ĠTech": 3992,
      "ĠCn": 3993,
      "ĠCs": 3994,
      "ĠPost": 3995,
      "llt": 3996,
      "iab": 3997,
      "season": 3998,
      "oda": 3999,
      "Ġtrans": 4000,
      "Ġsupport": 4001,
      "iP": 4002,
      "ĠtD": 4003,
      "Ġside": 4004,
      "Ġlts": 4005,
      "iaa": 4006,
      "Ġprod": 4007,
      "Iing": 4008,
      "hand": 4009,
      "Ġuters": 4010,
      "Ġoaf": 4011,
      "Ġrre": 4012,
      "Ġhae": 4013,
      "ĠII": 4014,
      "ĠTn": 4015,
      "Ġforce": 4016,
      "Ġorn": 4017,
      "ĠReu": 4018,
      "Ta": 4019,
      "Ġome": 4020,
      "ĠiO": 4021,
      "Ġdin": 4022,
      "Ġmd": 4023,
      "aco": 4024,
      "ĠOs": 4025,
      "Ġya": 4026,
      "Ġcontr": 4027,
      "ervice": 4028,
      "Fu": 4029,
      "Ġaad": 4030,
      "Ġime": 4031,
      "Ġcame": 4032,
      "Ġfile": 4033,
      "iling": 4034,
      "Ġdam": 4035,
      "ĠTb": 4036,
      "ĠthIe": 4037,
      "oue": 4038,
      "ĠBer": 4039,
      "llo": 4040,
      "hoe": 4041,
      "Ġorder": 4042,
      "Ġpeo": 4043,
      "ĠtIhe": 4044,
      "Ġaon": 4045,
      "Ġeut": 4046,
      "ĠIto": 4047,
      "ente": 4048,
      "Ġ#.": 4049,
      "ĠEnd": 4050,
      "lae": 4051,
      "aint": 4052,
      "Ġlaun": 4053,
      "Ġplayer": 4054,
      "sur": 4055,
      "uin": 4056,
      "Ġtir": 4057,
      "Ġfuel": 4058,
      "Ġdrop": 4059,
      "Ġinves": 4060,
      "ĠNA": 4061,
      "ĠFre": 4062,
      "Ġvt": 4063,
      "Ġretur": 4064,
      "Pt": 4065,
      "Ġade": 4066,
      "Ġsle": 4067,
      "Ġcash": 4068,
      "itical": 4069,
      "ĠSb": 4070,
      "ĠTel": 4071,
      "ĠMs": 4072,
      "ĠPs": 4073,
      "ested": 4074,
      "Ġqua": 4075,
      "Ġamid": 4076,
      "ĠRussian": 4077,
      "Ts": 4078,
      "cord": 4079,
      "mh": 4080,
      "rid": 4081,
      "Ġsar": 4082,
      "Ġras": 4083,
      "arb": 4084,
      "eded": 4085,
      "Ġtheo": 4086,
      "ĠTen": 4087,
      "ĠGl": 4088,
      "ioo": 4089,
      "Thursday": 4090,
      "&-": 4091,
      "Ds": 4092,
      "FONT": 4093,
      "Ġnan": 4094,
      "lde": 4095,
      "Ġspo": 4096,
      "Ġknow": 4097,
      "Ġboost": 4098,
      "del": 4099,
      "tat": 4100,
      "would": 4101,
      "when": 4102,
      "Ġtet": 4103,
      "Ġaand": 4104,
      "Ġsame": 4105,
      "ĠeA": 4106,
      "ista": 4107,
      "Dr": 4108,
      "Irs": 4109,
      "hh": 4110,
      "ihe": 4111,
      "won": 4112,
      "ĠiW": 4113,
      "ĠlC": 4114,
      "Ġpra": 4115,
      "reut": 4116,
      "reme": 4117,
      "ĠWr": 4118,
      "ĠHig": 4119,
      "liy": 4120,
      "Ġbef": 4121,
      "Ġquest": 4122,
      "ender": 4123,
      "Ġcomputer": 4124,
      "United": 4125,
      "Ġfc": 4126,
      "Ġball": 4127,
      "Ġannd": 4128,
      "against": 4129,
      "like": 4130,
      "host": 4131,
      "Ġ35": 4132,
      "Ġsoon": 4133,
      "Ho": 4134,
      "hg": 4135,
      "hil": 4136,
      "Ġoen": 4137,
      "ayed": 4138,
      "teh": 4139,
      "teo": 4140,
      "nta": 4141,
      "ĠKa": 4142,
      "ava": 4143,
      "reds": 4144,
      "Bu": 4145,
      "Ġaof": 4146,
      "Ġrts": 4147,
      "atel": 4148,
      "Ġfan": 4149,
      "Ġdy": 4150,
      "otball": 4151,
      "igr": 4152,
      "ieon": 4153,
      "iop": 4154,
      "Ġdeath": 4155,
      "'&": 4156,
      "lk": 4157,
      "ask": 4158,
      "vee": 4159,
      "aga": 4160,
      "ified": 4161,
      "Ġplace": 4162,
      "Ct": 4163,
      "Fl": 4164,
      "Iw": 4165,
      "Of": 4166,
      "fil": 4167,
      "oS": 4168,
      "omes": 4169,
      "Ġ('": 4170,
      "ande": 4171,
      "Ġexpected": 4172,
      "Ut": 4173,
      "cro": 4174,
      "vil": 4175,
      "ativ": 4176,
      "Ġeight": 4177,
      "ĠPan": 4178,
      "tow": 4179,
      "osa": 4180,
      "ĠOS": 4181,
      "Quot": 4182,
      "ĠIsraeli": 4183,
      "night": 4184,
      "rle": 4185,
      "sion": 4186,
      "inm": 4187,
      "Ġlre": 4188,
      "Ġmust": 4189,
      "ĠSoc": 4190,
      "adn": 4191,
      "Ġ.(": 4192,
      "Ġong": 4193,
      "cher": 4194,
      "qua": 4195,
      "tron": 4196,
      "Ġbiggest": 4197,
      "-/": 4198,
      "sing": 4199,
      "try": 4200,
      "you": 4201,
      "edd": 4202,
      "Ġdied": 4203,
      "ĠMr": 4204,
      "abi": 4205,
      "tier": 4206,
      "oved": 4207,
      "ension": 4208,
      "Ġclub": 4209,
      "Ġrecent": 4210,
      "ĠAsia": 4211,
      "ĠThursd": 4212,
      "fat": 4213,
      "erat": 4214,
      "Ġsour": 4215,
      "anes": 4216,
      "ingr": 4217,
      "uty": 4218,
      "Ġthhe": 4219,
      "ecti": 4220,
      "ĠWit": 4221,
      "ĠWhen": 4222,
      "ĠNort": 4223,
      "Ġyi": 4224,
      "lain": 4225,
      "iven": 4226,
      "Ġotn": 4227,
      "News": 4228,
      "fon": 4229,
      "gro": 4230,
      "mai": 4231,
      "ĠtW": 4232,
      "Ġose": 4233,
      "ĠImp": 4234,
      "ĠCA": 4235,
      "Ġhen": 4236,
      "ĠChar": 4237,
      "rse": 4238,
      "erts": 4239,
      "ĠiF": 4240,
      "Ġbd": 4241,
      "Ġhits": 4242,
      "etion": 4243,
      "ĠPt": 4244,
      "Ġves": 4245,
      "ĠKi": 4246,
      "Ġnearly": 4247,
      ",/": 4248,
      "Gen": 4249,
      "stem": 4250,
      "Ġpoll": 4251,
      "Ġdoll": 4252,
      "ĠtoI": 4253,
      "ĠBack": 4254,
      "Ġ''": 4255,
      "avs": 4256,
      "ĠYuk": 4257,
      "Ġofficials": 4258,
      "order": 4259,
      "Ġscor": 4260,
      "Ġtroops": 4261,
      "Sn": 4262,
      "TH": 4263,
      "Ġfh": 4264,
      "toe": 4265,
      "ĠEs": 4266,
      "bei": 4267,
      "ĠDarfur": 4268,
      "ĠTexas": 4269,
      "cond": 4270,
      "fI": 4271,
      "tv": 4272,
      "Ġiar": 4273,
      "Ġlear": 4274,
      "ecord": 4275,
      "ĠDell": 4276,
      "Ġbegin": 4277,
      "ssi": 4278,
      "people": 4279,
      "Ġtrial": 4280,
      "Ġsmall": 4281,
      ".(": 4282,
      "Ei": 4283,
      "Sr": 4284,
      "York": 4285,
      "inian": 4286,
      "erst": 4287,
      "Ġohe": 4288,
      "Ġlle": 4289,
      "Ġnine": 4290,
      "Ġpoi": 4291,
      "Ġtohe": 4292,
      "nded": 4293,
      "ioh": 4294,
      "abs": 4295,
      "tih": 4296,
      "Ġarm": 4297,
      "=\"#": 4298,
      "Ġcosts": 4299,
      "ĠAMD": 4300,
      "49": 4301,
      "pot": 4302,
      "ĠiR": 4303,
      "Ġlia": 4304,
      "irr": 4305,
      "Ġuot": 4306,
      "ĠHal": 4307,
      "Ġchar": 4308,
      "action": 4309,
      "icted": 4310,
      "etting": 4311,
      "Ġstop": 4312,
      "22": 4313,
      "Man": 4314,
      "Vi": 4315,
      "hts": 4316,
      "ĠtB": 4317,
      "Ġaround": 4318,
      "Ġcuts": 4319,
      "nding": 4320,
      "ĠCb": 4321,
      "iring": 4322,
      "ofl": 4323,
      "Ġvisit": 4324,
      "unity": 4325,
      "ags": 4326,
      "ctions": 4327,
      "deal": 4328,
      "Ġ31": 4329,
      "ASA": 4330,
      "company": 4331,
      "Ġcalled": 4332,
      "EA": 4333,
      "cia": 4334,
      "oal": 4335,
      "wd": 4336,
      "zo": 4337,
      "Ġtst": 4338,
      "ĠaP": 4339,
      "ĠiL": 4340,
      "Ġdia": 4341,
      "ĠIrai": 4342,
      "idence": 4343,
      "ĠCont": 4344,
      "ĠthI": 4345,
      "acs": 4346,
      "ltt": 4347,
      "load": 4348,
      "Ġspa": 4349,
      "tles": 4350,
      "Ġfoir": 4351,
      "Ġregion": 4352,
      "nen": 4353,
      "tre": 4354,
      "yd": 4355,
      "Ġlen": 4356,
      "Ġfon": 4357,
      "ĠSee": 4358,
      "ecl": 4359,
      "ĠBs": 4360,
      "ĠFire": 4361,
      "iment": 4362,
      "uclear": 4363,
      "ogle": 4364,
      "Ġgoal": 4365,
      "vernment": 4366,
      "gam": 4367,
      "nse": 4368,
      "atI": 4369,
      "ĠeC": 4370,
      "Ġbon": 4371,
      "Ġbor": 4372,
      "ĠIA": 4373,
      "ĠTie": 4374,
      "ĠNetwork": 4375,
      "aind": 4376,
      "nced": 4377,
      "Ġbroad": 4378,
      "Sc": 4379,
      "ium": 4380,
      "kr": 4381,
      "long": 4382,
      "ĠrA": 4383,
      "Ġbie": 4384,
      "ache": 4385,
      "Ġiuot": 4386,
      "bid": 4387,
      "cv": 4388,
      "vI": 4389,
      "ĠtT": 4390,
      "eries": 4391,
      "Ġclear": 4392,
      "Ġbir": 4393,
      "Ġwib": 4394,
      "Ġuld": 4395,
      "ĠOt": 4396,
      "Ġseries": 4397,
      "Ġsst": 4398,
      "Ġrle": 4399,
      "Ġrte": 4400,
      "ĠlT": 4401,
      "ĠIvan": 4402,
      "irman": 4403,
      "Ġthoe": 4404,
      "Ġgets": 4405,
      "lds": 4406,
      "opt": 4407,
      "Ġquart": 4408,
      "Ġgove": 4409,
      "rosof": 4410,
      "ĠBaghdad": 4411,
      "Ġbecause": 4412,
      "inp": 4413,
      "Ġich": 4414,
      "Ġigh": 4415,
      "Ġinve": 4416,
      "Ġtob": 4417,
      "ecte": 4418,
      "lso": 4419,
      "China": 4420,
      "Oil": 4421,
      "sthe": 4422,
      "Ġprs": 4423,
      "Ġhh": 4424,
      "real": 4425,
      "ĠLow": 4426,
      "lday": 4427,
      "aks": 4428,
      "Ġaff": 4429,
      "ches": 4430,
      "Ġlarge": 4431,
      "Ġfoo": 4432,
      "Ġeed": 4433,
      "Ġnar": 4434,
      "Ġname": 4435,
      "Ġwii": 4436,
      "Ġdh": 4437,
      "etrs": 4438,
      "Ġmag": 4439,
      "Ġmult": 4440,
      "ĠSay": 4441,
      "elrs": 4442,
      "ĠIhe": 4443,
      "ĠAe": 4444,
      "ĠHouse": 4445,
      "rnet": 4446,
      "Ġneg": 4447,
      "Ġenter": 4448,
      "Ġplayers": 4449,
      "kei": 4450,
      "mos": 4451,
      "ĠtIo": 4452,
      "Ġeuro": 4453,
      "otion": 4454,
      "Ġgave": 4455,
      "amen": 4456,
      "Ġatn": 4457,
      "ttle": 4458,
      "Ġ49": 4459,
      "ference": 4460,
      "ĠWindows": 4461,
      "Off": 4462,
      "mc": 4463,
      "Ġsend": 4464,
      "ĠoS": 4465,
      "Ġnhe": 4466,
      "Ġwal": 4467,
      "ĠMl": 4468,
      "ĠBen": 4469,
      "ĠBob": 4470,
      "ĠGra": 4471,
      "logy": 4472,
      "nsi": 4473,
      "ĠBlack": 4474,
      "investor": 4475,
      "By": 4476,
      "Bush": 4477,
      "Ġcto": 4478,
      "Ġbol": 4479,
      "stra": 4480,
      "ĠFrom": 4481,
      "ĠVal": 4482,
      "place": 4483,
      "Ġboard": 4484,
      "enger": 4485,
      "Ġaccord": 4486,
      "Ġmedia": 4487,
      "ĠPaul": 4488,
      "28": 4489,
      "dia": 4490,
      "tis": 4491,
      "ĠsA": 4492,
      "Ġeer": 4493,
      "Ġeet": 4494,
      "Ġning": 4495,
      "Ġhet": 4496,
      "ema": 4497,
      "ncl": 4498,
      "eps": 4499,
      "ustr": 4500,
      "Ġindustry": 4501,
      "firm": 4502,
      "kins": 4503,
      "lto": 4504,
      "pes": 4505,
      "stro": 4506,
      "iler": 4507,
      "ĠTer": 4508,
      "oming": 4509,
      "ĠMid": 4510,
      "Ġanc": 4511,
      "Ġforces": 4512,
      "iva": 4513,
      "plac": 4514,
      "prices": 4515,
      "ĠFrance": 4516,
      "Ġ2006": 4517,
      "Ġannounc": 4518,
      "ĠStock": 4519,
      "Car": 4520,
      "Ith": 4521,
      "cur": 4522,
      "ood": 4523,
      "uz": 4524,
      "ĠtM": 4525,
      "Ġpp": 4526,
      "ĠTri": 4527,
      "ĠCla": 4528,
      "Ġgol": 4529,
      "ĠPark": 4530,
      "ĠBA": 4531,
      "Ġonr": 4532,
      "Ġ'.": 4533,
      "lied": 4534,
      "early": 4535,
      "ooks": 4536,
      "ĠSpain": 4537,
      "Sox": 4538,
      "Ġmilitary": 4539,
      "27": 4540,
      "tto": 4541,
      "Ġeit": 4542,
      "Ġbra": 4543,
      "asb": 4544,
      "ĠIon": 4545,
      "Ġger": 4546,
      "Ġvid": 4547,
      "ĠHel": 4548,
      "Ġatd": 4549,
      "Ġrei": 4550,
      "lob": 4551,
      "Ġkee": 4552,
      "ules": 4553,
      "avi": 4554,
      "Ġproduct": 4555,
      "Ġcoa": 4556,
      "ĠBuy": 4557,
      "Di": 4558,
      "Ġiot": 4559,
      "Ġnev": 4560,
      "Ġwd": 4561,
      "ĠSales": 4562,
      "ĠArafat": 4563,
      "ĠPlan": 4564,
      "estor": 4565,
      "unced": 4566,
      "Ġarch": 4567,
      "acked": 4568,
      "Ġsex": 4569,
      "Ġoffi": 4570,
      "Ġelection": 4571,
      "Da": 4572,
      "SI": 4573,
      "tick": 4574,
      "wee": 4575,
      "Ġtand": 4576,
      "Ġsg": 4577,
      "ished": 4578,
      "ĠSon": 4579,
      "ĠNation": 4580,
      "ĠNHL": 4581,
      "Om": 4582,
      "aig": 4583,
      "come": 4584,
      "ĠoF": 4585,
      "Ġiro": 4586,
      "Ġiun": 4587,
      "Ġcm": 4588,
      "Ġcus": 4589,
      "Ġcard": 4590,
      "Ġbin": 4591,
      "ĠCam": 4592,
      "ĠNext": 4593,
      "eae": 4594,
      "Ġyeste": 4595,
      "Ġxt": 4596,
      "Ġaan": 4597,
      "enh": 4598,
      "aris": 4599,
      "Ġthec": 4600,
      "ĠTom": 4601,
      "three": 4602,
      "Ġpolic": 4603,
      "FullQuote": 4604,
      "ĠArmy": 4605,
      "Op": 4606,
      "RM": 4607,
      "erday": 4608,
      "ories": 4609,
      "Ġrout": 4610,
      "Ġtom": 4611,
      "ĠMn": 4612,
      "iont": 4613,
      "tss": 4614,
      "Ġstro": 4615,
      "ĠVe": 4616,
      "Ġchampion": 4617,
      "Ġallow": 4618,
      "And": 4619,
      "Ee": 4620,
      "Rs": 4621,
      "bis": 4622,
      "cp": 4623,
      "jn": 4624,
      "ras": 4625,
      "rate": 4626,
      "Ġsys": 4627,
      "Ġfhe": 4628,
      "Ġeach": 4629,
      "Ġweak": 4630,
      "ilm": 4631,
      "rees": 4632,
      "ĠIC": 4633,
      "ĠAft": 4634,
      "ĠTI": 4635,
      "Ġofo": 4636,
      "rik": 4637,
      "ĠDan": 4638,
      "unk": 4639,
      "Ġish": 4640,
      "nss": 4641,
      "rti": 4642,
      "Ġworl": 4643,
      "Ġglobal": 4644,
      "51": 4645,
      "EU": 4646,
      "dan": 4647,
      "Ġsam": 4648,
      "Ġoit": 4649,
      "Ġik": 4650,
      "Ġfat": 4651,
      "Ġeis": 4652,
      "Ġhia": 4653,
      "rey": 4654,
      "oping": 4655,
      "ibs": 4656,
      "iIng": 4657,
      "ĠMinist": 4658,
      "ĠGerman": 4659,
      "Ag": 4660,
      "Ste": 4661,
      "px": 4662,
      "Ġling": 4663,
      "ĠST": 4664,
      "Ġthev": 4665,
      "ĠCI": 4666,
      "ĠPla": 4667,
      "tsr": 4668,
      "Ġonce": 4669,
      "ofn": 4670,
      "aire": 4671,
      "Ġene": 4672,
      "Ġident": 4673,
      "ĠWednesd": 4674,
      "cte": 4675,
      "nig": 4676,
      "Ġlst": 4677,
      "Ġfina": 4678,
      "ĠeM": 4679,
      "Ġnis": 4680,
      "Ġmilli": 4681,
      "acr": 4682,
      "Ġgy": 4683,
      "agu": 4684,
      "ivo": 4685,
      "asser": 4686,
      "Ġfuture": 4687,
      "LO": 4688,
      "db": 4689,
      "dm": 4690,
      "Ġays": 4691,
      "Ġcurr": 4692,
      "Ġnam": 4693,
      "Ġbla": 4694,
      "ndi": 4695,
      "lef": 4696,
      "ĠMiss": 4697,
      "ĠFirst": 4698,
      "ĠDay": 4699,
      "ĠDown": 4700,
      "Ġands": 4701,
      "aist": 4702,
      "Ġking": 4703,
      "rta": 4704,
      "aves": 4705,
      "ailed": 4706,
      "Ġmedal": 4707,
      "gc": 4708,
      "ois": 4709,
      "Ġied": 4710,
      "Ġ.,": 4711,
      "osl": 4712,
      "ĠGet": 4713,
      "term": 4714,
      "Ġosf": 4715,
      "final": 4716,
      "ĠYahoo": 4717,
      "With": 4718,
      "oan": 4719,
      "rig": 4720,
      "view": 4721,
      "inj": 4722,
      "ĠaC": 4723,
      "Ġrch": 4724,
      "aters": 4725,
      "Ġcem": 4726,
      "ĠlM": 4727,
      "Ġlog": 4728,
      "Ġpal": 4729,
      "olic": 4730,
      "ĠFla": 4731,
      "Ġheir": 4732,
      "asts": 4733,
      "Ġbring": 4734,
      "aot": 4735,
      "ders": 4736,
      "oir": 4737,
      "Ġiel": 4738,
      "Ġlel": 4739,
      "Ġbattle": 4740,
      "Ġdm": 4741,
      "Ġproble": 4742,
      "ende": 4743,
      "Ġagree": 4744,
      "Ġperc": 4745,
      "Ġ70": 4746,
      "say": 4747,
      "tit": 4748,
      "Ġtai": 4749,
      "onth": 4750,
      "ĠiH": 4751,
      "Ġeld": 4752,
      "ĠSing": 4753,
      "ĠAN": 4754,
      "ĠAut": 4755,
      "aders": 4756,
      "Ġ#'": 4757,
      "ĠUi": 4758,
      "ĠDen": 4759,
      "Ġandl": 4760,
      "Ġreports": 4761,
      "ifor": 4762,
      "ession": 4763,
      "ĠVa": 4764,
      "Ġshut": 4765,
      "Ġusing": 4766,
      "gI": 4767,
      "hst": 4768,
      "oing": 4769,
      "test": 4770,
      "zy": 4771,
      "Ġslt": 4772,
      "Ġpho": 4773,
      "ĠofI": 4774,
      "thei": 4775,
      "Ġissu": 4776,
      "vestor": 4777,
      "Ġparty": 4778,
      "Bi": 4779,
      "Ea": 4780,
      "pir": 4781,
      "tst": 4782,
      "Ġsis": 4783,
      "esb": 4784,
      "Ġirs": 4785,
      "Ġlil": 4786,
      "itv": 4787,
      "Ġfis": 4788,
      "Ġmont": 4789,
      "ĠIR": 4790,
      "ĠTour": 4791,
      "tsi": 4792,
      "ioon": 4793,
      "ncy": 4794,
      "ĠStreet": 4795,
      "Ġcompanies": 4796,
      "Ġhuman": 4797,
      "Ga": 4798,
      "Ġari": 4799,
      "erf": 4800,
      "Ġpet": 4801,
      "Ġhou": 4802,
      "eless": 4803,
      "ĠCut": 4804,
      "then": 4805,
      "again": 4806,
      "ibn": 4807,
      "Ġfior": 4808,
      "Ġevery": 4809,
      ",&": 4810,
      "-\\$": 4811,
      "Ap": 4812,
      "Sun": 4813,
      "ril": 4814,
      "Ġsqu": 4815,
      "Ġoss": 4816,
      "Ġcv": 4817,
      "Ġnds": 4818,
      "Ġthed": 4819,
      "Ġthd": 4820,
      "Ġuns": 4821,
      "eem": 4822,
      "oca": 4823,
      "umber": 4824,
      "55": 4825,
      ":/": 4826,
      "rds": 4827,
      "tg": 4828,
      "Ġties": 4829,
      "Ġavo": 4830,
      "Ġous": 4831,
      "Ġdv": 4832,
      "ecd": 4833,
      "olve": 4834,
      "ĠMad": 4835,
      "ander": 4836,
      "lap": 4837,
      "iana": 4838,
      "ĠThey": 4839,
      "ĠThat": 4840,
      "Ġeconomy": 4841,
      "Ġreleased": 4842,
      "quickinfo": 4843,
      "Ġwomen": 4844,
      "oad": 4845,
      "pI": 4846,
      "uu": 4847,
      "Ġign": 4848,
      "Ġnday": 4849,
      "illl": 4850,
      "ĠSam": 4851,
      "eled": 4852,
      "ĠTime": 4853,
      "ĠPack": 4854,
      "Ġvio": 4855,
      "cei": 4856,
      "ctory": 4857,
      "Ġagains": 4858,
      "phone": 4859,
      "move": 4860,
      "Ġended": 4861,
      "iddle": 4862,
      "Ni": 4863,
      "js": 4864,
      "ĠoP": 4865,
      "Ġlee": 4866,
      "Ġnati": 4867,
      "Ġpd": 4868,
      "Ġhb": 4869,
      "ĠCas": 4870,
      "raeli": 4871,
      "Ġatnd": 4872,
      "Ġrequ": 4873,
      "earc": 4874,
      "gton": 4875,
      "Ġagr": 4876,
      "Ġtlh": 4877,
      "-\\": 4878,
      "Comm": 4879,
      "far": 4880,
      "hur": 4881,
      "job": 4882,
      "lw": 4883,
      "oar": 4884,
      "Ġoat": 4885,
      "Ġilt": 4886,
      "Ġees": 4887,
      "ĠIre": 4888,
      "ayer": 4889,
      "Ġure": 4890,
      "ĠOK": 4891,
      "andi": 4892,
      "Ġata": 4893,
      "quart": 4894,
      "Ġbei": 4895,
      "eii": 4896,
      "Ġprocess": 4897,
      "Ġfield": 4898,
      "Ġcoun": 4899,
      "ĠReport": 4900,
      "Wednesday": 4901,
      "Ire": 4902,
      "fm": 4903,
      "gd": 4904,
      "nam": 4905,
      "ually": 4906,
      "wart": 4907,
      "inI": 4908,
      "inue": 4909,
      "Ġori": 4910,
      "Ġboy": 4911,
      "Ġdb": 4912,
      "Ġdor": 4913,
      "Ġ(\\$": 4914,
      "Ġanld": 4915,
      "Ġrebel": 4916,
      "opes": 4917,
      "iii": 4918,
      "Ġarr": 4919,
      "Ġ2001": 4920,
      "ĠProfit": 4921,
      "Ġtakes": 4922,
      "fte": 4923,
      "oday": 4924,
      "tO": 4925,
      "Ġtia": 4926,
      "Ġeor": 4927,
      "Ġbod": 4928,
      "Ġhhe": 4929,
      "asing": 4930,
      "acts": 4931,
      "Ġgian": 4932,
      "ieb": 4933,
      "Ġ'(": 4934,
      "osd": 4935,
      "Ġandt": 4936,
      "Ġyen": 4937,
      "loc": 4938,
      "sss": 4939,
      "Ġjus": 4940,
      "ĠReuter": 4941,
      "strong": 4942,
      "ĠPakistan": 4943,
      ".#": 4944,
      "could": 4945,
      "df": 4946,
      "eis": 4947,
      "iou": 4948,
      "Ġinh": 4949,
      "ersl": 4950,
      "ups": 4951,
      "cked": 4952,
      "ĠPalest": 4953,
      "Ġhopes": 4954,
      "eid": 4955,
      "ĠiN": 4956,
      "Ġels": 4957,
      "Ġeast": 4958,
      "Ġpea": 4959,
      "Ġhope": 4960,
      "icat": 4961,
      "ĠSEC": 4962,
      "ashed": 4963,
      "ĠIan": 4964,
      "Ġasd": 4965,
      "oek": 4966,
      "Ġservic": 4967,
      "ĠCanad": 4968,
      "ĠDavid": 4969,
      "Ġlegal": 4970,
      "FO": 4971,
      "dent": 4972,
      "iol": 4973,
      "oor": 4974,
      "sS": 4975,
      "Ġix": 4976,
      "Ġcra": 4977,
      "Ġlnd": 4978,
      "Ġetr": 4979,
      "Ġbri": 4980,
      "ingto": 4981,
      "Ġthef": 4982,
      "Ġtoc": 4983,
      "utl": 4984,
      "ĠOc": 4985,
      "anding": 4986,
      "Ġjum": 4987,
      "ĠShares": 4988,
      "Ġfederal": 4989,
      "All": 4990,
      "eve": 4991,
      "euters": 4992,
      "hers": 4993,
      "iO": 4994,
      "oot": 4995,
      "sen": 4996,
      "ĠsC": 4997,
      "Ġmic": 4998,
      "elv": 4999,
      "ĠMas": 5000,
      "oso": 5001,
      "ĠRock": 5002,
      "days": 5003,
      "Ġarn": 5004,
      "fox": 5005,
      "Ġattacks": 5006,
      "ALL": 5007,
      "Ass": 5008,
      "cee": 5009,
      "rto": 5010,
      "tot": 5011,
      "uS": 5012,
      "Ġcks": 5013,
      "ĠeT": 5014,
      "Ġeli": 5015,
      "Ġeuters": 5016,
      "Ġwest": 5017,
      "Ġdre": 5018,
      "neg": 5019,
      "ĠThi": 5020,
      "Ġwitb": 5021,
      "legal": 5022,
      "hia": 5023,
      "Ġtco": 5024,
      "Ġrand": 5025,
      "Ġnse": 5026,
      "Ġpac": 5027,
      "Ġhut": 5028,
      "ĠSin": 5029,
      "ĠSome": 5030,
      "iey": 5031,
      "Ġrej": 5032,
      "six": 5033,
      "pping": 5034,
      "Ġsize": 5035,
      "Ġamong": 5036,
      "aIl": 5037,
      "Ice": 5038,
      "Sof": 5039,
      "bee": 5040,
      "Ġaat": 5041,
      "ĠoIf": 5042,
      "ĠrC": 5043,
      "Ġdir": 5044,
      "elnt": 5045,
      "thre": 5046,
      "Ġstre": 5047,
      "unl": 5048,
      "ĠJon": 5049,
      "Ġbefor": 5050,
      "Ġable": 5051,
      "aily": 5052,
      "Ġgoing": 5053,
      "Fa": 5054,
      "Ile": 5055,
      "dad": 5056,
      "fb": 5057,
      "ike": 5058,
      "nar": 5059,
      "nee": 5060,
      "rug": 5061,
      "uits": 5062,
      "Ġtil": 5063,
      "inve": 5064,
      "Ġsand": 5065,
      "anch": 5066,
      "orer": 5067,
      "Ġrld": 5068,
      "Ġcof": 5069,
      "etary": 5070,
      "ĠIof": 5071,
      "ĠArt": 5072,
      "ĠWork": 5073,
      "ĠFer": 5074,
      "Ġfori": 5075,
      "Ġita": 5076,
      "iance": 5077,
      "Dav": 5078,
      "War": 5079,
      "det": 5080,
      "ĠcO": 5081,
      "Ġett": 5082,
      "stock": 5083,
      "Ġham": 5084,
      "ĠCisco": 5085,
      "ĠPet": 5086,
      "Ġang": 5087,
      "ĠGames": 5088,
      "Ġforr": 5089,
      "unit": 5090,
      "ivs": 5091,
      "Ġseen": 5092,
      "Ġ2003": 5093,
      "ĠMonda": 5094,
      "45": 5095,
      "Dow": 5096,
      "IBM": 5097,
      "Ja": 5098,
      "cli": 5099,
      "Ġtnd": 5100,
      "Ġocc": 5101,
      "Ġcru": 5102,
      "ingn": 5103,
      "ĠAre": 5104,
      "ĠTre": 5105,
      "thc": 5106,
      "ioan": 5107,
      "Ġatl": 5108,
      "Ġera": 5109,
      "Ġunion": 5110,
      "ĠResearch": 5111,
      "ĠSeries": 5112,
      "pace": 5113,
      "Ġsion": 5114,
      "ĠrP": 5115,
      "Ġech": 5116,
      "Ġwent": 5117,
      "urch": 5118,
      "ĠMont": 5119,
      "acti": 5120,
      "imat": 5121,
      "ĠHR": 5122,
      "sem": 5123,
      "Ġhee": 5124,
      "aik": 5125,
      "Ġaccording": 5126,
      "\",": 5127,
      "bp": 5128,
      "hv": 5129,
      "sel": 5130,
      "stl": 5131,
      "Ġhv": 5132,
      "Ġhip": 5133,
      "Ġmc": 5134,
      "ĠArg": 5135,
      "ĠCos": 5136,
      "otf": 5137,
      "oment": 5138,
      "ĠMars": 5139,
      "amt": 5140,
      "ĠLO": 5141,
      "bey": 5142,
      "ĠKor": 5143,
      "eph": 5144,
      "oves": 5145,
      "Ġarmy": 5146,
      "Ġalnd": 5147,
      "iby": 5148,
      "Ġwiith": 5149,
      "ounds": 5150,
      "23": 5151,
      "FI": 5152,
      "bot": 5153,
      "eon": 5154,
      "sai": 5155,
      "Ġ!": 5156,
      "uted": 5157,
      "ĠAbu": 5158,
      "idr": 5159,
      "omo": 5160,
      "ĠPu": 5161,
      "ĠBI": 5162,
      "vea": 5163,
      "Ġread": 5164,
      "lav": 5165,
      "Ġoffe": 5166,
      "ĠIndi": 5167,
      "Ġrelease": 5168,
      "bea": 5169,
      "iT": 5170,
      "lA": 5171,
      "nS": 5172,
      "Ġibs": 5173,
      "Ġlli": 5174,
      "Ġlib": 5175,
      "ĠnA": 5176,
      "Ġnnd": 5177,
      "Ġwis": 5178,
      "Ġdraw": 5179,
      "ĠTony": 5180,
      "otes": 5181,
      "acing": 5182,
      "ĠBn": 5183,
      "imm": 5184,
      "search": 5185,
      "Ġbegan": 5186,
      "ums": 5187,
      "Ġprogram": 5188,
      "Ġorgan": 5189,
      "Ġadm": 5190,
      "erty": 5191,
      "Ġbetter": 5192,
      "Ġstrike": 5193,
      "ĠAustralia": 5194,
      "BO": 5195,
      "Ite": 5196,
      "NS": 5197,
      "gal": 5198,
      "serv": 5199,
      "erp": 5200,
      "eny": 5201,
      "Ġfb": 5202,
      "Ġeand": 5203,
      "Ġnas": 5204,
      "ĠIp": 5205,
      "Ġthin": 5206,
      "olv": 5207,
      "Ġanot": 5208,
      "ĠOw": 5209,
      "ĠGM": 5210,
      "Ġisi": 5211,
      "Ġantd": 5212,
      "Ine": 5213,
      "cus": 5214,
      "uir": 5215,
      "Ġaend": 5216,
      "Ġsre": 5217,
      "Ġsut": 5218,
      "Ġrain": 5219,
      "arth": 5220,
      "ĠlO": 5221,
      "Ġlig": 5222,
      "ĠAG": 5223,
      "ĠCO": 5224,
      "oui": 5225,
      "ĠBos": 5226,
      "tsh": 5227,
      "Ġult": 5228,
      "iast": 5229,
      "Ġstudy": 5230,
      "Ġexec": 5231,
      "afe": 5232,
      "rgan": 5233,
      "Ġcoul": 5234,
      "ĠDrug": 5235,
      "ĠBlair": 5236,
      "hree": 5237,
      "uly": 5238,
      "ĠtL": 5239,
      "roc": 5240,
      "utive": 5241,
      "ĠAct": 5242,
      "oses": 5243,
      "Ġasi": 5244,
      "esses": 5245,
      "ĠSpa": 5246,
      "ĠAfgh": 5247,
      "Ġremain": 5248,
      "ĠFlorida": 5249,
      "Ior": 5250,
      "LS": 5251,
      "Wor": 5252,
      "bank": 5253,
      "dal": 5254,
      "fes": 5255,
      "iec": 5256,
      "inog": 5257,
      "onday": 5258,
      "ĠiE": 5259,
      "Ġiits": 5260,
      "Ġrce": 5261,
      "Ġfto": 5262,
      "Ġnei": 5263,
      "Ġnetwork": 5264,
      "ural": 5265,
      "ĠCel": 5266,
      "ached": 5267,
      "ĠBal": 5268,
      "ĠNL": 5269,
      "ĠNt": 5270,
      "ĠFour": 5271,
      "Ġvir": 5272,
      "img": 5273,
      "Ġ,'": 5274,
      "eport": 5275,
      "bles": 5276,
      "percent": 5277,
      "buy": 5278,
      "ĠGoog": 5279,
      "ĠAugust": 5280,
      "Nt": 5281,
      "Vo": 5282,
      "mf": 5283,
      "sea": 5284,
      "Ġ?": 5285,
      "onv": 5286,
      "Ġrne": 5287,
      "Ġlal": 5288,
      "Ġbatt": 5289,
      "ĠSit": 5290,
      "Ġtheh": 5291,
      "ĠAOL": 5292,
      "igl": 5293,
      "ĠRea": 5294,
      "ĠJones": 5295,
      "Ġchan": 5296,
      "Ġchange": 5297,
      "endi": 5298,
      "Ġarea": 5299,
      "Ġroad": 5300,
      "Bt": 5301,
      "Ya": 5302,
      "iC": 5303,
      "rne": 5304,
      "Ġliv": 5305,
      "Ġmass": 5306,
      "Ġmoney": 5307,
      "rag": 5308,
      "iive": 5309,
      "Ġdisp": 5310,
      "Ġexpec": 5311,
      "Ġmaking": 5312,
      "Ġdrive": 5313,
      "ĠEarth": 5314,
      "86": 5315,
      "jt": 5316,
      "well": 5317,
      "inz": 5318,
      "Ġaes": 5319,
      "Ġary": 5320,
      "atest": 5321,
      "Ġwed": 5322,
      "Ġwth": 5323,
      "Ġdriv": 5324,
      "Ġtown": 5325,
      "reu": 5326,
      "ĠPn": 5327,
      "ĠNational": 5328,
      "ĠRise": 5329,
      "owi": 5330,
      "rsi": 5331,
      "ĠSecurity": 5332,
      "ĠFeder": 5333,
      "Ġsuccess": 5334,
      "Cor": 5335,
      "GE": 5336,
      "PS": 5337,
      "Tt": 5338,
      "Ul": 5339,
      "Ġsir": 5340,
      "itions": 5341,
      "Ġtool": 5342,
      "olut": 5343,
      "igan": 5344,
      "rage": 5345,
      "ĠEt": 5346,
      "Ġforc": 5347,
      "Ity": 5348,
      "Ġ64": 5349,
      "ĠAsian": 5350,
      "ĠFormer": 5351,
      "Ġavail": 5352,
      "ĠCanada": 5353,
      "ĠTOKYO": 5354,
      "Ġsettle": 5355,
      "ĠMSN": 5356,
      "Sunday": 5357,
      "Ver": 5358,
      "hard": 5359,
      "rank": 5360,
      "inIg": 5361,
      "Ġaas": 5362,
      "Ġios": 5363,
      "ĠrO": 5364,
      "ĠTt": 5365,
      "ĠPor": 5366,
      "iek": 5367,
      "ĠFord": 5368,
      "Ġvl": 5369,
      "Ġvery": 5370,
      "ĠHit": 5371,
      "una": 5372,
      "oded": 5373,
      "upp": 5374,
      "Ġleas": 5375,
      "Update": 5376,
      "HP": 5377,
      "IO": 5378,
      "bill": 5379,
      "hte": 5380,
      "Ġaen": 5381,
      "erI": 5382,
      "anti": 5383,
      "Ġlight": 5384,
      "Ġpc": 5385,
      "roy": 5386,
      "rect": 5387,
      "acn": 5388,
      "amn": 5389,
      "ntt": 5390,
      "ĠDie": 5391,
      "ioen": 5392,
      "liv": 5393,
      "abo": 5394,
      "efe": 5395,
      "eba": 5396,
      "Ġrole": 5397,
      "Ġxp": 5398,
      "Ġlikely": 5399,
      "eut": 5400,
      "xes": 5401,
      "Ġtei": 5402,
      "ĠaM": 5403,
      "Ġaet": 5404,
      "ĠrT": 5405,
      "Ġrid": 5406,
      "Ġrov": 5407,
      "ĠlW": 5408,
      "Ġtheb": 5409,
      "irk": 5410,
      "adv": 5411,
      "imo": 5412,
      "Ġstay": 5413,
      "lted": 5414,
      "Ġhei": 5415,
      "Ġert": 5416,
      "Ġshi": 5417,
      "ĠThree": 5418,
      "cker": 5419,
      "ralian": 5420,
      "awa": 5421,
      "ĠPresid": 5422,
      "ĠBlue": 5423,
      "ĠMotor": 5424,
      "400": 5425,
      "Ac": 5426,
      "bw": 5427,
      "dv": 5428,
      "group": 5429,
      "rw": 5430,
      "Ġslo": 5431,
      "Ġics": 5432,
      "ority": 5433,
      "Ġrates": 5434,
      "ĠeP": 5435,
      "Ġwha": 5436,
      "Ġhir": 5437,
      "Ġhle": 5438,
      "ĠMill": 5439,
      "amil": 5440,
      "Ġanda": 5441,
      "ĠEv": 5442,
      "Ġash": 5443,
      "live": 5444,
      "force": 5445,
      "iial": 5446,
      "ially": 5447,
      "Ġreco": 5448,
      "Ġearn": 5449,
      "idential": 5450,
      "Ġelec": 5451,
      "ĠWhite": 5452,
      "But": 5453,
      "Bay": 5454,
      "Che": 5455,
      "face": 5456,
      "nas": 5457,
      "tch": 5458,
      "ĠiG": 5459,
      "aten": 5460,
      "Ġwoul": 5461,
      "Ġhil": 5462,
      "Ġmea": 5463,
      "ĠSearch": 5464,
      "rose": 5465,
      "reb": 5466,
      "Ġono": 5467,
      "third": 5468,
      "ĠWel": 5469,
      "rime": 5470,
      "ceed": 5471,
      "ĠLt": 5472,
      "Ġstore": 5473,
      "aving": 5474,
      "Ġservices": 5475,
      "Ġsoftw": 5476,
      "ĠTokyo": 5477,
      "DON": 5478,
      "Ly": 5479,
      "hut": 5480,
      "ool": 5481,
      "rhe": 5482,
      "sor": 5483,
      "tol": 5484,
      "Ġake": 5485,
      "erk": 5486,
      "Ġwf": 5487,
      "Ġpick": 5488,
      "idg": 5489,
      "ĠMP": 5490,
      "iov": 5491,
      "Ġstake": 5492,
      "anded": 5493,
      "Ġattemp": 5494,
      "vere": 5495,
      "Ġasn": 5496,
      "odi": 5497,
      "loe": 5498,
      "ationa": 5499,
      "Ġ;/": 5500,
      "Ġrisk": 5501,
      "ĠEgypt": 5502,
      "cow": 5503,
      "fre": 5504,
      "lse": 5505,
      "mill": 5506,
      "qa": 5507,
      "Ġschool": 5508,
      "atie": 5509,
      "Ġeam": 5510,
      "Ġbb": 5511,
      "Ġhm": 5512,
      "Ġhre": 5513,
      "issi": 5514,
      "etic": 5515,
      "ĠTec": 5516,
      "Ġgia": 5517,
      "ĠPut": 5518,
      "ĠPos": 5519,
      "outs": 5520,
      "Ġagency": 5521,
      "clos": 5522,
      "Ġcomput": 5523,
      "atien": 5524,
      "ĠSecret": 5525,
      "ĠPakist": 5526,
      "LI": 5527,
      "fac": 5528,
      "hou": 5529,
      "iny": 5530,
      "erns": 5531,
      "ĠsT": 5532,
      "Ġsac": 5533,
      "Ġict": 5534,
      "ĠrM": 5535,
      "ĠlD": 5536,
      "itie": 5537,
      "Ġhosp": 5538,
      "ĠBomb": 5539,
      "ĠWins": 5540,
      "ĠHas": 5541,
      "Ġready": 5542,
      "need": 5543,
      "Ġprog": 5544,
      "Ġwithout": 5545,
      "Ġearnings": 5546,
      "ĠGrand": 5547,
      "Ġmarke": 5548,
      "ĠSatu": 5549,
      "ĠOctober": 5550,
      "Ful": 5551,
      "San": 5552,
      "fan": 5553,
      "gainst": 5554,
      "hom": 5555,
      "million": 5556,
      "Ġfla": 5557,
      "alc": 5558,
      "ĠIll": 5559,
      "urer": 5560,
      "ĠBlu": 5561,
      "ĠFI": 5562,
      "rif": 5563,
      "near": 5564,
      "lsi": 5565,
      "Ġprogr": 5566,
      "ĠInto": 5567,
      "ĠFrida": 5568,
      "Ġresults": 5569,
      "xpected": 5570,
      "Ġeconom": 5571,
      "Ft": 5572,
      "iil": 5573,
      "ĠaT": 5574,
      "orf": 5575,
      "star": 5576,
      "Ġwants": 5577,
      "isI": 5578,
      "eling": 5579,
      "ĠCat": 5580,
      "ĠPart": 5581,
      "ĠWay": 5582,
      "ĠHis": 5583,
      "illy": 5584,
      "efs": 5585,
      "Ġpros": 5586,
      "aeh": 5587,
      "ebt": 5588,
      "Ġspot": 5589,
      "ĠIsr": 5590,
      "Ġftor": 5591,
      "Ġpresid": 5592,
      "Ġyesterd": 5593,
      "Aa": 5594,
      "aud": 5595,
      "lil": 5596,
      "rry": 5597,
      "ĠaA": 5598,
      "Ġsource": 5599,
      "Ġiut": 5600,
      "Ġibe": 5601,
      "ĠnC": 5602,
      "ayers": 5603,
      "ĠLOS": 5604,
      "Ġbey": 5605,
      "rges": 5606,
      "Ġsaying": 5607,
      "Ġkilling": 5608,
      "opean": 5609,
      "fullquote": 5610,
      "Ġwlth": 5611,
      "\\-": 5612,
      "eit": 5613,
      "fire": 5614,
      "half": 5615,
      "ji": 5616,
      "pit": 5617,
      "she": 5618,
      "Ġads": 5619,
      "Ġoar": 5620,
      "Ġiol": 5621,
      "Ġcod": 5622,
      "ĠlN": 5623,
      "Ġfai": 5624,
      "Ġpes": 5625,
      "Ġpll": 5626,
      "iced": 5627,
      "roo": 5628,
      "ĠHat": 5629,
      "uced": 5630,
      "ĠYank": 5631,
      "Ġaln": 5632,
      "Ġdoes": 5633,
      "ĠMiami": 5634,
      "ĠBritain": 5635,
      "ilitary": 5636,
      "Out": 5637,
      "Ue": 5638,
      "VI": 5639,
      "mont": 5640,
      "wat": 5641,
      "Ġ=": 5642,
      "Ġaction": 5643,
      "Ġsic": 5644,
      "Ġrus": 5645,
      "Ġroll": 5646,
      "Ġpel": 5647,
      "Ġmee": 5648,
      "tock": 5649,
      "ĠRee": 5650,
      "ĠĠĠĠ": 5651,
      "Ġsail": 5652,
      "ĠFran": 5653,
      "ĠMike": 5654,
      "Ġwarned": 5655,
      "ĠYankees": 5656,
      "47": 5657,
      "Iat": 5658,
      "Iit": 5659,
      "cst": 5660,
      "hir": 5661,
      "sho": 5662,
      "ĠBowl": 5663,
      "iav": 5664,
      "ĠOv": 5665,
      "imn": 5666,
      "ĠEnt": 5667,
      "ĠHea": 5668,
      "ltd": 5669,
      "ĠYor": 5670,
      "ĠYear": 5671,
      "Ġjudge": 5672,
      "afte": 5673,
      "Ġspam": 5674,
      "dsy": 5675,
      "ault": 5676,
      "Ġcalls": 5677,
      "espite": 5678,
      "'\"": 5679,
      "hib": 5680,
      "iof": 5681,
      "lio": 5682,
      "sol": 5683,
      "vices": 5684,
      "Ġcin": 5685,
      "Ġlose": 5686,
      "Ġpio": 5687,
      "Ġhus": 5688,
      "urc": 5689,
      "otb": 5690,
      "ented": 5691,
      "ĠRs": 5692,
      "iaon": 5693,
      "thee": 5694,
      "Ġresearch": 5695,
      "Ġcrude": 5696,
      "Ġovers": 5697,
      "Ġmakes": 5698,
      "cerns": 5699,
      "01": 5700,
      "Ien": 5701,
      "Iar": 5702,
      "Uni": 5703,
      "hng": 5704,
      "iie": 5705,
      "lid": 5706,
      "pass": 5707,
      "eres": 5708,
      "Ġole": 5709,
      "Ġrday": 5710,
      "Ġlion": 5711,
      "Ġbto": 5712,
      "Ġprt": 5713,
      "Ġinb": 5714,
      "idel": 5715,
      "ĠCot": 5716,
      "ĠMO": 5717,
      "iain": 5718,
      "ĠOak": 5719,
      "ltl": 5720,
      "Ġheart": 5721,
      "ctors": 5722,
      "Ġisl": 5723,
      "lsh": 5724,
      "Ġker": 5725,
      "udan": 5726,
      "Ġwhil": 5727,
      "Ġould": 5728,
      "Ġphon": 5729,
      "Frid": 5730,
      "Ġcapital": 5731,
      "ĠGreen": 5732,
      "Ġversion": 5733,
      "Iay": 5734,
      "eam": 5735,
      "Ġtae": 5736,
      "Ġsad": 5737,
      "Ġfie": 5738,
      "ingo": 5739,
      "Ġtoll": 5740,
      "omn": 5741,
      "ĠEm": 5742,
      "epe": 5743,
      "Ġesday": 5744,
      "rda": 5745,
      "Ġsecon": 5746,
      "board": 5747,
      "ĠLouis": 5748,
      "Ab": 5749,
      "Fe": 5750,
      "fal": 5751,
      "hw": 5752,
      "jury": 5753,
      "pers": 5754,
      "tet": 5755,
      "uil": 5756,
      "Ġsnt": 5757,
      "Ġrar": 5758,
      "ĠlH": 5759,
      "Ġfact": 5760,
      "Ġete": 5761,
      "Ġnch": 5762,
      "Ġwes": 5763,
      "ecn": 5764,
      "ĠReds": 5765,
      "ĠDam": 5766,
      "Ġview": 5767,
      "loa": 5768,
      "uln": 5769,
      "ucts": 5770,
      "Ġsees": 5771,
      "Ġacross": 5772,
      "Ġpercen": 5773,
      "ience": 5774,
      "ĠExpl": 5775,
      "Ġeek": 5776,
      "Ġruns": 5777,
      "Ġtaking": 5778,
      "Ġsoftwar": 5779,
      "ĠATHENS": 5780,
      "41": 5781,
      ";;": 5782,
      "Bs": 5783,
      "Cu": 5784,
      "git": 5785,
      "Ġtac": 5786,
      "Ġtack": 5787,
      "Ġries": 5788,
      "Ġlla": 5789,
      "Ġeil": 5790,
      "aling": 5791,
      "Ġband": 5792,
      "Ġwild": 5793,
      "icle": 5794,
      "elect": 5795,
      "Ġofd": 5796,
      "Ġgains": 5797,
      "ĠNev": 5798,
      "Ġande": 5799,
      "Ġvan": 5800,
      "ĠKill": 5801,
      "uds": 5802,
      "Ġjump": 5803,
      "Ġlau": 5804,
      "Ġcompet": 5805,
      "Ġworkers": 5806,
      "Ġfiled": 5807,
      "ĠFederal": 5808,
      "ĠMicrosof": 5809,
      "Open": 5810,
      "aan": 5811,
      "bia": 5812,
      "jur": 5813,
      "kill": 5814,
      "ĠaB": 5815,
      "Ġaimed": 5816,
      "Ġsets": 5817,
      "anks": 5818,
      "orte": 5819,
      "Ġcoi": 5820,
      "Ġntr": 5821,
      "Ġbase": 5822,
      "Ġpace": 5823,
      "ĠIne": 5824,
      "ayi": 5825,
      "leo": 5826,
      "ĠWhe": 5827,
      "ĠWes": 5828,
      "Ġanno": 5829,
      "ĠLon": 5830,
      "sey": 5831,
      "anted": 5832,
      "Ġscored": 5833,
      "Ġshowed": 5834,
      "Ġposted": 5835,
      "ĠDavis": 5836,
      ".--": 5837,
      "nng": 5838,
      "uge": 5839,
      "ĠtH": 5840,
      "Ġtvo": 5841,
      "Ġaed": 5842,
      "Ġfea": 5843,
      "Ġease": 5844,
      "etor": 5845,
      "roa": 5846,
      "leas": 5847,
      "otor": 5848,
      "Ġthh": 5849,
      "Ġges": 5850,
      "tso": 5851,
      "igital": 5852,
      "iean": 5853,
      "ĠNati": 5854,
      "iap": 5855,
      "ĠGov": 5856,
      "ĠExt": 5857,
      "lii": 5858,
      "Ġitr": 5859,
      "Ġsaw": 5860,
      "elling": 5861,
      "rned": 5862,
      "ĠReute": 5863,
      "ishing": 5864,
      "ĠAfrica": 5865,
      "Ġbecome": 5866,
      "ĠTrade": 5867,
      "Ġfollow": 5868,
      "ĠAthens": 5869,
      "Ke": 5870,
      "Ser": 5871,
      "aim": 5872,
      "wid": 5873,
      "inb": 5874,
      "Ġihn": 5875,
      "Ġnre": 5876,
      "Ġbody": 5877,
      "stoc": 5878,
      "Ġpb": 5879,
      "Ġped": 5880,
      "Ġdhe": 5881,
      "Ġdest": 5882,
      "isf": 5883,
      "ĠSus": 5884,
      "utn": 5885,
      "ĠCen": 5886,
      "ĠPir": 5887,
      "ĠBat": 5888,
      "ĠHome": 5889,
      "ĠLu": 5890,
      "nese": 5891,
      "Ġevent": 5892,
      "Ġdefe": 5893,
      "Au": 5894,
      "DI": 5895,
      "Pack": 5896,
      "pet": 5897,
      "inat": 5898,
      "Ġsouth": 5899,
      "ĠiJ": 5900,
      "Ġlte": 5901,
      "Ġlfor": 5902,
      "Ġlittle": 5903,
      "Ġbased": 5904,
      "urned": 5905,
      "otd": 5906,
      "ĠDet": 5907,
      "cem": 5908,
      "Ġhealth": 5909,
      "odd": 5910,
      "loi": 5911,
      "efi": 5912,
      "ucl": 5913,
      "Ġteams": 5914,
      "shar": 5915,
      "ernment": 5916,
      "roso": 5917,
      "Ġ500": 5918,
      "ĠItaly": 5919,
      "ĠTeam": 5920,
      "Ġgrou": 5921,
      "Hi": 5922,
      "hop": 5923,
      "jay": 5924,
      "vp": 5925,
      "Ġtbo": 5926,
      "inee": 5927,
      "Ġsue": 5928,
      "Ġefor": 5929,
      "Ġhto": 5930,
      "ilan": 5931,
      "ĠIE": 5932,
      "thl": 5933,
      "ĠWhat": 5934,
      "ĠFt": 5935,
      "ĠUl": 5936,
      "Ġandn": 5937,
      "Ġvas": 5938,
      "andal": 5939,
      "aies": 5940,
      "Ġitl": 5941,
      "Ġkid": 5942,
      "abt": 5943,
      "Ġarg": 5944,
      "ffe": 5945,
      "daay": 5946,
      "Ġ400": 5947,
      "Ġterm": 5948,
      "diay": 5949,
      "Ġmanager": 5950,
      "Va": 5951,
      "Ws": 5952,
      "bly": 5953,
      "nea": 5954,
      "qs": 5955,
      "ensi": 5956,
      "Ġnen": 5957,
      "olution": 5958,
      "aca": 5959,
      "ership": 5960,
      "Ġaned": 5961,
      "Ġyards": 5962,
      "seas": 5963,
      "aip": 5964,
      "lost": 5965,
      "ither": 5966,
      "Ġorld": 5967,
      "Ġcharges": 5968,
      "Ġese": 5969,
      "Ġfood": 5970,
      "Ġmeeting": 5971,
      "Ġflor": 5972,
      "record": 5973,
      "jan": 5974,
      "nec": 5975,
      "sat": 5976,
      "Ġtions": 5977,
      "Ġabe": 5978,
      "Ġrip": 5979,
      "Ġful": 5980,
      "Ġeig": 5981,
      "Ġblast": 5982,
      "Ġdan": 5983,
      "Ġmach": 5984,
      "ĠSor": 5985,
      "ĠSir": 5986,
      "Ġintr": 5987,
      "Ġincr": 5988,
      "ĠMini": 5989,
      "Ġonc": 5990,
      "ntl": 5991,
      "iao": 5992,
      "ĠEi": 5993,
      "Ġstu": 5994,
      "Ġasl": 5995,
      "ovn": 5996,
      "plans": 5997,
      "ĠCoast": 5998,
      "Ġperce": 5999,
      "India": 6000,
      "Ui": 6001,
      "iion": 6002,
      "lO": 6003,
      "oat": 6004,
      "Ġtab": 6005,
      "Ġlad": 6006,
      "Ġeigh": 6007,
      "stat": 6008,
      "state": 6009,
      "Ġpf": 6010,
      "Ġdidn": 6011,
      "entt": 6012,
      "nty": 6013,
      "ĠLast": 6014,
      "nger": 6015,
      "Ġtrack": 6016,
      "Ġpeopl": 6017,
      "Iran": 6018,
      "Ġphones": 6019,
      "uja": 6020,
      "31": 6021,
      "Iss": 6022,
      "aen": 6023,
      "fie": 6024,
      "nie": 6025,
      "uen": 6026,
      "init": 6027,
      "ĠoE": 6028,
      "oned": 6029,
      "Ġrally": 6030,
      "Ġhts": 6031,
      "Ġmir": 6032,
      "ĠSv": 6033,
      "idge": 6034,
      "ando": 6035,
      "Ġheat": 6036,
      "iple": 6037,
      "ably": 6038,
      "tihe": 6039,
      "omputer": 6040,
      "iber": 6041,
      "sterday": 6042,
      "Ġdebt": 6043,
      "Group": 6044,
      "Ġtun": 6045,
      "Ġtla": 6046,
      "Ġaer": 6047,
      "itish": 6048,
      "start": 6049,
      "rofit": 6050,
      "Ġtoward": 6051,
      "idate": 6052,
      "Ġthose": 6053,
      "ĠMet": 6054,
      "ĠPI": 6055,
      "iep": 6056,
      "ĠFu": 6057,
      "ltr": 6058,
      "lood": 6059,
      "Ġshop": 6060,
      "Ġork": 6061,
      "itting": 6062,
      "Ġtaken": 6063,
      "Ġrule": 6064,
      "Ġtechnology": 6065,
      "46": 6066,
      "95": 6067,
      "pea": 6068,
      "tthe": 6069,
      "Ġced": 6070,
      "Ġcreat": 6071,
      "Ġlly": 6072,
      "itb": 6073,
      "Ġpul": 6074,
      "Ġhous": 6075,
      "Ġofh": 6076,
      "oters": 6077,
      "olm": 6078,
      "ĠPAR": 6079,
      "ĠWl": 6080,
      "ĠNO": 6081,
      "ĠNob": 6082,
      "nex": 6083,
      "Ġask": 6084,
      "akers": 6085,
      "Ġseve": 6086,
      "ampa": 6087,
      "coming": 6088,
      "blic": 6089,
      "Ġuser": 6090,
      "elease": 6091,
      "ĠSecur": 6092,
      "Ġhelped": 6093,
      "John": 6094,
      "Ġfraud": 6095,
      "Aug": 6096,
      "Iet": 6097,
      "Rt": 6098,
      "Str": 6099,
      "bie": 6100,
      "cw": 6101,
      "gat": 6102,
      "nw": 6103,
      "nle": 6104,
      "pay": 6105,
      "sal": 6106,
      "var": 6107,
      "Ġound": 6108,
      "anv": 6109,
      "Ġfm": 6110,
      "Ġfee": 6111,
      "Ġpm": 6112,
      "Ġhour": 6113,
      "ether": 6114,
      "urns": 6115,
      "aches": 6116,
      "ntern": 6117,
      "rict": 6118,
      "Ġengine": 6119,
      "&.": 6120,
      "Ive": 6121,
      "MA": 6122,
      "Win": 6123,
      "dle": 6124,
      "rre": 6125,
      "rity": 6126,
      "yI": 6127,
      "zes": 6128,
      "Ġock": 6129,
      "itary": 6130,
      "Ġbed": 6131,
      "Ġbird": 6132,
      "Ġwae": 6133,
      "ication": 6134,
      "ĠSk": 6135,
      "ĠMae": 6136,
      "ĠBre": 6137,
      "ĠBid": 6138,
      "tocks": 6139,
      "ention": 6140,
      "Ġvin": 6141,
      "Ġsave": 6142,
      "ooe": 6143,
      "Ġteh": 6144,
      "Ġcontract": 6145,
      "Ġexe": 6146,
      "Ġjud": 6147,
      "coa": 6148,
      "Don": 6149,
      "Wn": 6150,
      "fel": 6151,
      "pc": 6152,
      "pic": 6153,
      "sof": 6154,
      "ĠtG": 6155,
      "Ġtfor": 6156,
      "Ġtep": 6157,
      "iner": 6158,
      "ĠoIn": 6159,
      "Ġiil": 6160,
      "Ġief": 6161,
      "Ġrigh": 6162,
      "Ġlac": 6163,
      "Ġlob": 6164,
      "stn": 6165,
      "ĠFar": 6166,
      "rii": 6167,
      "Ġvith": 6168,
      "chan": 6169,
      "eag": 6170,
      "Ġatr": 6171,
      "tere": 6172,
      "enda": 6173,
      "Ġrais": 6174,
      "Ġaccess": 6175,
      "Inter": 6176,
      "Ġsigned": 6177,
      "Ġissue": 6178,
      ";:": 6179,
      "Eu": 6180,
      "Oo": 6181,
      "Ru": 6182,
      "Tl": 6183,
      "brs": 6184,
      "pat": 6185,
      "zs": 6186,
      "inia": 6187,
      "ĠaL": 6188,
      "Ġoro": 6189,
      "Ġots": 6190,
      "ener": 6191,
      "Ġcir": 6192,
      "Ġdei": 6193,
      "icb": 6194,
      "Ġmh": 6195,
      "olu": 6196,
      "ĠMel": 6197,
      "ĠBil": 6198,
      "ĠBeij": 6199,
      "ĠWs": 6200,
      "ĠWir": 6201,
      "ĠWorl": 6202,
      "nev": 6203,
      "odn": 6204,
      "Ġwhy": 6205,
      "offs": 6206,
      "minist": 6207,
      "Ġfocus": 6208,
      "ĠLondon": 6209,
      "jects": 6210,
      "kto": 6211,
      "rent": 6212,
      "what": 6213,
      "Ġax": 6214,
      "Ġael": 6215,
      "Ġili": 6216,
      "orv": 6217,
      "enes": 6218,
      "Ġfolr": 6219,
      "ĠeW": 6220,
      "Ġboss": 6221,
      "Ġwc": 6222,
      "ĠSel": 6223,
      "urth": 6224,
      "ĠCli": 6225,
      "olice": 6226,
      "ĠMd": 6227,
      "Ġ,.": 6228,
      "agre": 6229,
      "terday": 6230,
      "Ġasa": 6231,
      "aken": 6232,
      "umn": 6233,
      "evi": 6234,
      "ĠInf": 6235,
      "rnment": 6236,
      "Ġincreas": 6237,
      "ĠUpdate": 6238,
      "ĠPCs": 6239,
      "Ġreleas": 6240,
      "Ġblock": 6241,
      "48": 6242,
      "count": 6243,
      "wal": 6244,
      "Ġara": 6245,
      "Ġsio": 6246,
      "Ġoup": 6247,
      "ante": 6248,
      "orb": 6249,
      "Ġcoc": 6250,
      "Ġcov": 6251,
      "Ġeq": 6252,
      "Ġmf": 6253,
      "ĠSho": 6254,
      "ĠAo": 6255,
      "ĠTH": 6256,
      "ĠMusic": 6257,
      "Ġuh": 6258,
      "thd": 6259,
      "ĠDS": 6260,
      "ĠOra": 6261,
      "iost": 6262,
      "eap": 6263,
      "Ġforecast": 6264,
      "ctic": 6265,
      "Ġket": 6266,
      "ĠKy": 6267,
      "dead": 6268,
      "lna": 6269,
      "rowing": 6270,
      "Ġlocal": 6271,
      "ĠRyder": 6272,
      "Dec": 6273,
      "GTON": 6274,
      "fall": 6275,
      "mid": 6276,
      "many": 6277,
      "nre": 6278,
      "tec": 6279,
      "von": 6280,
      "erh": 6281,
      "Ġott": 6282,
      "Ġirt": 6283,
      "oring": 6284,
      "Ġela": 6285,
      "ĠnP": 6286,
      "Ġbte": 6287,
      "Ġhls": 6288,
      "ilf": 6289,
      "ilar": 6290,
      "ĠSans": 6291,
      "rob": 6292,
      "urv": 6293,
      "ĠPale": 6294,
      "ĠonI": 6295,
      "ĠNig": 6296,
      "ĠFil": 6297,
      "ĠData": 6298,
      "Ġvn": 6299,
      "ceh": 6300,
      "ĠGar": 6301,
      "Ġhey": 6302,
      "Ġasked": 6303,
      "ifo": 6304,
      "ifs": 6305,
      "evs": 6306,
      "ĠStre": 6307,
      "Ġalmost": 6308,
      "States": 6309,
      "ĠZeal": 6310,
      "Ġweekend": 6311,
      "Ġbehind": 6312,
      "Ġdespite": 6313,
      "Od": 6314,
      "cra": 6315,
      "uon": 6316,
      "uction": 6317,
      "ĠsM": 6318,
      "Ġcoll": 6319,
      "Ġlai": 6320,
      "Ġlive": 6321,
      "Ġflr": 6322,
      "Ġhap": 6323,
      "icd": 6324,
      "icia": 6325,
      "omet": 6326,
      "ioni": 6327,
      "ĠPower": 6328,
      "ĠBet": 6329,
      "ĠOpe": 6330,
      "cea": 6331,
      "them": 6332,
      "Ġhear": 6333,
      "ĠStar": 6334,
      "Ġspr": 6335,
      "ences": 6336,
      "untry": 6337,
      "while": 6338,
      "2005": 6339,
      "ĠDelta": 6340,
      "Ou": 6341,
      "Rel": 6342,
      "Sy": 6343,
      "sP": 6344,
      "Ġtight": 6345,
      "Ġaj": 6346,
      "Ġlol": 6347,
      "uta": 6348,
      "uting": 6349,
      "Ġthb": 6350,
      "thie": 6351,
      "ĠOo": 6352,
      "ĠHI": 6353,
      "Ġheavy": 6354,
      "ĠKer": 6355,
      "ucks": 6356,
      "Ġprison": 6357,
      "major": 6358,
      "Ġbusin": 6359,
      "ĠBrazil": 6360,
      "06": 6361,
      "54": 6362,
      "cke": 6363,
      "rns": 6364,
      "Ġtap": 6365,
      "ĠiU": 6366,
      "Ġfv": 6367,
      "Ġwen": 6368,
      "icts": 6369,
      "oust": 6370,
      "ĠWho": 6371,
      "ĠDutch": 6372,
      "ĠOu": 6373,
      "ching": 6374,
      "trad": 6375,
      "Ġexc": 6376,
      "Ġdeat": 6377,
      "ahl": 6378,
      "ongs": 6379,
      "Ġseco": 6380,
      "Ġincluding": 6381,
      "aing": 6382,
      "pin": 6383,
      "san": 6384,
      "til": 6385,
      "Ġalo": 6386,
      "ĠsO": 6387,
      "eder": 6388,
      "itis": 6389,
      "Ġfas": 6390,
      "Ġnti": 6391,
      "Ġmol": 6392,
      "ĠCour": 6393,
      "iral": 6394,
      "Ġthai": 6395,
      "ĠMast": 6396,
      "today": 6397,
      "ĠUr": 6398,
      "Ġ,#": 6399,
      "Ġstan": 6400,
      "ĠThr": 6401,
      "raqi": 6402,
      "Ġeffort": 6403,
      "ĠSix": 6404,
      "ONDON": 6405,
      "ĠJuly": 6406,
      "ĠProfile": 6407,
      "cin": 6408,
      "make": 6409,
      "nol": 6410,
      "obe": 6411,
      "pb": 6412,
      "pm": 6413,
      "tain": 6414,
      "Ġaie": 6415,
      "Ġool": 6416,
      "alv": 6417,
      "Ġtoda": 6418,
      "ĠCro": 6419,
      "Ġgai": 6420,
      "ĠRen": 6421,
      "usiness": 6422,
      "iaf": 6423,
      "Ġandr": 6424,
      "ooi": 6425,
      "cover": 6426,
      "Ġnever": 6427,
      "Ġrecor": 6428,
      "Ġosn": 6429,
      "Ġleading": 6430,
      "Ġknown": 6431,
      "ĠUPDATE": 6432,
      "AU": 6433,
      "trs": 6434,
      "Ġaig": 6435,
      "Ġcia": 6436,
      "Ġcout": 6437,
      "Ġlav": 6438,
      "Ġfthe": 6439,
      "Ġftr": 6440,
      "ĠnT": 6441,
      "Ġwre": 6442,
      "Ġwai": 6443,
      "iland": 6444,
      "Ġdthe": 6445,
      "icke": 6446,
      "elli": 6447,
      "ĠIO": 6448,
      "urce": 6449,
      "otm": 6450,
      "ofs": 6451,
      "ĠHy": 6452,
      "Ġforl": 6453,
      "lys": 6454,
      "Ġeri": 6455,
      "ĠThre": 6456,
      "Ġcham": 6457,
      "nning": 6458,
      "Ġflu": 6459,
      "Ġworth": 6460,
      "Ġtrying": 6461,
      "ĠWASHINGTON": 6462,
      "Ġuntil": 6463,
      "85": 6464,
      "Dar": 6465,
      "Fri": 6466,
      "ahe": 6467,
      "cam": 6468,
      "lre": 6469,
      "Ġ[": 6470,
      "Ġtrs": 6471,
      "Ġtreat": 6472,
      "inon": 6473,
      "eris": 6474,
      "Ġiec": 6475,
      "anis": 6476,
      "orit": 6477,
      "Ġrro": 6478,
      "Ġress": 6479,
      "atte": 6480,
      "Ġfle": 6481,
      "Ġbout": 6482,
      "ĠTit": 6483,
      "Ġull": 6484,
      "Ġonal": 6485,
      "osing": 6486,
      "ĠGiants": 6487,
      "ĠHous": 6488,
      "laim": 6489,
      "sses": 6490,
      "Ġprob": 6491,
      "Ġtrh": 6492,
      "ĠUnite": 6493,
      "NYSE": 6494,
      "AA": 6495,
      "Ay": 6496,
      "Korea": 6497,
      "Ms": 6498,
      "cie": 6499,
      "mod": 6500,
      "oom": 6501,
      "Ġtern": 6502,
      "Ġotr": 6503,
      "Ġild": 6504,
      "Ġird": 6505,
      "anb": 6506,
      "itu": 6507,
      "Ġeel": 6508,
      "Ġbook": 6509,
      "Ġwher": 6510,
      "ĠSie": 6511,
      "ĠSear": 6512,
      "elin": 6513,
      "ĠAli": 6514,
      "Ġthab": 6515,
      "ĠMass": 6516,
      "ofe": 6517,
      "ĠDea": 6518,
      "Ġvirus": 6519,
      "ĠEle": 6520,
      "iob": 6521,
      "Ġfora": 6522,
      "ngt": 6523,
      "ument": 6524,
      "Ġenergy": 6525,
      "ovs": 6526,
      "Ġcharge": 6527,
      "Ina": 6528,
      "price": 6529,
      "Ġ41": 6530,
      "Ġ45": 6531,
      "Ġraq": 6532,
      "enced": 6533,
      "rget": 6534,
      "ĠTuesda": 6535,
      "Ġdouble": 6536,
      "Ġhistory": 6537,
      "\"'": 6538,
      "OK": 6539,
      "cost": 6540,
      "vm": 6541,
      "yard": 6542,
      "Ġaot": 6543,
      "Ġsse": 6544,
      "Ġsul": 6545,
      "ĠrB": 6546,
      "atb": 6547,
      "Ġlls": 6548,
      "Ġfears": 6549,
      "Ġnand": 6550,
      "Ġhun": 6551,
      "elan": 6552,
      "ĠAid": 6553,
      "ĠTalks": 6554,
      "url": 6555,
      "Ġthu": 6556,
      "ionship": 6557,
      "ĠPutin": 6558,
      "tsl": 6559,
      "Ġues": 6560,
      "igg": 6561,
      "ĠWt": 6562,
      "ĠNl": 6563,
      "ĠvI": 6564,
      "Ġvice": 6565,
      "ĠGs": 6566,
      "Ġatta": 6567,
      "nsd": 6568,
      "atei": 6569,
      "mpt": 6570,
      "Ġprobe": 6571,
      "ibl": 6572,
      "conf": 6573,
      "Ġblow": 6574,
      "ĠNokia": 6575,
      ".,-": 6576,
      "North": 6577,
      "PH": 6578,
      "power": 6579,
      "orc": 6580,
      "atm": 6581,
      "Ġcll": 6582,
      "ĠlG": 6583,
      "Ġeac": 6584,
      "Ġeye": 6585,
      "ĠnM": 6586,
      "Ġbhat": 6587,
      "Ġdent": 6588,
      "roll": 6589,
      "ĠgI": 6590,
      "oum": 6591,
      "ĠBom": 6592,
      "Ġanr": 6593,
      "ĠJets": 6594,
      "lsd": 6595,
      "tii": 6596,
      "Ġpract": 6597,
      "Ġarnd": 6598,
      "Ġacco": 6599,
      "ength": 6600,
      "Ġrunning": 6601,
      "rival": 6602,
      "Ġclaims": 6603,
      "ĠBrown": 6604,
      ":;": 6605,
      "Dem": 6606,
      "Not": 6607,
      "aie": 6608,
      "cis": 6609,
      "gun": 6610,
      "hrs": 6611,
      "ohn": 6612,
      "pite": 6613,
      "tng": 6614,
      "vat": 6615,
      "Ġica": 6616,
      "Ġlio": 6617,
      "Ġlse": 6618,
      "Ġfotr": 6619,
      "ĠeL": 6620,
      "Ġeur": 6621,
      "etes": 6622,
      "Ġgan": 6623,
      "thers": 6624,
      "ĠNear": 6625,
      "rah": 6626,
      "imir": 6627,
      "quest": 6628,
      "nsh": 6629,
      "essi": 6630,
      "oco": 6631,
      "ulation": 6632,
      "ĠKaz": 6633,
      "Ġshou": 6634,
      "shot": 6635,
      "rese": 6636,
      "Ġfired": 6637,
      "ulls": 6638,
      "produc": 6639,
      "ization": 6640,
      "Thurs": 6641,
      "Ġannounce": 6642,
      "Ġmembers": 6643,
      "ĠGermany": 6644,
      "ĠOnline": 6645,
      "\"\\": 6646,
      "38": 6647,
      "43": 6648,
      "Dn": 6649,
      "Ihe": 6650,
      "Ld": 6651,
      "aal": 6652,
      "aay": 6653,
      "dit": 6654,
      "ever": 6655,
      "oce": 6656,
      "rthe": 6657,
      "enit": 6658,
      "Ġeaid": 6659,
      "sters": 6660,
      "stri": 6661,
      "Ġhours": 6662,
      "Ġmut": 6663,
      "ĠSd": 6664,
      "ĠSut": 6665,
      "ĠIw": 6666,
      "ĠIth": 6667,
      "ĠAlex": 6668,
      "ĠMets": 6669,
      "aml": 6670,
      "ĠRon": 6671,
      "nting": 6672,
      "ĠDs": 6673,
      "Ġvia": 6674,
      "imer": 6675,
      "lyi": 6676,
      "agh": 6677,
      "aki": 6678,
      "ĠJr": 6679,
      "being": 6680,
      "cket": 6681,
      "Ġally": 6682,
      "govern": 6683,
      "ounts": 6684,
      "Ġannoun": 6685,
      ",)": 6686,
      "Bank": 6687,
      "dro": 6688,
      "fg": 6689,
      "Ġaz": 6690,
      "oric": 6691,
      "ately": 6692,
      "ĠlR": 6693,
      "Ġpto": 6694,
      "acd": 6695,
      "ĠWA": 6696,
      "ĠNex": 6697,
      "eef": 6698,
      "Ġanrd": 6699,
      "ĠGun": 6700,
      "rsl": 6701,
      "mpi": 6702,
      "Ġplant": 6703,
      "Ġ32": 6704,
      "Ġoffici": 6705,
      "ĠReg": 6706,
      "Ġurged": 6707,
      "Ġdevel": 6708,
      "ĠCanadian": 6709,
      "Ġeconomic": 6710,
      "ĠIPO": 6711,
      "Ġequip": 6712,
      "Ġbarrel": 6713,
      "Ise": 6714,
      "PE": 6715,
      "kil": 6716,
      "oet": 6717,
      "Ġurs": 6718,
      "orti": 6719,
      "Ġears": 6720,
      "Ġhte": 6721,
      "Ġhthe": 6722,
      "Ġdit": 6723,
      "icer": 6724,
      "Ġmit": 6725,
      "aya": 6726,
      "llow": 6727,
      "ofr": 6728,
      "ĠLee": 6729,
      "Ġstl": 6730,
      "eive": 6731,
      "ftware": 6732,
      "Ġpoin": 6733,
      "spec": 6734,
      "ĠMoz": 6735,
      "Ġfootball": 6736,
      "Ġcareer": 6737,
      "Ich": 6738,
      "MI": 6739,
      "Sup": 6740,
      "Sta": 6741,
      "base": 6742,
      "gas": 6743,
      "iro": 6744,
      "nion": 6745,
      "rus": 6746,
      "Ġsht": 6747,
      "Ġsrt": 6748,
      "Ġoal": 6749,
      "Ġices": 6750,
      "Ġril": 6751,
      "aret": 6752,
      "Ġcast": 6753,
      "ĠeF": 6754,
      "Ġbou": 6755,
      "Ġwide": 6756,
      "Ġpain": 6757,
      "Ġposs": 6758,
      "etb": 6759,
      "Ġtov": 6760,
      "ndo": 6761,
      "veil": 6762,
      "ĠWeek": 6763,
      "ĠLas": 6764,
      "Ġisa": 6765,
      "gei": 6766,
      "Ġchips": 6767,
      "show": 6768,
      "Ġcoal": 6769,
      "Ġ34": 6770,
      "tta": 6771,
      "tler": 6772,
      "arged": 6773,
      "ashing": 6774,
      "Ġwinning": 6775,
      "Ġpoli": 6776,
      "ĠPrim": 6777,
      "ĠComputer": 6778,
      "ĠAssoci": 6779,
      "ĠwIth": 6780,
      "Ġdirect": 6781,
      "ĠOhio": 6782,
      "Google": 6783,
      "LD": 6784,
      "iid": 6785,
      "nhe": 6786,
      "rri": 6787,
      "sia": 6788,
      "Ġoir": 6789,
      "Ġfom": 6790,
      "Ġfresh": 6791,
      "Ġ-~": 6792,
      "ĠSri": 6793,
      "ĠAa": 6794,
      "Ġthce": 6795,
      "ĠMis": 6796,
      "ĠMag": 6797,
      "acb": 6798,
      "ieal": 6799,
      "ĠNr": 6800,
      "ĠFs": 6801,
      "iak": 6802,
      "thet": 6803,
      "rsh": 6804,
      "ĠJam": 6805,
      "uments": 6806,
      "uccess": 6807,
      "Ġje": 6808,
      "Inte": 6809,
      "Ġoffice": 6810,
      "Ġabove": 6811,
      "ighb": 6812,
      "ĠMichael": 6813,
      "Ġfeor": 6814,
      "ĠWoods": 6815,
      "ĠGeneral": 6816,
      "cil": 6817,
      "dom": 6818,
      "fou": 6819,
      "hos": 6820,
      "hai": 6821,
      "zens": 6822,
      "Ġtfo": 6823,
      "Ġiew": 6824,
      "Ġlag": 6825,
      "Ġlater": 6826,
      "Ġnational": 6827,
      "Ġdal": 6828,
      "Ġdto": 6829,
      "inger": 6830,
      "ĠTes": 6831,
      "ĠFro": 6832,
      "llar": 6833,
      "owth": 6834,
      "ĠHl": 6835,
      "ĠLoss": 6836,
      "Ġkept": 6837,
      "ipt": 6838,
      "ssion": 6839,
      "Ġacq": 6840,
      "Ġ36": 6841,
      "aile": 6842,
      "cause": 6843,
      "Ġfror": 6844,
      "away": 6845,
      "Ġirst": 6846,
      "Thur": 6847,
      "Ġwarn": 6848,
      "96": 6849,
      "Pre": 6850,
      "mnt": 6851,
      "nag": 6852,
      "says": 6853,
      "tA": 6854,
      "uli": 6855,
      "wth": 6856,
      "wea": 6857,
      "Ġsenior": 6858,
      "Ġook": 6859,
      "ĠlL": 6860,
      "itel": 6861,
      "Ġdof": 6862,
      "acke": 6863,
      "entl": 6864,
      "ĠRic": 6865,
      "ĠDn": 6866,
      "Ġstorm": 6867,
      "rsd": 6868,
      "ĠJer": 6869,
      "lsl": 6870,
      "ĠKn": 6871,
      "efr": 6872,
      "ĠVs": 6873,
      "oston": 6874,
      "Ġplane": 6875,
      "afl": 6876,
      "Ġ33": 6877,
      "rding": 6878,
      "Ġngs": 6879,
      "Ġresult": 6880,
      "aqi": 6881,
      "Iraqi": 6882,
      "Ġcampaign": 6883,
      "bile": 6884,
      "hird": 6885,
      "vu": 6886,
      "wel": 6887,
      "Ġrter": 6888,
      "ĠlF": 6889,
      "Ġlack": 6890,
      "itI": 6891,
      "Ġbilli": 6892,
      "Ġwu": 6893,
      "Ġwot": 6894,
      "Ġwireless": 6895,
      "Ġhro": 6896,
      "isio": 6897,
      "ĠTake": 6898,
      "ĠRem": 6899,
      "ĠDollar": 6900,
      "Ġvr": 6901,
      "ĠHs": 6902,
      "ĠHer": 6903,
      "odt": 6904,
      "ovr": 6905,
      "ĠTher": 6906,
      "Ġalready": 6907,
      "Ġseveral": 6908,
      "ĠCham": 6909,
      "rna": 6910,
      "resident": 6911,
      "Ġimm": 6912,
      "rmy": 6913,
      "Ġrelea": 6914,
      "gery": 6915,
      "Ġemploy": 6916,
      "South": 6917,
      "UP": 6918,
      "Ur": 6919,
      "VE": 6920,
      "dep": 6921,
      "iia": 6922,
      "lce": 6923,
      "take": 6924,
      "uie": 6925,
      "zt": 6926,
      "Ġius": 6927,
      "Ġria": 6928,
      "Ġlid": 6929,
      "Ġfoe": 6930,
      "Ġpic": 6931,
      "Ġpls": 6932,
      "rease": 6933,
      "ĠCab": 6934,
      "Ġvar": 6935,
      "ltn": 6936,
      "ĠJim": 6937,
      "aining": 6938,
      "ĠVen": 6939,
      "iiy": 6940,
      "Ġalleg": 6941,
      "ihs": 6942,
      "pric": 6943,
      "State": 6944,
      "Ġicn": 6945,
      "lection": 6946,
      "Ġlift": 6947,
      "Microsoft": 6948,
      "Ġspeed": 6949,
      "ĠVirgin": 6950,
      "Rl": 6951,
      "break": 6952,
      "call": 6953,
      "Ġtche": 6954,
      "inis": 6955,
      "Ġaod": 6956,
      "ĠsB": 6957,
      "Ġrly": 6958,
      "Ġlro": 6959,
      "ĠeD": 6960,
      "ĠeH": 6961,
      "isday": 6962,
      "ashes": 6963,
      "Ġinning": 6964,
      "uries": 6965,
      "ĠCE": 6966,
      "Ġofb": 6967,
      "Ġupp": 6968,
      "igo": 6969,
      "igat": 6970,
      "Ġvil": 6971,
      "chip": 6972,
      "ngl": 6973,
      "ctio": 6974,
      "appro": 6975,
      "evel": 6976,
      "Ġwithin": 6977,
      "Ġthatt": 6978,
      "rder": 6979,
      "ĠAmeri": 6980,
      "ĠGeorge": 6981,
      "ĠNajaf": 6982,
      "ĠRussi": 6983,
      "Ġdigital": 6984,
      "&'": 6985,
      "Pac": 6986,
      "fis": 6987,
      "fect": 6988,
      "hist": 6989,
      "kh": 6990,
      "nA": 6991,
      "wes": 6992,
      "where": 6993,
      "Ġaec": 6994,
      "Ġsinc": 6995,
      "Ġiea": 6996,
      "aton": 6997,
      "Ġcau": 6998,
      "Ġloy": 6999,
      "itin": 7000,
      "alI": 7001,
      "Ġnic": 7002,
      "stion": 7003,
      "stand": 7004,
      "ĠCarl": 7005,
      "olds": 7006,
      "ĠNu": 7007,
      "ĠNep": 7008,
      "ĠRt": 7009,
      "ĠRis": 7010,
      "ĠFree": 7011,
      "ntel": 7012,
      "ĠGt": 7013,
      "life": 7014,
      "ifn": 7015,
      "ĠKl": 7016,
      "Ġjn": 7017,
      "Ġ65": 7018,
      "Ġmean": 7019,
      "posed": 7020,
      "ĠPrix": 7021,
      "ĠMuslim": 7022,
      "ĠOPEC": 7023,
      "bou": 7024,
      "cop": 7025,
      "eor": 7026,
      "mel": 7027,
      "zing": 7028,
      "ĠtE": 7029,
      "ĠtF": 7030,
      "Ġsih": 7031,
      "enrs": 7032,
      "etin": 7033,
      "ĠSH": 7034,
      "eler": 7035,
      "olen": 7036,
      "toa": 7037,
      "toh": 7038,
      "enta": 7039,
      "raine": 7040,
      "Ġvide": 7041,
      "sein": 7042,
      "Ġrew": 7043,
      "Ġheal": 7044,
      "ĠJobs": 7045,
      "isted": 7046,
      "uded": 7047,
      "iih": 7048,
      "ffi": 7049,
      "Ġmoon": 7050,
      "ĠAfric": 7051,
      "loyees": 7052,
      "Gi": 7053,
      "Sund": 7054,
      "dor": 7055,
      "five": 7056,
      "pur": 7057,
      "ĠtR": 7058,
      "esident": 7059,
      "Ġram": 7060,
      "atis": 7061,
      "Ġcio": 7062,
      "Ġlun": 7063,
      "Ġnge": 7064,
      "Ġnamed": 7065,
      "Ġpair": 7066,
      "Ġthit": 7067,
      "ĠMak": 7068,
      "Ġ#,": 7069,
      "rast": 7070,
      "ller": 7071,
      "ĠUe": 7072,
      "ĠOld": 7073,
      "Ġyer": 7074,
      "ĠLook": 7075,
      "Ġquit": 7076,
      "Ġjail": 7077,
      "dex": 7078,
      "tlhe": 7079,
      "Ġfoor": 7080,
      "ervices": 7081,
      "AND": 7082,
      "ĠSpac": 7083,
      "echnology": 7084,
      "ĠScot": 7085,
      "Ġwhether": 7086,
      "ĠSaturd": 7087,
      "ĠLabor": 7088,
      "300": 7089,
      ";~": 7090,
      "Ln": 7091,
      "Nor": 7092,
      "Oa": 7093,
      "home": 7094,
      "jured": 7095,
      "main": 7096,
      "market": 7097,
      "ĠaD": 7098,
      "Ġaco": 7099,
      "once": 7100,
      "itte": 7101,
      "Ġpv": 7102,
      "etc": 7103,
      "ĠSBC": 7104,
      "ĠTak": 7105,
      "ĠTiger": 7106,
      "Ġthough": 7107,
      "ĠNatio": 7108,
      "ĠLI": 7109,
      "ively": 7110,
      "aba": 7111,
      "aven": 7112,
      "ourc": 7113,
      "Ġfirms": 7114,
      "Ġtiat": 7115,
      "Ġcoming": 7116,
      "fied": 7117,
      "Ġraised": 7118,
      "Ġmili": 7119,
      "Ġinjured": 7120,
      "iplom": 7121,
      "53": 7122,
      "Cha": 7123,
      "Sat": 7124,
      "Wal": 7125,
      "XP": 7126,
      "die": 7127,
      "fen": 7128,
      "hnt": 7129,
      "lof": 7130,
      "lai": 7131,
      "tir": 7132,
      "uee": 7133,
      "Ġsra": 7134,
      "Ġsll": 7135,
      "Ġiday": 7136,
      "arin": 7137,
      "stry": 7138,
      "Ġdate": 7139,
      "ĠIL": 7140,
      "ĠAS": 7141,
      "ĠCall": 7142,
      "left": 7143,
      "ĠMov": 7144,
      "amy": 7145,
      "ĠFlo": 7146,
      "Ġvit": 7147,
      "ĠHt": 7148,
      "bean": 7149,
      "ivn": 7150,
      "ivity": 7151,
      "ulr": 7152,
      "ability": 7153,
      "peo": 7154,
      "ober": 7155,
      "coach": 7156,
      "ĠInv": 7157,
      "deo": 7158,
      "wsuit": 7159,
      "Ġraise": 7160,
      "Ġfix": 7161,
      "Ġbui": 7162,
      "perts": 7163,
      "Ġpoor": 7164,
      "Ġleague": 7165,
      "Ġpolit": 7166,
      "ketball": 7167,
      "xpect": 7168,
      "Ġmorning": 7169,
      "ĠSteve": 7170,
      "FullQ": 7171,
      "Ġvicto": 7172,
      "ĠIslam": 7173,
      "Ġforeign": 7174,
      "Ġexecutive": 7175,
      "Cn": 7176,
      "iN": 7177,
      "mand": 7178,
      "Ġtell": 7179,
      "Ġaun": 7180,
      "ĠoT": 7181,
      "oral": 7182,
      "Ġrnd": 7183,
      "itors": 7184,
      "Ġnov": 7185,
      "stop": 7186,
      "Ġwet": 7187,
      "Ġdies": 7188,
      "ĠSingh": 7189,
      "elI": 7190,
      "report": 7191,
      "ĠIu": 7192,
      "leb": 7193,
      "ouc": 7194,
      "igne": 7195,
      "ĠNs": 7196,
      "uso": 7197,
      "uset": 7198,
      "users": 7199,
      "Ġance": 7200,
      "chs": 7201,
      "chief": 7202,
      "hter": 7203,
      "Ġitis": 7204,
      "lsa": 7205,
      "ompan": 7206,
      "Ġleade": 7207,
      "rning": 7208,
      "onda": 7209,
      "profit": 7210,
      "flict": 7211,
      "Ġtrip": 7212,
      "ĠJapanese": 7213,
      "ĠCrude": 7214,
      "Ġothers": 7215,
      "Ġbenef": 7216,
      "Ġproducts": 7217,
      "fing": 7218,
      "gar": 7219,
      "light": 7220,
      "tte": 7221,
      "Ġsne": 7222,
      "only": 7223,
      "edI": 7224,
      "Ġews": 7225,
      "Ġhouse": 7226,
      "ĠSusp": 7227,
      "rog": 7228,
      "ĠBir": 7229,
      "ĠBow": 7230,
      "Ġush": 7231,
      "ieis": 7232,
      "ental": 7233,
      "ĠFund": 7234,
      "usa": 7235,
      "usb": 7236,
      "cht": 7237,
      "agr": 7238,
      "lib": 7239,
      "abor": 7240,
      "nces": 7241,
      "arta": 7242,
      "ubled": 7243,
      "antd": 7244,
      "Ġnewsp": 7245,
      "phon": 7246,
      "Ġserver": 7247,
      "ĠPalm": 7248,
      "ĠGeorg": 7249,
      "ĠYukos": 7250,
      "Par": 7251,
      "fet": 7252,
      "nation": 7253,
      "oif": 7254,
      "pop": 7255,
      "tay": 7256,
      "xpe": 7257,
      "ĠrL": 7258,
      "edia": 7259,
      "Ġcorp": 7260,
      "iters": 7261,
      "Ġely": 7262,
      "ĠnW": 7263,
      "Ġwater": 7264,
      "Ġdip": 7265,
      "Ġmuc": 7266,
      "ĠSim": 7267,
      "ĠSant": 7268,
      "ropean": 7269,
      "Ġofc": 7270,
      "ĠMadrid": 7271,
      "ĠBrow": 7272,
      "eav": 7273,
      "ldi": 7274,
      "mpa": 7275,
      "ovo": 7276,
      "Ġchie": 7277,
      "deay": 7278,
      "Ġspend": 7279,
      "nline": 7280,
      "ounded": 7281,
      "Ġaccount": 7282,
      "Ġdefeat": 7283,
      "Ġtimes": 7284,
      "Ġmember": 7285,
      "Ġhuge": 7286,
      "Ġrules": 7287,
      "ĠBAGHDAD": 7288,
      "May": 7289,
      "\\'": 7290,
      "bto": 7291,
      "lig": 7292,
      "mers": 7293,
      "ract": 7294,
      "uic": 7295,
      "ĠtN": 7296,
      "Ġtear": 7297,
      "Ġtwe": 7298,
      "Ġood": 7299,
      "arial": 7300,
      "Ġcoo": 7301,
      "Ġfic": 7302,
      "Ġbm": 7303,
      "Ġmini": 7304,
      "Ġints": 7305,
      "uthe": 7306,
      "urance": 7307,
      "ĠCur": 7308,
      "ĠPra": 7309,
      "ĠPric": 7310,
      "igher": 7311,
      "ieved": 7312,
      "iaI": 7313,
      "Ġanad": 7314,
      "ĠGri": 7315,
      "ĠHom": 7316,
      "ĠLeg": 7317,
      "unning": 7318,
      "Ġreas": 7319,
      "ques": 7320,
      "agen": 7321,
      "emi": 7322,
      "emt": 7323,
      "Ġko": 7324,
      "gtt": 7325,
      "Ġshr": 7326,
      "ailer": 7327,
      "foot": 7328,
      "rror": 7329,
      "Ġcrash": 7330,
      "Ġbox": 7331,
      "Ġflight": 7332,
      "Ġannual": 7333,
      "Ġdecision": 7334,
      "Ġminister": 7335,
      "ĠFood": 7336,
      "Ġhostage": 7337,
      "know": 7338,
      "ĠParis": 7339,
      "Oct": 7340,
      "UM": 7341,
      "best": 7342,
      "dp": 7343,
      "dic": 7344,
      "fot": 7345,
      "kel": 7346,
      "tth": 7347,
      "ĠoA": 7348,
      "Ġoas": 7349,
      "hell": 7350,
      "enet": 7351,
      "Ġrod": 7352,
      "Ġcode": 7353,
      "Ġfigh": 7354,
      "Ġfifth": 7355,
      "Ġwei": 7356,
      "etnt": 7357,
      "elds": 7358,
      "Ġgri": 7359,
      "ĠPT": 7360,
      "ieed": 7361,
      "ĠWI": 7362,
      "ĠOT": 7363,
      "ĠEli": 7364,
      "estic": 7365,
      "ĠHD": 7366,
      "unce": 7367,
      "ocl": 7368,
      "Ġkille": 7369,
      "uling": 7370,
      "uma": 7371,
      "abn": 7372,
      "coe": 7373,
      "Ġups": 7374,
      "Ġ76": 7375,
      "Ġhiis": 7376,
      "ĠAfrican": 7377,
      "Ġleave": 7378,
      "Ġ\\\\": 7379,
      "ĠOlym": 7380,
      "ĠLeag": 7381,
      "94": 7382,
      "CEO": 7383,
      "Flor": 7384,
      "Iter": 7385,
      "iD": 7386,
      "killed": 7387,
      "late": 7388,
      "nay": 7389,
      "sign": 7390,
      "uid": 7391,
      "yed": 7392,
      "Ġtii": 7393,
      "Ġtive": 7394,
      "ĠaIn": 7395,
      "ĠsW": 7396,
      "Ġsoi": 7397,
      "ĠsIt": 7398,
      "onst": 7399,
      "aned": 7400,
      "orse": 7401,
      "ĠrW": 7402,
      "Ġnatio": 7403,
      "stin": 7404,
      "Ġplo": 7405,
      "ilv": 7406,
      "ĠSom": 7407,
      "ĠTht": 7408,
      "otal": 7409,
      "adio": 7410,
      "ĠPales": 7411,
      "ĠPGA": 7412,
      "ĠBE": 7413,
      "ĠWAS": 7414,
      "ĠWireless": 7415,
      "ĠNations": 7416,
      "tew": 7417,
      "ĠandI": 7418,
      "estr": 7419,
      "avt": 7420,
      "ueh": 7421,
      "trac": 7422,
      "elled": 7423,
      "Ġtrading": 7424,
      ".,.": 7425,
      "Ġsuit": 7426,
      "Ġsupply": 7427,
      "Ġtroop": 7428,
      "Ġprofits": 7429,
      "ĠPeopleSoft": 7430,
      "Ġalleged": 7431,
      "rP": 7432,
      "rve": 7433,
      "Ġsip": 7434,
      "Ġiee": 7435,
      "arp": 7436,
      "Ġeme": 7437,
      "Ġnol": 7438,
      "Ġwol": 7439,
      "Ġhof": 7440,
      "ĠScient": 7441,
      "ĠTv": 7442,
      "ĠPed": 7443,
      "ĠPrices": 7444,
      "ĠuP": 7445,
      "amer": 7446,
      "ĠWon": 7447,
      "ĠRef": 7448,
      "ntion": 7449,
      "aib": 7450,
      "ĠJean": 7451,
      "ĠThee": 7452,
      "tral": 7453,
      "ĠVene": 7454,
      "peal": 7455,
      "Ġchal": 7456,
      "ĠChampion": 7457,
      "ellig": 7458,
      "Ġ38": 7459,
      "erna": 7460,
      "Ġfoer": 7461,
      "Ġclim": 7462,
      "Ġ99": 7463,
      "also": 7464,
      "Ġsecu": 7465,
      "eleas": 7466,
      "rcent": 7467,
      "Ġindus": 7468,
      "ĠQue": 7469,
      "Unit": 7470,
      "Ġgiven": 7471,
      ";...": 7472,
      "Iday": 7473,
      "Tue": 7474,
      "blo": 7475,
      "gets": 7476,
      "iL": 7477,
      "lir": 7478,
      "nies": 7479,
      "oas": 7480,
      "tly": 7481,
      "tors": 7482,
      "Ġtew": 7483,
      "ĠtIe": 7484,
      "inq": 7485,
      "ĠsL": 7486,
      "Ġory": 7487,
      "Ġira": 7488,
      "Ġico": 7489,
      "Ġcil": 7490,
      "Ġcted": 7491,
      "Ġlbe": 7492,
      "Ġfli": 7493,
      "Ġbos": 7494,
      "Ġpany": 7495,
      "ĠAC": 7496,
      "ĠAz": 7497,
      "ieu": 7498,
      "toc": 7499,
      "ĠFP": 7500,
      "ĠGas": 7501,
      "esta": 7502,
      "ĠHon": 7503,
      "ĠLs": 7504,
      "ĠLON": 7505,
      "hti": 7506,
      "hool": 7507,
      "Ġorm": 7508,
      "ĠYe": 7509,
      "atiion": 7510,
      "Ġrese": 7511,
      "Ġwinn": 7512,
      "offer": 7513,
      "Ġcolor": 7514,
      "Ġcenter": 7515,
      "Ġstraight": 7516,
      "ĠUtah": 7517,
      "ĠNovember": 7518,
      "ĠChicago": 7519,
      "MT": 7520,
      "Sd": 7521,
      "Tn": 7522,
      "bst": 7523,
      "bra": 7524,
      "iR": 7525,
      "iam": 7526,
      "lac": 7527,
      "made": 7528,
      "Ġtig": 7529,
      "Ġtrt": 7530,
      "Ġiz": 7531,
      "Ġcial": 7532,
      "Ġlem": 7533,
      "Ġeap": 7534,
      "ĠnB": 7535,
      "Ġbio": 7536,
      "Ġbae": 7537,
      "Ġmig": 7538,
      "ĠSof": 7539,
      "ĠBlo": 7540,
      "ersh": 7541,
      "teer": 7542,
      "ĠEas": 7543,
      "aiin": 7544,
      "Ġassa": 7545,
      "iied": 7546,
      "ĠThere": 7547,
      "Ġplac": 7548,
      "bert": 7549,
      "ĠItalian": 7550,
      "Ġidn": 7551,
      "Ġunde": 7552,
      "Ġbusi": 7553,
      "Ġtravel": 7554,
      "ĠAirways": 7555,
      "unched": 7556,
      "Ġmoved": 7557,
      "Ġinjury": 7558,
      "ĠChinese": 7559,
      "='": 7560,
      "aj": 7561,
      "aat": 7562,
      "billion": 7563,
      "rise": 7564,
      "Ġsop": 7565,
      "Ġsud": 7566,
      "Ġsma": 7567,
      "Ġoer": 7568,
      "Ġoot": 7569,
      "Ġohn": 7570,
      "heo": 7571,
      "onic": 7572,
      "Ġims": 7573,
      "Ġcts": 7574,
      "Ġloe": 7575,
      "Ġelt": 7576,
      "Ġbow": 7577,
      "Ġbul": 7578,
      "Ġwll": 7579,
      "Ġpec": 7580,
      "Ġhid": 7581,
      "Ġhurt": 7582,
      "ĠSub": 7583,
      "ingI": 7584,
      "ĠArr": 7585,
      "ndia": 7586,
      "idents": 7587,
      "omt": 7588,
      "Ġgir": 7589,
      "thn": 7590,
      "ĠRE": 7591,
      "teed": 7592,
      "iok": 7593,
      "ĠLl": 7594,
      "Ġatte": 7595,
      "seo": 7596,
      "thes": 7597,
      "aif": 7598,
      "aih": 7599,
      "Ġkick": 7600,
      "ĠKey": 7601,
      "Ġends": 7602,
      "Ġbyi": 7603,
      "Ġseaso": 7604,
      "tax": 7605,
      "Ġroom": 7606,
      "Ġearlier": 7607,
      "Ġwiti": 7608,
      "ĠMajor": 7609,
      "atches": 7610,
      "Ġoperat": 7611,
      "Ġnucle": 7612,
      "Ġwoman": 7613,
      "Ġdrugs": 7614,
      "ĠSharon": 7615,
      "ĠTurk": 7616,
      "Ġwibh": 7617,
      "600": 7618,
      "Lr": 7619,
      "MO": 7620,
      "bri": 7621,
      "dea": 7622,
      "fra": 7623,
      "fli": 7624,
      "gel": 7625,
      "iIn": 7626,
      "wc": 7627,
      "Ġtts": 7628,
      "Ġsii": 7629,
      "Ġows": 7630,
      "ĠiIs": 7631,
      "Ġicon": 7632,
      "Ġroo": 7633,
      "arh": 7634,
      "Ġlae": 7635,
      "Ġfio": 7636,
      "Ġfier": 7637,
      "Ġdru": 7638,
      "Ġmel": 7639,
      "ashe": 7640,
      "iders": 7641,
      "least": 7642,
      "ecb": 7643,
      "ĠPho": 7644,
      "ĠPhi": 7645,
      "ĠBon": 7646,
      "ĠRO": 7647,
      "tep": 7648,
      "ntg": 7649,
      "eeh": 7650,
      "iau": 7651,
      "ĠOR": 7652,
      "teri": 7653,
      "ĠJames": 7654,
      "eare": 7655,
      "ifl": 7656,
      "ĠKong": 7657,
      "ĠYasser": 7658,
      "ampions": 7659,
      "Ġwait": 7660,
      "Ġaccused": 7661,
      "ĠMinis": 7662,
      "Ġguard": 7663,
      "900": 7664,
      "Iion": 7665,
      "Ko": 7666,
      "dol": 7667,
      "fv": 7668,
      "Ġtam": 7669,
      "Ġsald": 7670,
      "esto": 7671,
      "oner": 7672,
      "anm": 7673,
      "Ġrio": 7674,
      "Ġroe": 7675,
      "Ġroa": 7676,
      "ĠfOr": 7677,
      "Ġeft": 7678,
      "Ġnfor": 7679,
      "Ġhunt": 7680,
      "isin": 7681,
      "ĠTE": 7682,
      "Ġ.&": 7683,
      "iear": 7684,
      "Ġ',": 7685,
      "osday": 7686,
      "quic": 7687,
      "ĠJac": 7688,
      "apa": 7689,
      "eart": 7690,
      "essor": 7691,
      "istry": 7692,
      "ĠKing": 7693,
      "Ġalong": 7694,
      "Ġadded": 7695,
      "rali": 7696,
      "Stat": 7697,
      "Ġsuper": 7698,
      "Ġstem": 7699,
      "velop": 7700,
      "Ġtdhe": 7701,
      "ĠIsrae": 7702,
      "ĠGoogl": 7703,
      "Ġthroug": 7704,
      "Ġlevel": 7705,
      "Ġavoid": 7706,
      "64": 7707,
      "?-": 7708,
      "Dt": 7709,
      "Sm": 7710,
      "nid": 7711,
      "nly": 7712,
      "pel": 7713,
      "qe": 7714,
      "rng": 7715,
      "right": 7716,
      "some": 7717,
      "vir": 7718,
      "xas": 7719,
      "~;": 7720,
      "Ġaward": 7721,
      "Ġsure": 7722,
      "ento": 7723,
      "Ġrights": 7724,
      "Ġlne": 7725,
      "Ġfsr": 7726,
      "ĠeR": 7727,
      "Ġbud": 7728,
      "Ġbiy": 7729,
      "Ġtothe": 7730,
      "ĠCubs": 7731,
      "ĠMir": 7732,
      "Ġged": 7733,
      "Ġgoo": 7734,
      "usd": 7735,
      "eew": 7736,
      "Ġ(,": 7737,
      "ĠGol": 7738,
      "Ġates": 7739,
      "quir": 7740,
      "emn": 7741,
      "hour": 7742,
      "ssed": 7743,
      "Ġenl": 7744,
      "Ġprofi": 7745,
      "ucc": 7746,
      "Ġcoac": 7747,
      "ogs": 7748,
      "ahs": 7749,
      "oya": 7750,
      "dtay": 7751,
      "Ġwilll": 7752,
      "Ġopening": 7753,
      "second": 7754,
      ",--": 7755,
      "33": 7756,
      "Comp": 7757,
      "Mt": 7758,
      "PR": 7759,
      "bom": 7760,
      "core": 7761,
      "jobs": 7762,
      "pf": 7763,
      "vb": 7764,
      "yb": 7765,
      "Ġttr": 7766,
      "inning": 7767,
      "ĠaW": 7768,
      "Ġsoe": 7769,
      "ĠiThe": 7770,
      "Ġpon": 7771,
      "Ġdle": 7772,
      "ĠSev": 7773,
      "elly": 7774,
      "ĠIand": 7775,
      "ĠIrn": 7776,
      "idy": 7777,
      "oser": 7778,
      "ĠNint": 7779,
      "entr": 7780,
      "tey": 7781,
      "ĠUnd": 7782,
      "ĠDame": 7783,
      "iout": 7784,
      "Ġstil": 7785,
      "lder": 7786,
      "sear": 7787,
      "eial": 7788,
      "Ġerr": 7789,
      "ĠThei": 7790,
      "Ġalm": 7791,
      "coi": 7792,
      "Ġ;-": 7793,
      "Ġ:-": 7794,
      "ully": 7795,
      "phins": 7796,
      "Ġterr": 7797,
      "atlon": 7798,
      "Ġinterest": 7799,
      "Ġground": 7800,
      "Ġcheck": 7801,
      "ĠHouston": 7802,
      ".\\\\": 7803,
      "BR": 7804,
      "Fin": 7805,
      "Sw": 7806,
      "cue": 7807,
      "gai": 7808,
      "gov": 7809,
      "oct": 7810,
      "oks": 7811,
      "pend": 7812,
      "Ġoul": 7813,
      "ĠlE": 7814,
      "ĠlJ": 7815,
      "Ġnil": 7816,
      "sting": 7817,
      "Ġhii": 7818,
      "Ġdot": 7819,
      "ĠSot": 7820,
      "ĠAR": 7821,
      "ĠTou": 7822,
      "idon": 7823,
      "omr": 7824,
      "Ġugh": 7825,
      "igin": 7826,
      "ĠWn": 7827,
      "ĠNn": 7828,
      "usion": 7829,
      "ĠDt": 7830,
      "ĠDead": 7831,
      "Ġvon": 7832,
      "iman": 7833,
      "ĠHoll": 7834,
      "Ġitts": 7835,
      "Ġenough": 7836,
      "tien": 7837,
      "Ġjet": 7838,
      "ĠStrip": 7839,
      "berg": 7840,
      "Ġute": 7841,
      "Ġphot": 7842,
      "Ġcontrol": 7843,
      "ĠLeagu": 7844,
      "Ġpubl": 7845,
      "ĠPolice": 7846,
      "(-": 7847,
      "44": 7848,
      "98": 7849,
      "Ild": 7850,
      "PO": 7851,
      "dg": 7852,
      "lne": 7853,
      "oie": 7854,
      "sic": 7855,
      "tlo": 7856,
      "vas": 7857,
      "wb": 7858,
      "Ġams": 7859,
      "ĠrN": 7860,
      "Ġwos": 7861,
      "Ġpaid": 7862,
      "Ġdos": 7863,
      "iser": 7864,
      "urers": 7865,
      "temb": 7866,
      "ĠDl": 7867,
      "iail": 7868,
      "Ġyt": 7869,
      "unr": 7870,
      "rso": 7871,
      "ewn": 7872,
      "ĠJeff": 7873,
      "before": 7874,
      "Ġbefo": 7875,
      "ssa": 7876,
      "obal": 7877,
      "Ġhase": 7878,
      "iteh": 7879,
      "iction": 7880,
      "Ġ2000": 7881,
      "iscal": 7882,
      "Ġyoung": 7883,
      "Yan": 7884,
      "aL": 7885,
      "ious": 7886,
      "nnd": 7887,
      "pub": 7888,
      "qr": 7889,
      "rion": 7890,
      "sha": 7891,
      "tory": 7892,
      "wou": 7893,
      "zn": 7894,
      "Ġsoo": 7895,
      "Ġiad": 7896,
      "anf": 7897,
      "Ġraf": 7898,
      "Ġcnt": 7899,
      "itts": 7900,
      "Ġelo": 7901,
      "alin": 7902,
      "ĠnH": 7903,
      "Ġwoi": 7904,
      "Ġdio": 7905,
      "etf": 7906,
      "ĠSar": 7907,
      "elle": 7908,
      "idng": 7909,
      "irts": 7910,
      "ĠMost": 7911,
      "ĠMary": 7912,
      "ĠBea": 7913,
      "osb": 7914,
      "eeo": 7915,
      "ĠDI": 7916,
      "ĠDro": 7917,
      "ĠanI": 7918,
      "sef": 7919,
      "nef": 7920,
      "nem": 7921,
      "agreed": 7922,
      "tery": 7923,
      "ĠJudge": 7924,
      "nso": 7925,
      "ĠKev": 7926,
      "ĠThs": 7927,
      "ĠThie": 7928,
      "ĠStudy": 7929,
      "Ġoffering": 7930,
      "itional": 7931,
      "ĠSunda": 7932,
      "ĠAustr": 7933,
      "EST": 7934,
      "Ġconsum": 7935,
      "League": 7936,
      "ĠGlobal": 7937,
      ",#": 7938,
      "DVD": 7939,
      "Exp": 7940,
      "Pod": 7941,
      "Vs": 7942,
      "dra": 7943,
      "equ": 7944,
      "eks": 7945,
      "file": 7946,
      "giant": 7947,
      "lnt": 7948,
      "lest": 7949,
      "esrs": 7950,
      "Ġiac": 7951,
      "Ġcet": 7952,
      "Ġdw": 7953,
      "asm": 7954,
      "ĠIst": 7955,
      "oled": 7956,
      "olid": 7957,
      "Ġgat": 7958,
      "ĠPau": 7959,
      "Ġonlin": 7960,
      "ersn": 7961,
      "ĠRay": 7962,
      "ĠFoo": 7963,
      "ĠFDA": 7964,
      "usin": 7965,
      "ĠEmb": 7966,
      "ĠHug": 7967,
      "Ġstates": 7968,
      "Ġreo": 7969,
      "thel": 7970,
      "emo": 7971,
      "iane": 7972,
      "Ġsever": 7973,
      "ĠChip": 7974,
      "onduct": 7975,
      "clu": 7976,
      "ihng": 7977,
      "ahy": 7978,
      "aIy": 7979,
      "Ġwitl": 7980,
      "Ġprime": 7981,
      "ĠPalestinian": 7982,
      "Ġsites": 7983,
      "Ġdelay": 7984,
      "Ġinvestors": 7985,
      "Ġsigns": 7986,
      "Ġconcern": 7987,
      "Ah": 7988,
      "Ow": 7989,
      "Sen": 7990,
      "bion": 7991,
      "bomb": 7992,
      "hro": 7993,
      "jng": 7994,
      "speed": 7995,
      "Ġtent": 7996,
      "Ġtme": 7997,
      "Ġsq": 7998,
      "Ġora": 7999,
      "Ġiid": 8000,
      "Ġcth": 8001,
      "Ġlk": 8002,
      "Ġlest": 8003,
      "Ġlled": 8004,
      "ĠSab": 8005,
      "ĠIit": 8006,
      "ĠPeo": 8007,
      "Ġuin": 8008,
      "ĠRK": 8009,
      "ĠRese": 8010,
      "ĠOrl": 8011,
      "imore": 8012,
      "ĠHall": 8013,
      "ĠHead": 8014,
      "Ġstores": 8015,
      "Ġasnd": 8016,
      "isth": 8017,
      "ulp": 8018,
      "sson": 8019,
      "former": 8020,
      "ĠsaId": 8021,
      "evelop": 8022,
      "Ġ300": 8023,
      "Ġllion": 8024,
      "build": 8025,
      "Ġimpro": 8026,
      "Ġlink": 8027,
      "Ġsaiid": 8028,
      "mitted": 8029,
      "ĠBagh": 8030,
      "FullQu": 8031,
      "Ġradio": 8032,
      "ĠService": 8033,
      "President": 8034,
      "Prime": 8035,
      "Ec": 8036,
      "Joh": 8037,
      "Year": 8038,
      "bng": 8039,
      "dri": 8040,
      "eing": 8041,
      "fers": 8042,
      "hne": 8043,
      "iut": 8044,
      "iate": 8045,
      "jl": 8046,
      "tack": 8047,
      "iners": 8048,
      "Ġala": 8049,
      "Ġsro": 8050,
      "ĠoC": 8051,
      "ennt": 8052,
      "Ġlir": 8053,
      "Ġlov": 8054,
      "Ġeec": 8055,
      "Ġnort": 8056,
      "Ġdeep": 8057,
      "icro": 8058,
      "Ġindu": 8059,
      "ĠAU": 8060,
      "ĠCri": 8061,
      "irac": 8062,
      "Ġgal": 8063,
      "ĠPrl": 8064,
      "ĠBonds": 8065,
      "thin": 8066,
      "ĠNC": 8067,
      "ĠRI": 8068,
      "ĠFO": 8069,
      "riy": 8070,
      "ĠGn": 8071,
      "Ġforn": 8072,
      "Ġked": 8073,
      "Ġence": 8074,
      "Ġshows": 8075,
      "Ġarc": 8076,
      "Ġquarte": 8077,
      "dsay": 8078,
      "clh": 8079,
      "cles": 8080,
      "enses": 8081,
      "Ġcomes": 8082,
      "Ġuto": 8083,
      "Ġuthe": 8084,
      "Ġcrisis": 8085,
      "flu": 8086,
      "Ġbusines": 8087,
      "Ġservi": 8088,
      "makers": 8089,
      "Ġfaces": 8090,
      "leader": 8091,
      "works": 8092,
      "Ġmerger": 8093,
      "82": 8094,
      "Spor": 8095,
      "boy": 8096,
      "court": 8097,
      "eA": 8098,
      "fight": 8099,
      "lks": 8100,
      "wir": 8101,
      "Ġoom": 8102,
      "Ġoand": 8103,
      "esI": 8104,
      "orst": 8105,
      "Ġrve": 8106,
      "Ġrae": 8107,
      "atives": 8108,
      "Ġciv": 8109,
      "Ġlew": 8110,
      "Ġfii": 8111,
      "Ġece": 8112,
      "ilh": 8113,
      "isv": 8114,
      "eters": 8115,
      "ĠSei": 8116,
      "Ġtouc": 8117,
      "ĠIni": 8118,
      "idc": 8119,
      "ĠCase": 8120,
      "eces": 8121,
      "Ġuu": 8122,
      "thern": 8123,
      "ĠFn": 8124,
      "lln": 8125,
      "Ġvel": 8126,
      "aian": 8127,
      "eared": 8128,
      "umi": 8129,
      "ĠVlad": 8130,
      "ĠStud": 8131,
      "ĠStart": 8132,
      "antic": 8133,
      "ightly": 8134,
      "hnology": 8135,
      "ickinfo": 8136,
      "tao": 8137,
      "ervic": 8138,
      "Ġ66": 8139,
      "bling": 8140,
      "ĠAfr": 8141,
      "Ġexpand": 8142,
      "Ġappar": 8143,
      "ronics": 8144,
      "Ġbusine": 8145,
      "Ġpublis": 8146,
      "Ġbanks": 8147,
      "Ġruling": 8148,
      "Ġpopular": 8149,
      "Ġfamily": 8150,
      "ĠRecord": 8151,
      "Europe": 8152,
      "istration": 8153,
      "Ġlooks": 8154,
      "ĠTaiwan": 8155,
      "Ġincrease": 8156,
      "91": 8157,
      "DO": 8158,
      "Iel": 8159,
      "PI": 8160,
      "giv": 8161,
      "hich": 8162,
      "mbe": 8163,
      "pas": 8164,
      "poi": 8165,
      "sch": 8166,
      "xa": 8167,
      "Ġze": 8168,
      "ĠaInd": 8169,
      "hec": 8170,
      "onm": 8171,
      "Ġrfor": 8172,
      "Ġeep": 8173,
      "ĠnL": 8174,
      "Ġbthe": 8175,
      "ĠhIs": 8176,
      "isan": 8177,
      "etar": 8178,
      "otic": 8179,
      "ĠFA": 8180,
      "ĠFan": 8181,
      "tef": 8182,
      "Ġyl": 8183,
      "Ġyn": 8184,
      "Ġyar": 8185,
      "iml": 8186,
      "estt": 8187,
      "ĠLen": 8188,
      "Ġstage": 8189,
      "agi": 8190,
      "aiu": 8191,
      "eway": 8192,
      "lout": 8193,
      "..,": 8194,
      "allas": 8195,
      "pple": 8196,
      "Ġcover": 8197,
      "tting": 8198,
      "ihg": 8199,
      "Ited": 8200,
      "oking": 8201,
      "noon": 8202,
      "attack": 8203,
      "ĠClub": 8204,
      "Internet": 8205,
      "ĠWood": 8206,
      "ĠGood": 8207,
      "Ġrivals": 8208,
      "Ġofficia": 8209,
      "Ġagreement": 8210,
      "Canad": 8211,
      "American": 8212,
      "97": 8213,
      "Def": 8214,
      "Game": 8215,
      "Mr": 8216,
      "dw": 8217,
      "ez": 8218,
      "gv": 8219,
      "iB": 8220,
      "hens": 8221,
      "Ġiem": 8222,
      "orI": 8223,
      "Ġcthe": 8224,
      "Ġcars": 8225,
      "itm": 8226,
      "Ġeid": 8227,
      "Ġeom": 8228,
      "Ġnle": 8229,
      "Ġplt": 8230,
      "Ġpli": 8231,
      "eton": 8232,
      "ĠSti": 8233,
      "ĠAlt": 8234,
      "ĠAraf": 8235,
      "urb": 8236,
      "urge": 8237,
      "Ġofit": 8238,
      "Ġthde": 8239,
      "olls": 8240,
      "Ġgrew": 8241,
      "ĠBC": 8242,
      "tsn": 8243,
      "ĠFCC": 8244,
      "Ġ,(": 8245,
      "ĠHn": 8246,
      "ĠHits": 8247,
      "Ġstaff": 8248,
      "iller": 8249,
      "agt": 8250,
      "earing": 8251,
      "ocs": 8252,
      "rtl": 8253,
      "rtt": 8254,
      "Ġsafe": 8255,
      "Ġerd": 8256,
      "Ġqui": 8257,
      "oiy": 8258,
      "Ġdeve": 8259,
      "ordin": 8260,
      "nlg": 8261,
      "ĠPrice": 8262,
      "apping": 8263,
      "666": 8264,
      "Ġeasy": 8265,
      "Ġstrik": 8266,
      "Ġruled": 8267,
      "Ġfollowing": 8268,
      "ĠIvory": 8269,
      "ĠDisney": 8270,
      "Ġreached": 8271,
      "&,": 8272,
      "34": 8273,
      "67": 8274,
      "DE": 8275,
      "SU": 8276,
      "cll": 8277,
      "curity": 8278,
      "fig": 8279,
      "free": 8280,
      "iun": 8281,
      "mee": 8282,
      "pil": 8283,
      "pee": 8284,
      "source": 8285,
      "tom": 8286,
      "Ġtag": 8287,
      "Ġoor": 8288,
      "Ġike": 8289,
      "Ġcai": 8290,
      "Ġfonr": 8291,
      "Ġboe": 8292,
      "Ġwhn": 8293,
      "Ġhims": 8294,
      "etm": 8295,
      "ĠCell": 8296,
      "ecks": 8297,
      "olin": 8298,
      "amd": 8299,
      "aming": 8300,
      "amily": 8301,
      "ĠRl": 8302,
      "teir": 8303,
      "ĠGets": 8304,
      "ĠEls": 8305,
      "ĠHamm": 8306,
      "agem": 8307,
      "ĠKil": 8308,
      "iier": 8309,
      "Ġorp": 8310,
      "Ġares": 8311,
      "ĠUSA": 8312,
      "Ġfoar": 8313,
      "Ġfront": 8314,
      "Star": 8315,
      "Thu": 8316,
      "Ġount": 8317,
      "airs": 8318,
      "Ġdefense": 8319,
      "Ġsurge": 8320,
      "Ġmobil": 8321,
      "Ġdebut": 8322,
      "Ġautom": 8323,
      "ĠSeptember": 8324,
      "ĠSmith": 8325,
      "ĠAstros": 8326,
      "ĠSprint": 8327,
      "Cal": 8328,
      "GB": 8329,
      "Pn": 8330,
      "TR": 8331,
      "ehe": 8332,
      "fp": 8333,
      "gency": 8334,
      "hse": 8335,
      "hone": 8336,
      "nlt": 8337,
      "rong": 8338,
      "tP": 8339,
      "wns": 8340,
      "xs": 8341,
      "Ġaip": 8342,
      "Ġoti": 8343,
      "Ġiir": 8344,
      "enf": 8345,
      "Ġrri": 8346,
      "Ġrge": 8347,
      "arns": 8348,
      "Ġcoe": 8349,
      "Ġnob": 8350,
      "Ġword": 8351,
      "Ġpun": 8352,
      "Ġdoe": 8353,
      "Ġmist": 8354,
      "Ġthese": 8355,
      "rows": 8356,
      "uran": 8357,
      "Ġthas": 8358,
      "ĠMod": 8359,
      "ionn": 8360,
      "ĠPil": 8361,
      "Ġusi": 8362,
      "amid": 8363,
      "ĠRoc": 8364,
      "ĠanId": 8365,
      "Ġansd": 8366,
      "ĠOe": 8367,
      "imen": 8368,
      "ĠEW": 8369,
      "andt": 8370,
      "quire": 8371,
      "apo": 8372,
      "Ġark": 8373,
      "iban": 8374,
      "Ġsport": 8375,
      "lny": 8376,
      "Ġ48": 8377,
      "Ġqn": 8378,
      "Ġami": 8379,
      "Ġ51": 8380,
      "Ġflat": 8381,
      "vestors": 8382,
      "Ġattac": 8383,
      "Ġodf": 8384,
      "Ġrising": 8385,
      "Ġfailed": 8386,
      "ĠCenter": 8387,
      "ĠArsenal": 8388,
      "ĠMerck": 8389,
      "Big": 8390,
      "Mn": 8391,
      "NL": 8392,
      "Over": 8393,
      "Sb": 8394,
      "grow": 8395,
      "hto": 8396,
      "rO": 8397,
      "rice": 8398,
      "ĠaU": 8399,
      "Ġaond": 8400,
      "erly": 8401,
      "Ġssi": 8402,
      "Ġila": 8403,
      "orne": 8404,
      "enk": 8405,
      "Ġfcr": 8406,
      "Ġwirel": 8407,
      "Ġpee": 8408,
      "Ġhss": 8409,
      "icrosoft": 8410,
      "ĠIat": 8411,
      "ĠTeh": 8412,
      "ĠColl": 8413,
      "irp": 8414,
      "osit": 8415,
      "Ġvc": 8416,
      "Ġvet": 8417,
      "ĠOb": 8418,
      "agers": 8419,
      "appo": 8420,
      "istic": 8421,
      "nco": 8422,
      "meet": 8423,
      "ucial": 8424,
      "Ġchance": 8425,
      "Ġaren": 8426,
      "Ġseid": 8427,
      "ansion": 8428,
      "Ġwhose": 8429,
      "ghts": 8430,
      "Ġgoes": 8431,
      "rgest": 8432,
      "Ġ55": 8433,
      "Ġ2002": 8434,
      "Ġtbhe": 8435,
      "Ġ89": 8436,
      "ussia": 8437,
      "ĠPreside": 8438,
      "ĠPresiden": 8439,
      "inued": 8440,
      "Ġfilm": 8441,
      "ilities": 8442,
      "ĠEngl": 8443,
      "Ġmillio": 8444,
      "ĠWednesda": 8445,
      "Ġrebels": 8446,
      ",..": 8447,
      "Lin": 8448,
      "Octo": 8449,
      "Tech": 8450,
      "did": 8451,
      "jet": 8452,
      "som": 8453,
      "vst": 8454,
      "yc": 8455,
      "Ġtthat": 8456,
      "ĠaE": 8457,
      "Ġaor": 8458,
      "Ġois": 8459,
      "Ġiig": 8460,
      "Ġiie": 8461,
      "Ġiev": 8462,
      "Ġists": 8463,
      "Ġlrom": 8464,
      "Ġfrt": 8465,
      "Ġfine": 8466,
      "Ġfrr": 8467,
      "Ġnia": 8468,
      "ilion": 8469,
      "elar": 8470,
      "reI": 8471,
      "utc": 8472,
      "ĠAsi": 8473,
      "ĠTar": 8474,
      "Ġthink": 8475,
      "ĠMou": 8476,
      "thle": 8477,
      "amin": 8478,
      "iage": 8479,
      "Ġanh": 8480,
      "Ġandh": 8481,
      "Ġforme": 8482,
      "lda": 8483,
      "rsa": 8484,
      "bef": 8485,
      "uper": 8486,
      "Ġkes": 8487,
      "oogle": 8488,
      "Ġpris": 8489,
      "uste": 8490,
      "Ġalth": 8491,
      "ibi": 8492,
      "ples": 8493,
      "tlh": 8494,
      "close": 8495,
      "ighs": 8496,
      "rged": 8497,
      "Ġtlat": 8498,
      "Ġurt": 8499,
      "Ġefforts": 8500,
      "Ġwinter": 8501,
      "Ġstoc": 8502,
      "iefs": 8503,
      "Ġblack": 8504,
      "ĠPresi": 8505,
      "ĠBeat": 8506,
      "Ġinjur": 8507,
      "gener": 8508,
      "ĠHoward": 8509,
      "Ġcharged": 8510,
      "Ġdollars": 8511,
      "ocratic": 8512,
      "'\\": 8513,
      ",(": 8514,
      "Card": 8515,
      "HREF": 8516,
      "Pat": 8517,
      "bir": 8518,
      "hursday": 8519,
      "pv": 8520,
      "prs": 8521,
      "rA": 8522,
      "rket": 8523,
      "Ġtdo": 8524,
      "Ġtarge": 8525,
      "ĠoM": 8526,
      "enI": 8527,
      "Ġrab": 8528,
      "Ġcp": 8529,
      "Ġfrem": 8530,
      "Ġeomp": 8531,
      "Ġbof": 8532,
      "Ġpurs": 8533,
      "Ġhang": 8534,
      "Ġdar": 8535,
      "etch": 8536,
      "ĠSac": 8537,
      "ĠTenn": 8538,
      "urk": 8539,
      "ĠCai": 8540,
      "ĠClo": 8541,
      "Ġthfe": 8542,
      "ouf": 8543,
      "ĠBell": 8544,
      "erso": 8545,
      "ĠRat": 8546,
      "teb": 8547,
      "tev": 8548,
      "Ġando": 8549,
      "ioes": 8550,
      "ĠLan": 8551,
      "Ġforthe": 8552,
      "Ġregi": 8553,
      "odu": 8554,
      "earn": 8555,
      "ivel": 8556,
      "upe": 8557,
      "ategy": 8558,
      "Ġents": 8559,
      "mpion": 8560,
      "Ġarms": 8561,
      "ĠStadium": 8562,
      "share": 8563,
      "oire": 8564,
      "irect": 8565,
      "Ġsecurit": 8566,
      "aching": 8567,
      "eleased": 8568,
      "iza": 8569,
      "Ġcause": 8570,
      "ĠShow": 8571,
      "ologies": 8572,
      "Ġknee": 8573,
      "Ġhomes": 8574,
      "ĠThursda": 8575,
      "ĠWilliams": 8576,
      "Chi": 8577,
      "Fac": 8578,
      "FON": 8579,
      "Ick": 8580,
      "Kerry": 8581,
      "Saturday": 8582,
      "VP": 8583,
      "aic": 8584,
      "backs": 8585,
      "dre": 8586,
      "ease": 8587,
      "eason": 8588,
      "fhe": 8589,
      "house": 8590,
      "kd": 8591,
      "nme": 8592,
      "ohe": 8593,
      "sis": 8594,
      "Ġtut": 8595,
      "Ġtend": 8596,
      "Ġaar": 8597,
      "erin": 8598,
      "Ġscho": 8599,
      "Ġiby": 8600,
      "oris": 8601,
      "Ġrim": 8602,
      "Ġrall": 8603,
      "ĠeE": 8604,
      "alb": 8605,
      "Ġbull": 8606,
      "Ġphe": 8607,
      "Ġhalt": 8608,
      "Ġ-\"": 8609,
      "Ġ-\\$": 8610,
      "Ġmail": 8611,
      "ĠSpe": 8612,
      "olp": 8613,
      "Ġgest": 8614,
      "ĠParty": 8615,
      "ĠNas": 8616,
      "ĠRom": 8617,
      "nton": 8618,
      "Ġvthe": 8619,
      "ĠGI": 8620,
      "ĠEnron": 8621,
      "Ġstron": 8622,
      "unts": 8623,
      "aied": 8624,
      "rting": 8625,
      "ĠKh": 8626,
      "forms": 8627,
      "avo": 8628,
      "Ġprl": 8629,
      "Ġchain": 8630,
      "Ġacce": 8631,
      "unde": 8632,
      "tty": 8633,
      "print": 8634,
      "ordi": 8635,
      "Ition": 8636,
      "uesd": 8637,
      "Ġopt": 8638,
      "Ġsca": 8639,
      "expec": 8640,
      "iuot": 8641,
      "Ġamb": 8642,
      "Ġurn": 8643,
      "Ġtnh": 8644,
      "incg": 8645,
      "Ġpolicy": 8646,
      "Ġtrain": 8647,
      "ĠBritis": 8648,
      "rvice": 8649,
      "Ġtfhe": 8650,
      "Ġtakeover": 8651,
      "Ġtuhe": 8652,
      "sym": 8653,
      "ĠDemoc": 8654,
      "Ġlabor": 8655,
      "Ġcritic": 8656,
      "03": 8657,
      "800": 8658,
      "IR": 8659,
      "Two": 8660,
      "aee": 8661,
      "draw": 8662,
      "fts": 8663,
      "few": 8664,
      "iand": 8665,
      "jd": 8666,
      "lR": 8667,
      "sou": 8668,
      "slt": 8669,
      "tia": 8670,
      "vot": 8671,
      "wy": 8672,
      "Ġtrom": 8673,
      "Ġaal": 8674,
      "Ġaus": 8675,
      "ĠoD": 8676,
      "ĠoW": 8677,
      "anI": 8678,
      "ednesday": 8679,
      "Ġlii": 8680,
      "ĠfIr": 8681,
      "ĠnR": 8682,
      "Ġbett": 8683,
      "Ġhing": 8684,
      "Ġdil": 8685,
      "ĠSystems": 8686,
      "roops": 8687,
      "Ġinth": 8688,
      "ĠAla": 8689,
      "ayl": 8690,
      "ĠToo": 8691,
      "ĠCuts": 8692,
      "olle": 8693,
      "ĠPoll": 8694,
      "Ġuch": 8695,
      "ersr": 8696,
      "tov": 8697,
      "ofa": 8698,
      "ĠEe": 8699,
      "lton": 8700,
      "sev": 8701,
      "ngh": 8702,
      "ngr": 8703,
      "quarte": 8704,
      "liament": 8705,
      "ifts": 8706,
      "uda": 8707,
      "peop": 8708,
      "tted": 8709,
      "Ġfinancial": 8710,
      "athon": 8711,
      "ERS": 8712,
      "Ġsurvey": 8713,
      "Ġparts": 8714,
      "Ġfiles": 8715,
      "fullq": 8716,
      "ĠTax": 8717,
      "ĠTihe": 8718,
      "ĠTOK": 8719,
      "ĠAustralian": 8720,
      "Ġprovide": 8721,
      "ĠOlympics": 8722,
      "Ġrevenue": 8723,
      "ĠBoeing": 8724,
      "02": 8725,
      "Iers": 8726,
      "NI": 8727,
      "Nl": 8728,
      "bic": 8729,
      "dly": 8730,
      "gion": 8731,
      "hare": 8732,
      "nos": 8733,
      "nrs": 8734,
      "oay": 8735,
      "rrs": 8736,
      "Ġtele": 8737,
      "Ġobe": 8738,
      "esk": 8739,
      "ĠrD": 8740,
      "atee": 8741,
      "atory": 8742,
      "Ġlop": 8743,
      "Ġllo": 8744,
      "Ġnro": 8745,
      "Ġdic": 8746,
      "Ġmine": 8747,
      "ĠSad": 8748,
      "ĠCost": 8749,
      "Ġthbe": 8750,
      "ĠMilit": 8751,
      "ĠBul": 8752,
      "owns": 8753,
      "ĠOa": 8754,
      "ĠLA": 8755,
      "aiv": 8756,
      "liam": 8757,
      "ĠJet": 8758,
      "Ġited": 8759,
      "umps": 8760,
      "ucs": 8761,
      "obi": 8762,
      "ubt": 8763,
      "ĠStt": 8764,
      "ĠInl": 8765,
      "porte": 8766,
      "Ġuth": 8767,
      "minal": 8768,
      "Ġsoftwa": 8769,
      "Ġopened": 8770,
      "ĠBaghd": 8771,
      "EE": 8772,
      "Gaza": 8773,
      "Iis": 8774,
      "MD": 8775,
      "Sout": 8776,
      "dar": 8777,
      "eel": 8778,
      "gia": 8779,
      "larg": 8780,
      "oN": 8781,
      "Ġaic": 8782,
      "ĠsE": 8783,
      "Ġicr": 8784,
      "anh": 8785,
      "anon": 8786,
      "anet": 8787,
      "annd": 8788,
      "Ġrib": 8789,
      "atet": 8790,
      "Ġcti": 8791,
      "ĠlU": 8792,
      "Ġlnt": 8793,
      "itf": 8794,
      "Ġboa": 8795,
      "Ġwif": 8796,
      "Ġways": 8797,
      "Ġdone": 8798,
      "elm": 8799,
      "Ġtheu": 8800,
      "Ġinm": 8801,
      "ĠAnti": 8802,
      "Ġthve": 8803,
      "omed": 8804,
      "Ġgle": 8805,
      "ĠRal": 8806,
      "Ġstn": 8807,
      "ltion": 8808,
      "Ġhem": 8809,
      "neo": 8810,
      "emic": 8811,
      "ĠJi": 8812,
      "ĠJava": 8813,
      "isto": 8814,
      "ĠKAB": 8815,
      "epl": 8816,
      "efd": 8817,
      "trh": 8818,
      "Ġagen": 8819,
      "plic": 8820,
      "Ġ42": 8821,
      "Ġqa": 8822,
      "Ġbuil": 8823,
      "Ġ700": 8824,
      "ocked": 8825,
      "ĠJapa": 8826,
      "Ġbigg": 8827,
      "ĠAustra": 8828,
      "Shar": 8829,
      "Ġvictor": 8830,
      "Wedne": 8831,
      "Ġquarterly": 8832,
      "76": 8833,
      "Just": 8834,
      "NC": 8835,
      "OI": 8836,
      "largest": 8837,
      "pal": 8838,
      "turn": 8839,
      "xo": 8840,
      "Ġtail": 8841,
      "errs": 8842,
      "heim": 8843,
      "oret": 8844,
      "Ġrns": 8845,
      "Ġrare": 8846,
      "Ġcht": 8847,
      "Ġlll": 8848,
      "Ġfif": 8849,
      "Ġfair": 8850,
      "Ġems": 8851,
      "Ġness": 8852,
      "Ġnoi": 8853,
      "Ġwav": 8854,
      "Ġhree": 8855,
      "asion": 8856,
      "ĠTos": 8857,
      "level": 8858,
      "Ġthing": 8859,
      "ĠPA": 8860,
      "ĠPros": 8861,
      "igbt": 8862,
      "Ġonth": 8863,
      "usr": 8864,
      "riz": 8865,
      "ĠDat": 8866,
      "Ġandd": 8867,
      "Ġved": 8868,
      "terr": 8869,
      "Ġisland": 8870,
      "ivc": 8871,
      "lsy": 8872,
      "ocn": 8873,
      "hov": 8874,
      "nci": 8875,
      "rys": 8876,
      "Ġorts": 8877,
      "Ġarl": 8878,
      "afi": 8879,
      "pled": 8880,
      "Ġhaa": 8881,
      "ursda": 8882,
      "anci": 8883,
      "Ġraid": 8884,
      "urope": 8885,
      "Ġdoesn": 8886,
      "Ġearl": 8887,
      "Ġwitth": 8888,
      "Ġexplo": 8889,
      "Ġbetwe": 8890,
      "Ġpossi": 8891,
      "atched": 8892,
      "Press": 8893,
      "Canadian": 8894,
      "ĠIslamic": 8895,
      "Phil": 8896,
      "Apple": 8897,
      "NDON": 8898,
      "32": 8899,
      "52": 8900,
      "Iic": 8901,
      "Tim": 8902,
      "aor": 8903,
      "mall": 8904,
      "sg": 8905,
      "xecut": 8906,
      "Ġtk": 8907,
      "Ġtke": 8908,
      "Ġolt": 8909,
      "onse": 8910,
      "Ġiri": 8911,
      "Ġivn": 8912,
      "orh": 8913,
      "enth": 8914,
      "Ġrbe": 8915,
      "Ġbw": 8916,
      "sty": 8917,
      "Ġhac": 8918,
      "ishi": 8919,
      "etst": 8920,
      "ĠSystem": 8921,
      "utd": 8922,
      "ĠAns": 8923,
      "ĠTih": 8924,
      "ectr": 8925,
      "ieas": 8926,
      "ieves": 8927,
      "ĠFR": 8928,
      "eear": 8929,
      "ĠGene": 8930,
      "ĠGolf": 8931,
      "Ġitst": 8932,
      "Ġkin": 8933,
      "ĠVote": 8934,
      "Ġproc": 8935,
      "arting": 8936,
      "ĠThai": 8937,
      "ships": 8938,
      "niing": 8939,
      "rno": 8940,
      "hno": 8941,
      "Ġedge": 8942,
      "Ġwasn": 8943,
      "ampi": 8944,
      "iua": 8945,
      "ĠUniv": 8946,
      "Ġfinally": 8947,
      "Ġsettl": 8948,
      "ĠConf": 8949,
      "Ġmarkets": 8950,
      "Ġconsumer": 8951,
      "business": 8952,
      "Ġmission": 8953,
      "ĠMicroso": 8954,
      "Ġcustomers": 8955,
      "downs": 8956,
      "Ġsingle": 8957,
      "ĠGreek": 8958,
      "City": 8959,
      "Calif": 8960,
      "Day": 8961,
      "Irt": 8962,
      "Ken": 8963,
      "Ov": 8964,
      "Son": 8965,
      "SAN": 8966,
      "Will": 8967,
      "ahead": 8968,
      "bS": 8969,
      "bay": 8970,
      "bte": 8971,
      "fth": 8972,
      "gee": 8973,
      "iad": 8974,
      "lol": 8975,
      "nne": 8976,
      "oel": 8977,
      "rlt": 8978,
      "riday": 8979,
      "vle": 8980,
      "wash": 8981,
      "Ġtain": 8982,
      "Ġtore": 8983,
      "ĠaF": 8984,
      "ĠsR": 8985,
      "Ġsab": 8986,
      "Ġseb": 8987,
      "Ġsens": 8988,
      "ĠiV": 8989,
      "Ġift": 8990,
      "ĠrF": 8991,
      "Ġlam": 8992,
      "alis": 8993,
      "stems": 8994,
      "Ġwm": 8995,
      "Ġpai": 8996,
      "Ġmto": 8997,
      "ĠIrs": 8998,
      "ĠCITY": 8999,
      "Ġthal": 9000,
      "Ġuy": 9001,
      "ĠWd": 9002,
      "ĠNic": 9003,
      "ĠRn": 9004,
      "riot": 9005,
      "estion": 9006,
      "ĠLat": 9007,
      "Ġstory": 9008,
      "uno": 9009,
      "Ġisc": 9010,
      "eard": 9011,
      "obn": 9012,
      "obr": 9013,
      "ĠYu": 9014,
      "ĠYas": 9015,
      "Ġesp": 9016,
      "Ġtran": 9017,
      "Ita": 9018,
      "Ġuts": 9019,
      "Ġ75": 9020,
      "Ġeffor": 9021,
      "gover": 9022,
      "ĠSees": 9023,
      "Ġ04": 9024,
      "Ġprev": 9025,
      "ENS": 9026,
      "Wedn": 9027,
      "Ġgovernmen": 9028,
      "Ġsummer": 9029,
      "ĠAriel": 9030,
      "ĠMedia": 9031,
      "ME": 9032,
      "hns": 9033,
      "iW": 9034,
      "lT": 9035,
      "mng": 9036,
      "nnt": 9037,
      "sA": 9038,
      "tech": 9039,
      "inan": 9040,
      "Ġaims": 9041,
      "Ġsos": 9042,
      "Ġsef": 9043,
      "Ġsust": 9044,
      "Ġoad": 9045,
      "Ġoly": 9046,
      "ĠiK": 9047,
      "ĠrG": 9048,
      "Ġroi": 9049,
      "Ġrds": 9050,
      "arf": 9051,
      "Ġcah": 9052,
      "itant": 9053,
      "Ġfte": 9054,
      "Ġnut": 9055,
      "Ġnad": 9056,
      "Ġnne": 9057,
      "Ġntt": 9058,
      "Ġhp": 9059,
      "Ġhast": 9060,
      "Ġdav": 9061,
      "ishe": 9062,
      "Ġmae": 9063,
      "ĠSf": 9064,
      "ĠSky": 9065,
      "ĠIF": 9066,
      "olor": 9067,
      "acher": 9068,
      "Ġgon": 9069,
      "town": 9070,
      "osc": 9071,
      "ĠFive": 9072,
      "uson": 9073,
      "ĠUse": 9074,
      "ĠGE": 9075,
      "lips": 9076,
      "ipa": 9077,
      "ĠKim": 9078,
      "ĠKills": 9079,
      "alling": 9080,
      "Ġorl": 9081,
      "argo": 9082,
      "Ġscore": 9083,
      "Ġresear": 9084,
      "fiel": 9085,
      "rgy": 9086,
      "Ġ78": 9087,
      "blems": 9088,
      "good": 9089,
      "Ġaccor": 9090,
      "Ġbave": 9091,
      "Ġimprove": 9092,
      "tional": 9093,
      "computer": 9094,
      "Ġseeks": 9095,
      "Ġbelow": 9096,
      "Ġcorpor": 9097,
      "Micro": 9098,
      "ĠHaiti": 9099,
      "Ġtvhe": 9100,
      "Ġexplos": 9101,
      "Ġfunds": 9102,
      "Iti": 9103,
      "aA": 9104,
      "foi": 9105,
      "hall": 9106,
      "jing": 9107,
      "nian": 9108,
      "Ġ//": 9109,
      "Ġaee": 9110,
      "eras": 9111,
      "Ġsfor": 9112,
      "ĠoL": 9113,
      "anid": 9114,
      "ĠrH": 9115,
      "Ġrange": 9116,
      "arks": 9117,
      "ĠeN": 9118,
      "Ġeot": 9119,
      "Ġeti": 9120,
      "Ġeln": 9121,
      "Ġbly": 9122,
      "Ġpin": 9123,
      "Ġpie": 9124,
      "Ġhw": 9125,
      "Ġhapp": 9126,
      "Ġmii": 9127,
      "Ġinu": 9128,
      "ĠCho": 9129,
      "olved": 9130,
      "ĠBU": 9131,
      "ĠBall": 9132,
      "thy": 9133,
      "vear": 9134,
      "osen": 9135,
      "usn": 9136,
      "Ġvf": 9137,
      "ĠEqu": 9138,
      "ĠLet": 9139,
      "ĠLife": 9140,
      "lau": 9141,
      "cta": 9142,
      "nsl": 9143,
      "essed": 9144,
      "haa": 9145,
      "ĠVioxx": 9146,
      "uba": 9147,
      "afn": 9148,
      "ĠChris": 9149,
      "Ġcoast": 9150,
      "Ġoffers": 9151,
      "indg": 9152,
      "Ġ95": 9153,
      "iui": 9154,
      "lined": 9155,
      "Ġings": 9156,
      "fron": 9157,
      "Ġction": 9158,
      "Ġfaor": 9159,
      "Ġcontro": 9160,
      "Union": 9161,
      "Ġmovie": 9162,
      "ĠSuper": 9163,
      "Ġsystems": 9164,
      "92": 9165,
      "Bas": 9166,
      "Imp": 9167,
      "RT": 9168,
      "Ud": 9169,
      "VA": 9170,
      "bk": 9171,
      "bll": 9172,
      "boo": 9173,
      "bern": 9174,
      "crt": 9175,
      "card": 9176,
      "chen": 9177,
      "gul": 9178,
      "hill": 9179,
      "mot": 9180,
      "puter": 9181,
      "ql": 9182,
      "rand": 9183,
      "rul": 9184,
      "Ġtors": 9185,
      "ĠsN": 9186,
      "Ġlitt": 9187,
      "ĠeO": 9188,
      "Ġnom": 9189,
      "Ġmav": 9190,
      "ĠSter": 9191,
      "ĠSai": 9192,
      "Ġink": 9193,
      "Ġtough": 9194,
      "ĠIg": 9195,
      "ĠCin": 9196,
      "Ġthf": 9197,
      "ĠMount": 9198,
      "ĠMobile": 9199,
      "Ġgd": 9200,
      "Ġonthe": 9201,
      "vem": 9202,
      "osal": 9203,
      "osof": 9204,
      "ĠFou": 9205,
      "ĠFun": 9206,
      "ĠDC": 9207,
      "Ġanew": 9208,
      "estors": 9209,
      "ĠHong": 9210,
      "Ġatthe": 9211,
      "agee": 9212,
      "htr": 9213,
      "terd": 9214,
      "ĠJune": 9215,
      "ifie": 9216,
      "ugee": 9217,
      "msel": 9218,
      "Ġmajo": 9219,
      "anges": 9220,
      "etty": 9221,
      "Ġcaus": 9222,
      "Ġican": 9223,
      "Ġapprov": 9224,
      "Ġional": 9225,
      "Ġdecis": 9226,
      "Ġimport": 9227,
      "Ġestim": 9228,
      "ĠSerif": 9229,
      "Ġohf": 9230,
      "ĠTimes": 9231,
      "Ġcaptain": 9232,
      "Ito": 9233,
      "Ions": 9234,
      "Sch": 9235,
      "You": 9236,
      "city": 9237,
      "gic": 9238,
      "glo": 9239,
      "hS": 9240,
      "iM": 9241,
      "loss": 9242,
      "mei": 9243,
      "pto": 9244,
      "rers": 9245,
      "spe": 9246,
      "tas": 9247,
      "xy": 9248,
      "ĠaR": 9249,
      "eru": 9250,
      "erce": 9251,
      "ĠsD": 9252,
      "Ġsbe": 9253,
      "Ġiic": 9254,
      "Ġiou": 9255,
      "Ġiim": 9256,
      "Ġirl": 9257,
      "ĠrR": 9258,
      "Ġrss": 9259,
      "atf": 9260,
      "Ġcable": 9261,
      "Ġcross": 9262,
      "Ġlut": 9263,
      "Ġfoun": 9264,
      "Ġbub": 9265,
      "still": 9266,
      "ĠhA": 9267,
      "Ġhare": 9268,
      "room": 9269,
      "rote": 9270,
      "Ġinsp": 9271,
      "ĠTle": 9272,
      "ĠTus": 9273,
      "urp": 9274,
      "Ġofv": 9275,
      "Ġgolf": 9276,
      "adm": 9277,
      "ĠBor": 9278,
      "igu": 9279,
      "thte": 9280,
      "Ġying": 9281,
      "ĠGulf": 9282,
      "Ġstreak": 9283,
      "Ġrema": 9284,
      "agn": 9285,
      "hta": 9286,
      "Ġkno": 9287,
      "rtn": 9288,
      "uci": 9289,
      "eva": 9290,
      "Ġaftr": 9291,
      "ibh": 9292,
      "ĠfoIr": 9293,
      "Ġclai": 9294,
      "Ġoutlook": 9295,
      "ĠShare": 9296,
      "Ġwinner": 9297,
      "Ġending": 9298,
      "feren": 9299,
      "French": 9300,
      "Ġserve": 9301,
      "Ġworking": 9302,
      "ĠOffice": 9303,
      "ĠAgain": 9304,
      "Ġmemory": 9305,
      "Ġgeneral": 9306,
      "Ġcreate": 9307,
      "ĠWashington": 9308,
      "imbab": 9309,
      "ĠeBay": 9310,
      "Ġlaunched": 9311,
      "After": 9312,
      "IB": 9313,
      "LL": 9314,
      "Wall": 9315,
      "aur": 9316,
      "bla": 9317,
      "join": 9318,
      "lN": 9319,
      "lett": 9320,
      "nil": 9321,
      "nou": 9322,
      "oof": 9323,
      "ture": 9324,
      "wins": 9325,
      "Ġtory": 9326,
      "Ġaoc": 9327,
      "esf": 9328,
      "esid": 9329,
      "Ġient": 9330,
      "Ġrum": 9331,
      "Ġrry": 9332,
      "Ġrug": 9333,
      "Ġroup": 9334,
      "arre": 9335,
      "Ġcie": 9336,
      "Ġebe": 9337,
      "Ġeta": 9338,
      "Ġnde": 9339,
      "Ġwht": 9340,
      "etu": 9341,
      "reh": 9342,
      "ĠIor": 9343,
      "osm": 9344,
      "osu": 9345,
      "ĠWis": 9346,
      "ĠWhi": 9347,
      "ĠDA": 9348,
      "ceo": 9349,
      "ĠGian": 9350,
      "Ġasr": 9351,
      "ĠJack": 9352,
      "isti": 9353,
      "iani": 9354,
      "hood": 9355,
      "evr": 9356,
      "Ġja": 9357,
      "Ġspent": 9358,
      "ansd": 9359,
      "ttl": 9360,
      "inted": 9361,
      "Ġdeo": 9362,
      "Ġclass": 9363,
      "Ġslid": 9364,
      "Ġhias": 9365,
      "Ġworst": 9366,
      "ĠReserve": 9367,
      "ĠFoot": 9368,
      "Ġcentral": 9369,
      "Ġgovernm": 9370,
      "Ġsubs": 9371,
      "Ġissues": 9372,
      "Ġturned": 9373,
      "Ġsharp": 9374,
      "European": 9375,
      "Ġviolence": 9376,
      "Ġsouthern": 9377,
      "ĠCouncil": 9378,
      "88": 9379,
      ";\"": 9380,
      "Fn": 9381,
      "She": 9382,
      "Tel": 9383,
      "Tbe": 9384,
      "Wash": 9385,
      "WASH": 9386,
      "cers": 9387,
      "deb": 9388,
      "iE": 9389,
      "jah": 9390,
      "milit": 9391,
      "past": 9392,
      "sst": 9393,
      "sold": 9394,
      "uers": 9395,
      "Ġtay": 9396,
      "inth": 9397,
      "Ġotl": 9398,
      "Ġrush": 9399,
      "attl": 9400,
      "Ġcord": 9401,
      "ĠlK": 9402,
      "Ġlus": 9403,
      "ĠnO": 9404,
      "Ġptr": 9405,
      "Ġdne": 9406,
      "iset": 9407,
      "Ġmv": 9408,
      "ĠSeri": 9409,
      "ĠTon": 9410,
      "ĠCD": 9411,
      "ĠCd": 9412,
      "Ġthiat": 9413,
      "ĠMit": 9414,
      "adin": 9415,
      "ĠDig": 9416,
      "ĠHealth": 9417,
      "eaa": 9418,
      "Ġfors": 9419,
      "illio": 9420,
      "Ġheav": 9421,
      "upport": 9422,
      "ianl": 9423,
      "udes": 9424,
      "Ġeral": 9425,
      "obil": 9426,
      "Ġconti": 9427,
      "Ġarter": 9428,
      "Ġwitha": 9429,
      "oik": 9430,
      "expl": 9431,
      "arked": 9432,
      "Ġ92": 9433,
      "feat": 9434,
      "Ġcoup": 9435,
      "ildren": 9436,
      "Ġmanage": 9437,
      "Ġdesign": 9438,
      "Ġbecom": 9439,
      "Ġthrew": 9440,
      "ĠGeor": 9441,
      "Ġhighe": 9442,
      "Ġelections": 9443,
      "Ġmpany": 9444,
      "Ġowner": 9445,
      "ĠNotre": 9446,
      "Ġlosses": 9447,
      "Ber": 9448,
      "Ix": 9449,
      "bol": 9450,
      "gto": 9451,
      "mond": 9452,
      "nent": 9453,
      "oic": 9454,
      "qut": 9455,
      "rro": 9456,
      "sub": 9457,
      "Ġtip": 9458,
      "Ġama": 9459,
      "Ġicl": 9460,
      "aria": 9461,
      "Ġcion": 9462,
      "Ġlng": 9463,
      "ĠnD": 9464,
      "Ġbell": 9465,
      "stage": 9466,
      "Ġware": 9467,
      "Ġhne": 9468,
      "Ġ-:": 9469,
      "isu": 9470,
      "ĠSts": 9471,
      "ĠSys": 9472,
      "Ġinfo": 9473,
      "ĠIis": 9474,
      "ĠIas": 9475,
      "Ġofu": 9476,
      "ĠMik": 9477,
      "ionl": 9478,
      "ĠBull": 9479,
      "iews": 9480,
      "osf": 9481,
      "ĠWat": 9482,
      "ĠNw": 9483,
      "ĠRun": 9484,
      "ĠFac": 9485,
      "ĠHop": 9486,
      "sex": 9487,
      "Ġbya": 9488,
      "Ġchat": 9489,
      "pport": 9490,
      "ibt": 9491,
      "ibng": 9492,
      "Ġ\"-": 9493,
      "expe": 9494,
      "prod": 9495,
      "ĠItal": 9496,
      "azi": 9497,
      "Ġsurg": 9498,
      "Ġbecame": 9499,
      "ĠPeace": 9500,
      "Ġairline": 9501,
      "xpec": 9502,
      "Ġplanned": 9503,
      "helps": 9504,
      "Ġastron": 9505,
      "Ġshoot": 9506,
      "Ġtotal": 9507,
      "Ġvoters": 9508,
      "Ġweapons": 9509,
      "inhg": 9510,
      "zuela": 9511,
      "79": 9512,
      "Att": 9513,
      "Gl": 9514,
      "Gold": 9515,
      "Je": 9516,
      "NO": 9517,
      "Sha": 9518,
      "Tra": 9519,
      "fut": 9520,
      "gie": 9521,
      "pion": 9522,
      "rls": 9523,
      "rmer": 9524,
      "uei": 9525,
      "wm": 9526,
      "Ġtate": 9527,
      "Ġtef": 9528,
      "Ġoub": 9529,
      "Ġiam": 9530,
      "Ġima": 9531,
      "ĠrE": 9532,
      "Ġrity": 9533,
      "Ġlur": 9534,
      "Ġloa": 9535,
      "Ġlso": 9536,
      "Ġfia": 9537,
      "Ġfnr": 9538,
      "Ġeag": 9539,
      "Ġeop": 9540,
      "Ġecr": 9541,
      "Ġnag": 9542,
      "Ġbue": 9543,
      "Ġmac": 9544,
      "Ġmou": 9545,
      "Ġmorn": 9546,
      "elst": 9547,
      "ĠIro": 9548,
      "ĠCre": 9549,
      "ieI": 9550,
      "amr": 9551,
      "ĠRan": 9552,
      "ĠFight": 9553,
      "ĠFound": 9554,
      "Ġvac": 9555,
      "Ġvto": 9556,
      "ĠforI": 9557,
      "Ġforo": 9558,
      "Ġforced": 9559,
      "umped": 9560,
      "iany": 9561,
      "ĠKas": 9562,
      "avn": 9563,
      "eiar": 9564,
      "Ġery": 9565,
      "ĠVl": 9566,
      "size": 9567,
      "Ġseo": 9568,
      "ĠInst": 9569,
      "onder": 9570,
      "ondon": 9571,
      "rdi": 9572,
      "icky": 9573,
      "points": 9574,
      "ohan": 9575,
      "prot": 9576,
      "Ġifn": 9577,
      "ysts": 9578,
      "annel": 9579,
      "ccess": 9580,
      "Ġblue": 9581,
      "Ġwarns": 9582,
      "iliar": 9583,
      "known": 9584,
      "ĠAngeles": 9585,
      "ĠBraz": 9586,
      "Ġsoldiers": 9587,
      "Ġspecial": 9588,
      "Ġompany": 9589,
      "Ġsemi": 9590,
      "ĠJohnson": 9591,
      "Ġcontinue": 9592,
      "ĠRadio": 9593,
      "Ars": 9594,
      "Ish": 9595,
      "Ju": 9596,
      "Ns": 9597,
      "eil": 9598,
      "eople": 9599,
      "sle": 9600,
      "tate": 9601,
      "vk": 9602,
      "Ġtad": 9603,
      "Ġtly": 9604,
      "Ġtall": 9605,
      "Ġaos": 9606,
      "ĠsF": 9607,
      "Ġsct": 9608,
      "Ġoce": 9609,
      "oning": 9610,
      "anst": 9611,
      "enp": 9612,
      "enat": 9613,
      "arI": 9614,
      "Ġcte": 9615,
      "Ġcold": 9616,
      "Ġlates": 9617,
      "Ġecl": 9618,
      "Ġbse": 9619,
      "Ġwall": 9620,
      "Ġwast": 9621,
      "ilay": 9622,
      "Ġmount": 9623,
      "reuter": 9624,
      "otu": 9625,
      "Ġgc": 9626,
      "ĠPle": 9627,
      "ĠPrs": 9628,
      "ĠBL": 9629,
      "ĠUiS": 9630,
      "ĠHelp": 9631,
      "Ġstation": 9632,
      "Ġhell": 9633,
      "Ġisr": 9634,
      "ĠJose": 9635,
      "ifng": 9636,
      "ipment": 9637,
      "mputer": 9638,
      "coh": 9639,
      "oey": 9640,
      "Ġesi": 9641,
      "rnm": 9642,
      "Ġadmin": 9643,
      "atiou": 9644,
      "Ġ62": 9645,
      "Ġwiill": 9646,
      "Ġqi": 9647,
      "pted": 9648,
      "iIl": 9649,
      "ĠIrish": 9650,
      "atioi": 9651,
      "ĠForce": 9652,
      "esterd": 9653,
      "Ġ\\-": 9654,
      "ĠMarsh": 9655,
      "ĠPlans": 9656,
      "AMD": 9657,
      "ĠAgency": 9658,
      "Ġlosing": 9659,
      "ĠCompany": 9660,
      "Ġtechnol": 9661,
      "Ġgiving": 9662,
      "ĠHamas": 9663,
      "Tuesd": 9664,
      "ĠPowell": 9665,
      "ĠCuba": 9666,
      "./": 9667,
      "42": 9668,
      "Bri": 9669,
      "Ml": 9670,
      "WN": 9671,
      "cS": 9672,
      "cth": 9673,
      "gold": 9674,
      "games": 9675,
      "iac": 9676,
      "iver": 9677,
      "jon": 9678,
      "lve": 9679,
      "lice": 9680,
      "och": 9681,
      "ppe": 9682,
      "whi": 9683,
      "Ġtuo": 9684,
      "inist": 9685,
      "hef": 9686,
      "ĠiIt": 9687,
      "Ġcih": 9688,
      "Ġcatch": 9689,
      "Ġej": 9690,
      "alh": 9691,
      "Ġbg": 9692,
      "Ġwie": 9693,
      "Ġhab": 9694,
      "Ġhoo": 9695,
      "Ġdte": 9696,
      "isition": 9697,
      "elss": 9698,
      "roun": 9699,
      "irms": 9700,
      "Ġthue": 9701,
      "oml": 9702,
      "ĠMake": 9703,
      "Ġgives": 9704,
      "ĠPlc": 9705,
      "Ġual": 9706,
      "Ġones": 9707,
      "ĠWol": 9708,
      "ĠWild": 9709,
      "ĠWalt": 9710,
      "tems": 9711,
      "Ġvd": 9712,
      "ĠGia": 9713,
      "ĠEarn": 9714,
      "eab": 9715,
      "ngi": 9716,
      "ements": 9717,
      "Ġaso": 9718,
      "aked": 9719,
      "lsn": 9720,
      "ummer": 9721,
      "Ġengin": 9722,
      "eiy": 9723,
      "meit": 9724,
      "ompa": 9725,
      "Ġproject": 9726,
      "ĠprI": 9727,
      "areer": 9728,
      "nied": 9729,
      ".-.": 9730,
      "encies": 9731,
      "Ġbuilt": 9732,
      "Ġcrack": 9733,
      "venue": 9734,
      "Ġfeat": 9735,
      "Ġdram": 9736,
      "Ġwarning": 9737,
      "Ġimprov": 9738,
      "Ġdevice": 9739,
      "Ġpossible": 9740,
      "ĠMcC": 9741,
      "Ġhomer": 9742,
      "Ġdebate": 9743,
      "infg": 9744,
      "Ġnumb": 9745,
      "ificant": 9746,
      "Ġcloser": 9747,
      "ĠTurkey": 9748,
      "chnology": 9749,
      "ĠKarzai": 9750,
      "-,-": 9751,
      "56": 9752,
      "Ias": 9753,
      "aas": 9754,
      "aver": 9755,
      "bels": 9756,
      "dee": 9757,
      "due": 9758,
      "fle": 9759,
      "fits": 9760,
      "rll": 9761,
      "rli": 9762,
      "uw": 9763,
      "Ġapl": 9764,
      "eren": 9765,
      "ĠsU": 9766,
      "Ġoie": 9767,
      "Ġoday": 9768,
      "Ġola": 9769,
      "Ġibn": 9770,
      "Ġrav": 9771,
      "Ġroun": 9772,
      "Ġcw": 9773,
      "Ġcrew": 9774,
      "itst": 9775,
      "Ġdoi": 9776,
      "etter": 9777,
      "Ġines": 9778,
      "ĠAy": 9779,
      "ĠArn": 9780,
      "ĠTea": 9781,
      "ĠPfi": 9782,
      "ĠBO": 9783,
      "ĠBoo": 9784,
      "Ġonh": 9785,
      "ersion": 9786,
      "tob": 9787,
      "Ġvow": 9788,
      "ĠOF": 9789,
      "ioIn": 9790,
      "ĠHan": 9791,
      "Ġated": 9792,
      "thens": 9793,
      "ternet": 9794,
      "earl": 9795,
      "ivis": 9796,
      "005": 9797,
      "abr": 9798,
      "epo": 9799,
      "tran": 9800,
      "ovi": 9801,
      "peace": 9802,
      "Ġteen": 9803,
      "ubli": 9804,
      "antt": 9805,
      "Ġ~-": 9806,
      "hier": 9807,
      "Ġedi": 9808,
      "ĠFren": 9809,
      "Ġgoals": 9810,
      "Ġbuys": 9811,
      "Ġ77": 9812,
      "ĠIreland": 9813,
      "Ġplayed": 9814,
      "ĠServer": 9815,
      "ĠAndy": 9816,
      "ĠGreece": 9817,
      "Ġwrong": 9818,
      "ĠAbout": 9819,
      "Ġeffect": 9820,
      "ĠMartin": 9821,
      "ĠNextel": 9822,
      "Ġproblem": 9823,
      "Ġattempt": 9824,
      "Nasdaq": 9825,
      "'--": 9826,
      "61": 9827,
      "72": 9828,
      "Eur": 9829,
      "Ient": 9830,
      "Nn": 9831,
      "Nove": 9832,
      "drs": 9833,
      "fee": 9834,
      "fund": 9835,
      "glt": 9836,
      "gher": 9837,
      "iest": 9838,
      "mun": 9839,
      "rC": 9840,
      "uote": 9841,
      "wers": 9842,
      "yesterday": 9843,
      "Ġtli": 9844,
      "Ġoli": 9845,
      "Ġonday": 9846,
      "Ġids": 9847,
      "anad": 9848,
      "Ġrra": 9849,
      "aries": 9850,
      "atle": 9851,
      "Ġctr": 9852,
      "Ġcemp": 9853,
      "Ġlra": 9854,
      "alli": 9855,
      "Ġnod": 9856,
      "Ġww": 9857,
      "Ġwing": 9858,
      "ilb": 9859,
      "icg": 9860,
      "isse": 9861,
      "ĠSU": 9862,
      "Ġtools": 9863,
      "reute": 9864,
      "ndt": 9865,
      "irv": 9866,
      "Ġthst": 9867,
      "ĠBh": 9868,
      "ĠBOS": 9869,
      "ĠBears": 9870,
      "ĠBBC": 9871,
      "Ġuon": 9872,
      "ĠWarn": 9873,
      "ĠFOR": 9874,
      "riel": 9875,
      "ioal": 9876,
      "Ġheen": 9877,
      "ĠJun": 9878,
      "nsion": 9879,
      "ivng": 9880,
      "iper": 9881,
      "umes": 9882,
      "hoi": 9883,
      "forc": 9884,
      "eies": 9885,
      "mpan": 9886,
      "ĠThen": 9887,
      "iese": 9888,
      "ĠVirg": 9889,
      "iale": 9890,
      "ĠStad": 9891,
      "ĠStill": 9892,
      "Ġseed": 9893,
      "afs": 9894,
      "afy": 9895,
      "Ġclas": 9896,
      "nned": 9897,
      "Ġnder": 9898,
      "Ġresp": 9899,
      "ĠCoach": 9900,
      "Ġwek": 9901,
      "Ġttle": 9902,
      "This": 9903,
      "ĠExpos": 9904,
      "Ġreta": 9905,
      "Ġaccus": 9906,
      "Ġplaye": 9907,
      "ĠTrad": 9908,
      "ĠAirlines": 9909,
      "Ġposit": 9910,
      "Intel": 9911,
      "Ġillion": 9912,
      "unches": 9913,
      "ĠBoard": 9914,
      "fullqu": 9915,
      "Ġextra": 9916,
      "igiht": 9917,
      "ĠSenate": 9918,
      "Ġlawsuit": 9919,
      "Ġrocket": 9920,
      "37": 9921,
      "87": 9922,
      "Bn": 9923,
      "Deal": 9924,
      "Pd": 9925,
      "Set": 9926,
      "Wt": 9927,
      "eof": 9928,
      "fto": 9929,
      "fun": 9930,
      "gon": 9931,
      "iH": 9932,
      "ield": 9933,
      "lC": 9934,
      "nad": 9935,
      "oIn": 9936,
      "sse": 9937,
      "sco": 9938,
      "wis": 9939,
      "xing": 9940,
      "Ġtba": 9941,
      "Ġsew": 9942,
      "Ġscl": 9943,
      "Ġoes": 9944,
      "Ġici": 9945,
      "aning": 9946,
      "Ġrsi": 9947,
      "atter": 9948,
      "itas": 9949,
      "Ġfreed": 9950,
      "Ġnta": 9951,
      "Ġwbo": 9952,
      "Ġwalk": 9953,
      "ĠSO": 9954,
      "ĠSeek": 9955,
      "Ġtobe": 9956,
      "idet": 9957,
      "ĠCould": 9958,
      "otte": 9959,
      "acre": 9960,
      "Ġgb": 9961,
      "ĠBT": 9962,
      "tsa": 9963,
      "osk": 9964,
      "ĠRd": 9965,
      "ĠFis": 9966,
      "eey": 9967,
      "imt": 9968,
      "ĠJay": 9969,
      "ĠKr": 9970,
      "eib": 9971,
      "uces": 9972,
      "Ġshor": 9973,
      "ĠThc": 9974,
      "Ġchn": 9975,
      "Ġarre": 9976,
      "osted": 9977,
      "ibr": 9978,
      "Ġleal": 9979,
      "Ġhais": 9980,
      "fficial": 9981,
      "nesda": 9982,
      "Ġfinish": 9983,
      "official": 9984,
      "ĠSeen": 9985,
      "ĠProfi": 9986,
      "ĠAsk": 9987,
      "Ġleav": 9988,
      "Ġfeel": 9989,
      "ĠXM": 9990,
      "hips": 9991,
      "fully": 9992,
      "Ġholiday": 9993,
      "ĠBusiness": 9994,
      "Ġlooking": 9995,
      "Ġtihat": 9996,
      "Ġcustom": 9997,
      "expected": 9998,
      "ĠHurricane": 9999,
      "666666": 10000,
      "Ġnorthern": 10001,
      "Ġprivate": 10002,
      "ĠKorean": 10003,
      "*/": 10004,
      "Bar": 10005,
      "Bel": 10006,
      "Ily": 10007,
      "Linux": 10008,
      "Spo": 10009,
      "TER": 10010,
      "hce": 10011,
      "kar": 10012,
      "lam": 10013,
      "lent": 10014,
      "mg": 10015,
      "mad": 10016,
      "nve": 10017,
      "pow": 10018,
      "pio": 10019,
      "sil": 10020,
      "vict": 10021,
      "wol": 10022,
      "Ġtev": 10023,
      "Ġtens": 10024,
      "Ġtree": 10025,
      "inister": 10026,
      "ĠaIt": 10027,
      "ĠaIs": 10028,
      "Ġsap": 10029,
      "Ġocks": 10030,
      "hent": 10031,
      "esu": 10032,
      "Ġij": 10033,
      "Ġriday": 10034,
      "arke": 10035,
      "ĠcL": 10036,
      "Ġleb": 10037,
      "Ġlhat": 10038,
      "ĠeU": 10039,
      "ĠnF": 10040,
      "Ġnos": 10041,
      "Ġnio": 10042,
      "Ġnames": 10043,
[...]
