{
  "version": "1.0",
  "truncation": null,
  "padding": null,
  "added_tokens": [
    {
      "id": 0,
      "content": "<pad>",
      "single_word": false,
      "lstrip": false,
      "rstrip": false,
      "normalized": false,
      "special": true
    },
    {
      "id": 1,
      "content": "<unk>",
      "single_word": false,
      "lstrip": false,
      "rstrip": false,
      "normalized": false,
      "special": true
    },
    {
      "id": 2,
      "content": "<mask>",
      "single_word": false,
      "lstrip": false,
      "rstrip": false,
      "normalized": false,
      "special": true
    },
    {
      "id": 3,
      "content": "<s>",
      "single_word": false,
      "lstrip": false,
      "rstrip": false,
      "normalized": false,
      "special": true
    },
    {
      "id": 4,
      "content": "</s>",
      "single_word": false,
      "lstrip": false,
      "rstrip": false,
      "normalized": false,
      "special": true
    }
  ],
  "normalizer": {
    "type": "Sequence",
    "normalizers": [
      {
        "type": "NFKC"
      }
    ]
  },
  "pre_tokenizer": {
    "type": "Metaspace",
    "replacement": "_",
    "prepend_scheme": "always",
    "split": true
  },
  "post_processor": null,
  "decoder": {
    "type": "Metaspace",
    "replacement": "_",
    "prepend_scheme": "always",
    "split": true
  },
  "model": {
    "type": "Unigram",
    "unk_id": 1,
    "vocab": [
      [
        "<pad>",
        0.0
      ],
      [
        "<unk>",
        0.0
      ],
      [
        "<mask>",
        0.0
      ],
      [
        "<s>",
        0.0
      ],
      [
        "</s>",
        0.0
      ],
      [
        "_",
        -2.438660540706959
      ],
      [
        "s",
        -3.5369919994943206
      ],
      [
        ".",
        -3.612351908196402
      ],
      [
        "-",
        -3.737503208766711
      ],
      [
        ",",
        -3.8942229365294097
      ],
      [
        "i",
        -3.8962449120996734
      ],
      [
        "e",
        -4.056122508693738
      ],
      [
        "t",
        -4.169796262690731
      ],
      [
        "l",
        -4.22137438661075
      ],
      [
        "'",
        -4.340587075426855
      ],
      [
        "a",
        -4.451618291079111
      ],
      [
        "n",
        -4.480782171274154
      ],
      [
        "_a",
        -4.558314787907131
      ],
      [
        "r",
        -4.563610243865643
      ],
      [
        "o",
        -4.71944253877135
      ],
      [
        "_the",
        -5.0327410472112835
      ],
      [
        "d",
        -5.034894119103047
      ],
      [
        "I",
        -5.0867030198168965
      ],
      [
        "_to",
        -5.1216976910754255
      ],
      [
        "_t",
        -5.2628004605323095
      ],
      [
        "_in",
        -5.2708510256442445
      ],
      [
        "h",
        -5.334577652993403
      ],
      [
        "_e",
        -5.37129442367265
      ],
      [
        "_s",
        -5.372948567512555
      ],
      [
        "_of",
        -5.386240525651733
      ],
      [
        "c",
        -5.4206228867173145
      ],
      [
        "b",
        -5.4568927294902405
      ],
      [
        ":",
        -5.553245413455249
      ],
      [
        "f",
        -5.563391880096047
      ],
      [
        "_n",
        -5.6046157503124086
      ],
      [
        "1",
        -5.619270065779727
      ],
      [
        "u",
        -5.682296435112132
      ],
      [
        "v",
        -5.71013846522448
      ],
      [
        "_r",
        -5.713701595498449
      ],
      [
        "_-",
        -5.742143905698596
      ],
      [
        "_on",
        -5.765754892991957
      ],
      [
        "m",
        -5.770460707954527
      ],
      [
        "_o",
        -5.794186493526899
      ],
      [
        ";",
        -5.90211068502397
      ],
      [
        "_i",
        -5.917500743704535
      ],
      [
        "_d",
        -5.940627174407167
      ],
      [
        "~",
        -5.945604902704016
      ],
      [
        "_l",
        -5.9587042673469295
      ],
      [
        "ing",
        -5.96675208008255
      ],
      [
        "ed",
        -5.967057094858493
      ],
      [
        "_and",
        -6.019120190541198
      ],
      [
        "in",
        -6.157226038610482
      ],
      [
        "_f",
        -6.2358511701226895
      ],
      [
        "_h",
        -6.259914777143331
      ],
      [
        "_for",
        -6.2795798550054425
      ],
      [
        "\"",
        -6.3082275869199815
      ],
      [
        "y",
        -6.317632426656784
      ],
      [
        "_A",
        -6.343261401904044
      ],
      [
        "_c",
        -6.390653844889632
      ],
      [
        "er",
        -6.394789416770086
      ],
      [
        "_an",
        -6.550638304901204
      ],
      [
        "es",
        -6.555622576812313
      ],
      [
        "'s",
        -6.580338185518068
      ],
      [
        "_b",
        -6.603048846575042
      ],
      [
        "_th",
        -6.6063283201857566
      ],
      [
        "_at",
        -6.608816262615299
      ],
      [
        "_S",
        -6.619551181317689
      ],
      [
        "_m",
        -6.6246747024326265
      ],
      [
        "_p",
        -6.659779789975893
      ],
      [
        "_he",
        -6.663130155051968
      ],
      [
        "is",
        -6.664753740318769
      ],
      [
        "_I",
        -6.707922197866063
      ],
      [
        "_g",
        -6.716134402216079
      ],
      [
        "_w",
        -6.723073436754559
      ],
      [
        "_is",
        -6.726601634348983
      ],
      [
        "_as",
        -6.736612019471188
      ],
      [
        "p",
        -6.751270536028677
      ],
      [
        "_it",
        -6.790456978514436
      ],
      [
        "S",
        -6.790498609981521
      ],
      [
        "to",
        -6.804035406397036
      ],
      [
        "g",
        -6.859686454010376
      ],
      [
        "on",
        -6.8994439490880755
      ],
      [
        "re",
        -6.918369533560314
      ],
      [
        "w",
        -6.923638686295616
      ],
      [
        "_y",
        -6.937763085320411
      ],
      [
        "_be",
        -6.9529607862311735
      ],
      [
        "_The",
        -6.97136346114303
      ],
      [
        "it",
        -6.976363159109782
      ],
      [
        "at",
        -7.013531095293182
      ],
      [
        "ly",
        -7.015050915013212
      ],
      [
        "an",
        -7.049776156563759
      ],
      [
        "_by",
        -7.051720081373686
      ],
      [
        "_T",
        -7.063655501583048
      ],
      [
        "le",
        -7.068414513103642
      ],
      [
        "_C",
        -7.082934282846637
      ],
      [
        "\\",
        -7.091159493514358
      ],
      [
        "st",
        -7.0942544281582265
      ],
      [
        "_#39;s",
        -7.0982104362058305
      ],
      [
        "_P",
        -7.12268630389725
      ],
      [
        "en",
        -7.145868925171989
      ],
      [
        "_re",
        -7.155097926633648
      ],
      [
        "te",
        -7.177189510080057
      ],
      [
        "ie",
        -7.179450728384298
      ],
      [
        "_that",
        -7.207238034708173
      ],
      [
        "_its",
        -7.208240064144162
      ],
      [
        "4",
        -7.218191696204048
      ],
      [
        "al",
        -7.21927845679544
      ],
      [
        "as",
        -7.22701349458848
      ],
      [
        "_M",
        -7.23888542231966
      ],
      [
        "or",
        -7.240768549653744
      ],
      [
        "_1",
        -7.244189692355901
      ],
      [
        "_with",
        -7.250074695912806
      ],
      [
        "_B",
        -7.25752554065722
      ],
      [
        "et",
        -7.259447696126829
      ],
      [
        "_u",
        -7.263375145970313
      ],
      [
        ")",
        -7.2881880262097045
      ],
      [
        "_has",
        -7.304012397194217
      ],
      [
        "th",
        -7.3053755048758795
      ],
      [
        "ts",
        -7.3548186274725875
      ],
      [
        "_st",
        -7.367713444123716
      ],
      [
        "A",
        -7.376323325042071
      ],
      [
        "_US",
        -7.432261969856345
      ],
      [
        "el",
        -7.441245851443517
      ],
      [
        "ls",
        -7.453543683681092
      ],
      [
        "of",
        -7.454300924497579
      ],
      [
        "L",
        -7.4614522854426735
      ],
      [
        "ne",
        -7.466165821879459
      ],
      [
        "_R",
        -7.47172287869725
      ],
      [
        "k",
        -7.4938510089852475
      ],
      [
        "_W",
        -7.500018883128011
      ],
      [
        "_his",
        -7.501312691103882
      ],
      [
        "se",
        -7.51461975670162
      ],
      [
        "_te",
        -7.516850812692956
      ],
      [
        "_O",
        -7.526005753632717
      ],
      [
        "_D",
        -7.526781417936686
      ],
      [
        "_F",
        -7.532271009943127
      ],
      [
        "_v",
        -7.537146173998625
      ],
      [
        "_or",
        -7.538184276878189
      ],
      [
        "rs",
        -7.539313597306194
      ],
      [
        "_In",
        -7.541109997610661
      ],
      [
        "_N",
        -7.546138566000819
      ],
      [
        "id",
        -7.556375638215783
      ],
      [
        "_(",
        -7.575849914547973
      ],
      [
        "-a",
        -7.579110899728288
      ],
      [
        "the",
        -7.585098910294015
      ],
      [
        "_E",
        -7.606691545181503
      ],
      [
        "ce",
        -7.61188832391786
      ],
      [
        "E",
        -7.61411873642742
      ],
      [
        "_was",
        -7.618276223749955
      ],
      [
        "ad",
        -7.618879241897044
      ],
      [
        "j",
        -7.624520412642482
      ],
      [
        "ns",
        -7.627446358061928
      ],
      [
        "_said",
        -7.634558624138679
      ],
      [
        "_up",
        -7.64908851027336
      ],
      [
        "ers",
        -7.650677582829562
      ],
      [
        "_from",
        -7.652872989678162
      ],
      [
        "O",
        -7.655768491997417
      ],
      [
        "_#39;",
        -7.667626804249359
      ],
      [
        "ar",
        -7.669941496654067
      ],
      [
        "T",
        -7.672839540531612
      ],
      [
        "P",
        -7.67775390463202
      ],
      [
        "_er",
        -7.680855960214085
      ],
      [
        "_co",
        -7.681734546412494
      ],
      [
        "ir",
        -7.68721598348268
      ],
      [
        "od",
        -7.717159229061977
      ],
      [
        "-e",
        -7.743434565938804
      ],
      [
        "3",
        -7.752179488838603
      ],
      [
        "_G",
        -7.756320012692104
      ],
      [
        "ig",
        -7.761759486297672
      ],
      [
        "_H",
        -7.764728285958213
      ],
      [
        "6",
        -7.767663806535335
      ],
      [
        "os",
        -7.774021314561464
      ],
      [
        "_L",
        -7.777174684099952
      ],
      [
        "nt",
        -7.784157184379826
      ],
      [
        "-t",
        -7.812543098324358
      ],
      [
        "_new",
        -7.8145397144168705
      ],
      [
        "x",
        -7.823005871512761
      ],
      [
        "_will",
        -7.826639321166139
      ],
      [
        "ia",
        -7.8324666310104245
      ],
      [
        "C",
        -7.840948918853044
      ],
      [
        "and",
        -7.843977385779608
      ],
      [
        "_ng",
        -7.845702367436118
      ],
      [
        "ot",
        -7.858691950206721
      ],
      [
        "be",
        -7.859175637664455
      ],
      [
        "_k",
        -7.862224721766024
      ],
      [
        "ld",
        -7.864358509307099
      ],
      [
        "ve",
        -7.879573779283572
      ],
      [
        "me",
        -7.885220231547002
      ],
      [
        "_se",
        -7.888506989403924
      ],
      [
        "_are",
        -7.896958279037241
      ],
      [
        "il",
        -7.900630081764433
      ],
      [
        "W",
        -7.922300072526385
      ],
      [
        "he",
        -7.924123361256807
      ],
      [
        "M",
        -7.930651376040421
      ],
      [
        "_en",
        -7.93796472876852
      ],
      [
        "_over",
        -7.968896475829782
      ],
      [
        "_--",
        -7.970516194156675
      ],
      [
        "_le",
        -7.979319304394478
      ],
      [
        "_fo",
        -7.984723965853629
      ],
      [
        "B",
        -7.991615089240602
      ],
      [
        "_AP",
        -7.994905154452997
      ],
      [
        "_de",
        -8.00310080325797
      ],
      [
        "_nd",
        -8.004868280087145
      ],
      [
        "for",
        -8.00943268702893
      ],
      [
        "'e",
        -8.02254738253892
      ],
      [
        "_out",
        -8.048577105688244
      ],
      [
        "q",
        -8.05233798125802
      ],
      [
        "U",
        -8.05292599567868
      ],
      [
        "ee",
        -8.062804696004603
      ],
      [
        "ic",
        -8.070959653422662
      ],
      [
        "_al",
        -8.07305126437732
      ],
      [
        "lt",
        -8.074435836644989
      ],
      [
        "0",
        -8.078473135243314
      ],
      [
        "ter",
        -8.089542320827167
      ],
      [
        "us",
        -8.100697498867401
      ],
      [
        "_have",
        -8.106486697818687
      ],
      [
        "_U",
        -8.1068117489455
      ],
      [
        "tr",
        -8.115271701085844
      ],
      [
        "5",
        -8.120769994156534
      ],
      [
        "nd",
        -8.123109552520809
      ],
      [
        "&",
        -8.123663507908132
      ],
      [
        "_pr",
        -8.13894716105666
      ],
      [
        "?",
        -8.14295704512101
      ],
      [
        "_so",
        -8.145223002314339
      ],
      [
        "_la",
        -8.147852911520607
      ],
      [
        "rt",
        -8.149727086676611
      ],
      [
        "ta",
        -8.153797666921266
      ],
      [
        "_bo",
        -8.154854584171321
      ],
      [
        "_K",
        -8.15574154631738
      ],
      [
        "io",
        -8.157172164811357
      ],
      [
        "_J",
        -8.160996228525585
      ],
      [
        "_New",
        -8.162458325320635
      ],
      [
        "_two",
        -8.165093081419043
      ],
      [
        "_sa",
        -8.166238065473092
      ],
      [
        "ae",
        -8.170972424322283
      ],
      [
        "_but",
        -8.176904626399567
      ],
      [
        "la",
        -8.182270901368343
      ],
      [
        "z",
        -8.187251715715565
      ],
      [
        "ll",
        -8.192434982473666
      ],
      [
        "_ha",
        -8.198641524886385
      ],
      [
        "_2",
        -8.202519192226415
      ],
      [
        "_un",
        -8.210421810778367
      ],
      [
        "ies",
        -8.223942891609632
      ],
      [
        "_ch",
        -8.224254165594942
      ],
      [
        "_es",
        -8.226769312337163
      ],
      [
        "_after",
        -8.22698098536214
      ],
      [
        "ut",
        -8.228039947704247
      ],
      [
        "de",
        -8.235892978055075
      ],
      [
        "_(AP)",
        -8.24012664297309
      ],
      [
        "-in",
        -8.249825465824498
      ],
      [
        "ch",
        -8.250545817841653
      ],
      [
        "_no",
        -8.252976231459497
      ],
      [
        "-r",
        -8.26025466348105
      ],
      [
        "_Th",
        -8.271208901621778
      ],
      [
        "ry",
        -8.27753267065086
      ],
      [
        "_Re",
        -8.278111226922016
      ],
      [
        "_3",
        -8.280913281077085
      ],
      [
        "oe",
        -8.284706634779482
      ],
      [
        "rd",
        -8.287028800788306
      ],
      [
        "cr",
        -8.287644151592891
      ],
      [
        "_ne",
        -8.287975165538121
      ],
      [
        "Is",
        -8.290404636311045
      ],
      [
        "_ed",
        -8.291701250824486
      ],
      [
        "ng",
        -8.294398395962409
      ],
      [
        "_wi",
        -8.303422570190946
      ],
      [
        "up",
        -8.308158769387504
      ],
      [
        "_lo",
        -8.308594130600982
      ],
      [
        "D",
        -8.317971901905313
      ],
      [
        "_ta",
        -8.32994991321392
      ],
      [
        "_ma",
        -8.332058035730137
      ],
      [
        "ai",
        -8.333803703027883
      ],
      [
        "co",
        -8.335594583252545
      ],
      [
        "ty",
        -8.336679562116085
      ],
      [
        "_not",
        -8.346024875153535
      ],
      [
        "ol",
        -8.346696450874227
      ],
      [
        "V",
        -8.348384680298665
      ],
      [
        "ted",
        -8.348928495693595
      ],
      [
        "Y",
        -8.35241150525788
      ],
      [
        "lo",
        -8.354098792098831
      ],
      [
        "un",
        -8.354851962773015
      ],
      [
        "_mo",
        -8.35939837251913
      ],
      [
        "ion",
        -8.361460317088657
      ],
      [
        "_sh",
        -8.36968597914748
      ],
      [
        "_off",
        -8.373026200253342
      ],
      [
        "ue",
        -8.373516904267934
      ],
      [
        "_who",
        -8.37395467950952
      ],
      [
        "-to",
        -8.373978611469141
      ],
      [
        "_ar",
        -8.382481278562832
      ],
      [
        "In",
        -8.39155033918713
      ],
      [
        "ian",
        -8.394973932057905
      ],
      [
        "_St",
        -8.396012165691698
      ],
      [
        "_ca",
        -8.399401761111339
      ],
      [
        "F",
        -8.400296139280032
      ],
      [
        "_tbe",
        -8.407434491039844
      ],
      [
        "_ce",
        -8.40999348040594
      ],
      [
        "(",
        -8.413156156217713
      ],
      [
        "iy",
        -8.41550685098212
      ],
      [
        "ea",
        -8.426429871114706
      ],
      [
        "est",
        -8.428128461410893
      ],
      [
        "R",
        -8.429593137869208
      ],
      [
        "_ro",
        -8.433157415415753
      ],
      [
        "by",
        -8.438673799212498
      ],
      [
        "_me",
        -8.439031473482462
      ],
      [
        "_their",
        -8.44671803900701
      ],
      [
        "ny",
        -8.448012042884422
      ],
      [
        "ra",
        -8.448916782301641
      ],
      [
        "ln",
        -8.453935972380805
      ],
      [
        "_ia",
        -8.455965081334046
      ],
      [
        "_V",
        -8.456754223850108
      ],
      [
        "_ot",
        -8.459521657338241
      ],
      [
        "'a",
        -8.459533451659368
      ],
      [
        "_more",
        -8.461545938033124
      ],
      [
        "_Co",
        -8.467161052338724
      ],
      [
        "-d",
        -8.475605288735455
      ],
      [
        "ier",
        -8.478911103111475
      ],
      [
        "'t",
        -8.485210337495399
      ],
      [
        "bs",
        -8.487779663370322
      ],
      [
        "_U.S.",
        -8.488650594580989
      ],
      [
        "2",
        -8.48989028856043
      ],
      [
        "rn",
        -8.49261525129238
      ],
      [
        "ma",
        -8.49307069368432
      ],
      [
        "ur",
        -8.494140224659315
      ],
      [
        "led",
        -8.494774667617008
      ],
      [
        "_ho",
        -8.49593543159246
      ],
      [
        "_do",
        -8.496895736025207
      ],
      [
        "!",
        -8.499616655364468
      ],
      [
        "sh",
        -8.501569820609006
      ],
      [
        "Ie",
        -8.50898913795169
      ],
      [
        "_quot;",
        -8.512829142829192
      ],
      [
        "_fi",
        -8.51378801617927
      ],
      [
        "ro",
        -8.514265919122998
      ],
      [
        "ey",
        -8.519489286457802
      ],
      [
        "cs",
        -8.519710779073744
      ],
      [
        "_ra",
        -8.522130787620561
      ],
      [
        "man",
        -8.52323165102635
      ],
      [
        "its",
        -8.528831060242055
      ],
      [
        "-o",
        -8.531691821354677
      ],
      [
        "no",
        -8.533298190154518
      ],
      [
        "_go",
        -8.539030980545792
      ],
      [
        "fe",
        -8.541857238035231
      ],
      [
        "_had",
        -8.55952788366386
      ],
      [
        "_if",
        -8.560329002335028
      ],
      [
        "na",
        -8.562339973222254
      ],
      [
        "_this",
        -8.564634746626673
      ],
      [
        "-the",
        -8.569186206776795
      ],
      [
        "_It",
        -8.571015473456463
      ],
      [
        "It",
        -8.573217412286123
      ],
      [
        "_nt",
        -8.576179270506962
      ],
      [
        "out",
        -8.577485765145964
      ],
      [
        "bo",
        -8.579357646178531
      ],
      [
        "ip",
        -8.5827264874466
      ],
      [
        "_we",
        -8.584949106477966
      ],
      [
        "ft",
        -8.588550130595971
      ],
      [
        "_one",
        -8.592706857394411
      ],
      [
        "_first",
        -8.59430186228353
      ],
      [
        "ct",
        -8.595162166383243
      ],
      [
        "ay",
        -8.596903677637222
      ],
      [
        "im",
        -8.604082689969346
      ],
      [
        "_\"",
        -8.615152398630386
      ],
      [
        "G",
        -8.615240763610664
      ],
      [
        "_all",
        -8.615481306115438
      ],
      [
        "_wo",
        -8.616906882067347
      ],
      [
        "_ol",
        -8.620984127829676
      ],
      [
        "_Ma",
        -8.624248819756971
      ],
      [
        "_day",
        -8.625003610349575
      ],
      [
        "_io",
        -8.630419147940966
      ],
      [
        "tn",
        -8.633522121233746
      ],
      [
        "_An",
        -8.638903392464695
      ],
      [
        "ting",
        -8.64167720345249
      ],
      [
        "_hi",
        -8.642295651282174
      ],
      [
        "_win",
        -8.642480815997043
      ],
      [
        "am",
        -8.642896731737672
      ],
      [
        "_oil",
        -8.643439387554196
      ],
      [
        "les",
        -8.64497680986273
      ],
      [
        "_To",
        -8.64540381115697
      ],
      [
        "-y",
        -8.646633147480639
      ],
      [
        "_po",
        -8.647388438671612
      ],
      [
        "ton",
        -8.651460695135665
      ],
      [
        "_wh",
        -8.652392836174759
      ],
      [
        "_pe",
        -8.654013053424407
      ],
      [
        "_end",
        -8.655107603897342
      ],
      [
        "_ad",
        -8.655182286844006
      ],
      [
        "_ts",
        -8.65533793245503
      ],
      [
        "end",
        -8.658811151767809
      ],
      [
        "_than",
        -8.662120518676016
      ],
      [
        "lr",
        -8.66408240251642
      ],
      [
        "_ve",
        -8.666833441536527
      ],
      [
        "_last",
        -8.669682324006954
      ],
      [
        "ha",
        -8.671824108374748
      ],
      [
        "_li",
        -8.67586593127995
      ],
      [
        "_tho",
        -8.680239585140587
      ],
      [
        "_wa",
        -8.681766100933004
      ],
      [
        "ast",
        -8.686445815311817
      ],
      [
        "ba",
        -8.691415879313164
      ],
      [
        "red",
        -8.69147956509568
      ],
      [
        "om",
        -8.693377551394558
      ],
      [
        "ou",
        -8.693535816331366
      ],
      [
        "_tr",
        -8.693964119071882
      ],
      [
        "_ll",
        -8.693982766749635
      ],
      [
        "_No",
        -8.69880634682445
      ],
      [
        "_fr",
        -8.699041291530595
      ],
      [
        "_tha",
        -8.701719418054557
      ],
      [
        "_Iraq",
        -8.702481908302055
      ],
      [
        "-of",
        -8.705025351857415
      ],
      [
        "ent",
        -8.70671851350314
      ],
      [
        "ate",
        -8.707768854123074
      ],
      [
        "ck",
        -8.710022793549943
      ],
      [
        "_ion",
        -8.719161871196334
      ],
      [
        "_De",
        -8.720544726157815
      ],
      [
        "_Se",
        -8.720847890931374
      ],
      [
        "ist",
        -8.721880853073808
      ],
      [
        "cd",
        -8.723670715564946
      ],
      [
        "lng",
        -8.725489538699746
      ],
      [
        "ag",
        -8.729034954628673
      ],
      [
        "_Pr",
        -8.730487306288278
      ],
      [
        "ied",
        -8.732473700265894
      ],
      [
        "ler",
        -8.7338269868104
      ],
      [
        "_con",
        -8.734360696866712
      ],
      [
        "-p",
        -8.736652001628944
      ],
      [
        "_oi",
        -8.73730734113256
      ],
      [
        "ine",
        -8.73759074323036
      ],
      [
        "_into",
        -8.73952109294225
      ],
      [
        "_pa",
        -8.742055734040903
      ],
      [
        "_were",
        -8.743165156162284
      ],
      [
        "-on",
        -8.74429372980665
      ],
      [
        "_Inc.",
        -8.74529409136639
      ],
      [
        "_ti",
        -8.752155224117178
      ],
      [
        "_rs",
        -8.752306867570065
      ],
      [
        "_Mo",
        -8.753749154525726
      ],
      [
        "_pl",
        -8.755211223380606
      ],
      [
        "_ba",
        -8.757037514688626
      ],
      [
        "ca",
        -8.758323788150808
      ],
      [
        "_can",
        -8.760697582588914
      ],
      [
        "her",
        -8.76115407674914
      ],
      [
        "_ea",
        -8.762863862731521
      ],
      [
        "son",
        -8.766236949201229
      ],
      [
        "J",
        -8.776699060045992
      ],
      [
        "ms",
        -8.779281028126379
      ],
      [
        "_Ch",
        -8.779469201658989
      ],
      [
        "td",
        -8.780783484089334
      ],
      [
        "ud",
        -8.783632398473245
      ],
      [
        "hs",
        -8.784516245815396
      ],
      [
        "_4",
        -8.788379339717892
      ],
      [
        "_ay",
        -8.79528992068665
      ],
      [
        "/",
        -8.795830616069058
      ],
      [
        "ned",
        -8.797324633114046
      ],
      [
        "K",
        -8.797666093779533
      ],
      [
        "_Mi",
        -8.800919451369857
      ],
      [
        "_#",
        -8.80320952974046
      ],
      [
        "-c",
        -8.803389692064293
      ],
      [
        "...",
        -8.804521577857141
      ],
      [
        "ial",
        -8.806100392349034
      ],
      [
        "'r",
        -8.806896049697432
      ],
      [
        "int",
        -8.808846528331696
      ],
      [
        "_Pa",
        -8.809499970192398
      ],
      [
        "_Ca",
        -8.809560626965089
      ],
      [
        "_ef",
        -8.811046296805175
      ],
      [
        "ver",
        -8.815927469010575
      ],
      [
        "-h",
        -8.81755290266031
      ],
      [
        "_com",
        -8.819064092576363
      ],
      [
        "_mi",
        -8.82195775677652
      ],
      [
        "ice",
        -8.823017299827995
      ],
      [
        "_Be",
        -8.823986785346712
      ],
      [
        "his",
        -8.824708525947766
      ],
      [
        "ho",
        -8.82575946654788
      ],
      [
        "da",
        -8.826748187822124
      ],
      [
        "_been",
        -8.834814327691493
      ],
      [
        "ling",
        -8.835318857260294
      ],
      [
        "1e",
        -8.835729901523127
      ],
      [
        "op",
        -8.837836929037636
      ],
      [
        "_pro",
        -8.841367556946139
      ],
      [
        "_they",
        -8.842415049840529
      ],
      [
        "H",
        -8.84703410498559
      ],
      [
        "ah",
        -8.849465157540337
      ],
      [
        "em",
        -8.849972419416444
      ],
      [
        "ac",
        -8.851841930642038
      ],
      [
        "_il",
        -8.852849457722865
      ],
      [
        "all",
        -8.853640196393808
      ],
      [
        "mo",
        -8.853847904074797
      ],
      [
        "tor",
        -8.855321338145938
      ],
      [
        "ment",
        -8.856400115823877
      ],
      [
        "ul",
        -8.858700642797984
      ],
      [
        "_di",
        -8.859629410918062
      ],
      [
        "_et",
        -8.860165911673583
      ],
      [
        "_na",
        -8.863390973043245
      ],
      [
        "_su",
        -8.863606503813592
      ],
      [
        "_NEW",
        -8.867515766660471
      ],
      [
        "res",
        -8.870794726531496
      ],
      [
        "7",
        -8.871374873459292
      ],
      [
        "_So",
        -8.87409383824619
      ],
      [
        "ec",
        -8.875386164079536
      ],
      [
        "_Y",
        -8.875536108931298
      ],
      [
        "_year",
        -8.876376422561519
      ],
      [
        "_ex",
        -8.881156599734016
      ],
      [
        "_set",
        -8.887192099497973
      ],
      [
        "8",
        -8.887725432832074
      ],
      [
        "_tie",
        -8.887934639369984
      ],
      [
        "der",
        -8.8890457677075
      ],
      [
        "_qu",
        -8.892140892648378
      ],
      [
        "lan",
        -8.892789522861563
      ],
      [
        "pr",
        -8.897883271031684
      ],
      [
        "_per",
        -8.900941519846267
      ],
      [
        "ht",
        -8.901696414567198
      ],
      [
        "ation",
        -8.904274308290717
      ],
      [
        "_ut",
        -8.906050975064092
      ],
      [
        "*",
        -8.909821453064229
      ],
      [
        "tion",
        -8.910979752584813
      ],
      [
        "pe",
        -8.913192795033144
      ],
      [
        "_ln",
        -8.914780620506233
      ],
      [
        "with",
        -8.918552873819102
      ],
      [
        "_q",
        -8.919223616642807
      ],
      [
        "#39;s",
        -8.922119616143933
      ],
      [
        "day",
        -8.922409985499849
      ],
      [
        "cl",
        -8.924246417975791
      ],
      [
        "ber",
        -8.92605411061591
      ],
      [
        "ien",
        -8.926922550275108
      ],
      [
        "if",
        -8.927001217413418
      ],
      [
        "-b",
        -8.928107544398845
      ],
      [
        "ear",
        -8.929231943415783
      ],
      [
        "br",
        -8.929616140177258
      ],
      [
        "_op",
        -8.931021949561028
      ],
      [
        "ep",
        -8.931507874702735
      ],
      [
        "_back",
        -8.933010502016455
      ],
      [
        "_si",
        -8.935493021814779
      ],
      [
        "ite",
        -8.937159123086584
      ],
      [
        "_sp",
        -8.937234838784178
      ],
      [
        "_ou",
        -8.937994346334062
      ],
      [
        "_bu",
        -8.939207717144125
      ],
      [
        "_af",
        -8.940198052332466
      ],
      [
        "that",
        -8.943759155166617
      ],
      [
        "ap",
        -8.943885731503816
      ],
      [
        "ih",
        -8.948541720818215
      ],
      [
        "ner",
        -8.95313778977508
      ],
      [
        "_may",
        -8.955288392583785
      ],
      [
        "_about",
        -8.955511436128308
      ],
      [
        "_Sa",
        -8.956538774713973
      ],
      [
        "are",
        -8.959496478956375
      ],
      [
        "'d",
        -8.960659197109473
      ],
      [
        "ant",
        -8.964723275918795
      ],
      [
        "oy",
        -8.966823594986472
      ],
      [
        "men",
        -8.967121718150612
      ],
      [
        "_10",
        -8.967449065455366
      ],
      [
        "_We",
        -8.970725367245674
      ],
      [
        "_ir",
        -8.970839183294029
      ],
      [
        "9",
        -8.971097999884707
      ],
      [
        "_)",
        -8.971686611570643
      ],
      [
        "ge",
        -8.972022979260558
      ],
      [
        "_us",
        -8.978185734530127
      ],
      [
        "-S",
        -8.97863764998168
      ],
      [
        "cn",
        -8.982054085998126
      ],
      [
        "nce",
        -8.985780904779467
      ],
      [
        "_He",
        -8.986730848357734
      ],
      [
        "_ie",
        -8.988498358693196
      ],
      [
        "lc",
        -8.991408937914294
      ],
      [
        "has",
        -8.993352936981253
      ],
      [
        "The",
        -8.993889403570053
      ],
      [
        "_lead",
        -8.995264590768713
      ],
      [
        "_ii",
        -8.99721803483906
      ],
      [
        "_ge",
        -8.998137705456536
      ],
      [
        "ab",
        -8.998631930778707
      ],
      [
        "Ir",
        -8.999600888488382
      ],
      [
        "ive",
        -9.000932012095415
      ],
      [
        "_Br",
        -9.00138518303141
      ],
      [
        "do",
        -9.007774417314796
      ],
      [
        "over",
        -9.008759171778717
      ],
      [
        "iu",
        -9.008957906731613
      ],
      [
        "_ic",
        -9.011307808627615
      ],
      [
        "ke",
        -9.012122248016674
      ],
      [
        "nr",
        -9.014354639895036
      ],
      [
        "_week",
        -9.015366707407342
      ],
      [
        "iig",
        -9.015986794833648
      ],
      [
        "eh",
        -9.016133844500192
      ],
      [
        "_Is",
        -9.018349100324432
      ],
      [
        "_Fr",
        -9.020225769519385
      ],
      [
        "ow",
        -9.021540301411026
      ],
      [
        "ors",
        -9.022108223192264
      ],
      [
        "_As",
        -9.025663093920354
      ],
      [
        "lay",
        -9.025663850758193
      ],
      [
        "-m",
        -9.02777160760414
      ],
      [
        "ak",
        -9.028366024926681
      ],
      [
        "-an",
        -9.028955042144135
      ],
      [
        "-A",
        -9.032000355434214
      ],
      [
        "_(Reuters)",
        -9.033153408044463
      ],
      [
        "eld",
        -9.033862735100142
      ],
      [
        "wa",
        -9.034309361443118
      ],
      [
        "_Ba",
        -9.035245563536378
      ],
      [
        "_Wi",
        -9.03854433910676
      ],
      [
        "lon",
        -9.03886285758663
      ],
      [
        "com",
        -9.038923891261051
      ],
      [
        "_cl",
        -9.039316276719983
      ],
      [
        "bn",
        -9.044750323780654
      ],
      [
        "Ing",
        -9.047274405647835
      ],
      [
        "_Un",
        -9.047756803611614
      ],
      [
        "_ri",
        -9.050319640028661
      ],
      [
        "_iin",
        -9.053088598255354
      ],
      [
        "fr",
        -9.058894861020985
      ],
      [
        "_fa",
        -9.060255333520589
      ],
      [
        "ina",
        -9.062691244759794
      ],
      [
        "hi",
        -9.062777873042698
      ],
      [
        "mp",
        -9.062995239841035
      ],
      [
        "N",
        -9.06306939702565
      ],
      [
        "age",
        -9.063520113119171
      ],
      [
        "go",
        -9.064734301470134
      ],
      [
        "US",
        -9.065787093117482
      ],
      [
        "_0",
        -9.067165173950023
      ],
      [
        "_Te",
        -9.068194217616071
      ],
      [
        "_man",
        -9.074119589803344
      ],
      [
        "_Al",
        -9.076840759016516
      ],
      [
        "_bi",
        -9.078749215982375
      ],
      [
        "ile",
        -9.079277230098556
      ],
      [
        "_say",
        -9.079379005324105
      ],
      [
        "_At",
        -9.081876223727257
      ],
      [
        "_Ne",
        -9.082550518417253
      ],
      [
        "hat",
        -9.083213331592168
      ],
      [
        "ek",
        -9.084691522256847
      ],
      [
        "tal",
        -9.084789145150392
      ],
      [
        "_ag",
        -9.085188152155734
      ],
      [
        "ity",
        -9.091389846224864
      ],
      [
        "_bhe",
        -9.091884104421442
      ],
      [
        "tes",
        -9.092558091440043
      ],
      [
        "_ye",
        -9.09325037567681
      ],
      [
        "iin",
        -9.093957681565229
      ],
      [
        "und",
        -9.09712267352699
      ],
      [
        "lin",
        -9.097146006964092
      ],
      [
        "_On",
        -9.09841919801706
      ],
      [
        "ail",
        -9.09861842409858
      ],
      [
        "_9",
        -9.099335588161516
      ],
      [
        "ew",
        -9.100156081648125
      ],
      [
        "eid",
        -9.10097658087709
      ],
      [
        "ary",
        -9.104746047578912
      ],
      [
        "ens",
        -9.105123961153648
      ],
      [
        "eir",
        -9.106106953048837
      ],
      [
        "ral",
        -9.106925764537294
      ],
      [
        "_j",
        -9.10692943006848
      ],
      [
        "-f",
        -9.10796349015781
      ],
      [
        "rk",
        -9.108048188619478
      ],
      [
        "fi",
        -9.109034444419002
      ],
      [
        "ets",
        -9.109300515169073
      ],
      [
        "tle",
        -9.109818083614153
      ],
      [
        "wo",
        -9.109982078718414
      ],
      [
        "_6",
        -9.1115119837485
      ],
      [
        "_time",
        -9.1127583303727
      ],
      [
        "_5",
        -9.114777994557333
      ],
      [
        "_om",
        -9.117179586770618
      ],
      [
        "_top",
        -9.11973466481431
      ],
      [
        "e-d",
        -9.120211583619351
      ],
      [
        "hn",
        -9.12333716169184
      ],
      [
        "_when",
        -9.126001458559514
      ],
      [
        "ard",
        -9.126897858401739
      ],
      [
        "iing",
        -9.12744435765337
      ],
      [
        "_cr",
        -9.12773053239758
      ],
      [
        "_Oil",
        -9.128397781347061
      ],
      [
        "lp",
        -9.130926421886421
      ],
      [
        "lv",
        -9.132210192611012
      ],
      [
        "dy",
        -9.133804886874344
      ],
      [
        "oa",
        -9.135129268112669
      ],
      [
        "_game",
        -9.135566156298687
      ],
      [
        "aid",
        -9.135693920869233
      ],
      [
        "_you",
        -9.137328639437333
      ],
      [
        "ci",
        -9.137616693011013
      ],
      [
        "_ent",
        -9.13944198905417
      ],
      [
        "_La",
        -9.140862446276824
      ],
      [
        "_el",
        -9.142782255164903
      ],
      [
        "_For",
        -9.14513979333056
      ],
      [
        "land",
        -9.14525340162351
      ],
      [
        "_YORK",
        -9.150658082594873
      ],
      [
        "_next",
        -9.151209077539178
      ],
      [
        "ef",
        -9.151311751212077
      ],
      [
        "han",
        -9.151721444708873
      ],
      [
        "_br",
        -9.15320734654141
      ],
      [
        "_8",
        -9.153729374576223
      ],
      [
        "ain",
        -9.15407616652087
      ],
      [
        "_id",
        -9.155963704949793
      ],
      [
        "_team",
        -9.159330295448171
      ],
      [
        "nes",
        -9.160310343932395
      ],
      [
        "ill",
        -9.160900579615836
      ],
      [
        "fo",
        -9.1611890219407
      ],
      [
        "_iu",
        -9.165152635271372
      ],
      [
        "um",
        -9.16581363427369
      ],
      [
        "ell",
        -9.166059460428365
      ],
      [
        "_Su",
        -9.166410873823047
      ],
      [
        "-w",
        -9.169083519288883
      ],
      [
        "#39;",
        -9.169877115035455
      ],
      [
        "ron",
        -9.172616743308108
      ],
      [
        "we",
        -9.173220959299698
      ],
      [
        "ins",
        -9.174785346004064
      ],
      [
        "_would",
        -9.17486161426513
      ],
      [
        "_Ir",
        -9.175319686006727
      ],
      [
        "_UN",
        -9.176710454177073
      ],
      [
        "sy",
        -9.177491675507124
      ],
      [
        "_im",
        -9.179081733490406
      ],
      [
        "mi",
        -9.180073353191526
      ],
      [
        "bt",
        -9.183619252567317
      ],
      [
        "vi",
        -9.183642441237694
      ],
      [
        "mer",
        -9.183868530348317
      ],
      [
        "_could",
        -9.18434632145389
      ],
      [
        "ex",
        -9.186053867937666
      ],
      [
        "'y",
        -9.186401681508354
      ],
      [
        "nal",
        -9.1868872798318
      ],
      [
        "_says",
        -9.188267585026118
      ],
      [
        "art",
        -9.188538318722117
      ],
      [
        "_down",
        -9.191009224053449
      ],
      [
        "cy",
        -9.194352607345555
      ],
      [
        "ug",
        -9.19487682080883
      ],
      [
        "_her",
        -9.197151212140014
      ],
      [
        "_Ho",
        -9.19794934510448
      ],
      [
        "_20",
        -9.198415795219798
      ],
      [
        "rm",
        -9.199444274174693
      ],
      [
        "_7",
        -9.201972428284847
      ],
      [
        "ace",
        -9.20244931313874
      ],
      [
        "iz",
        -9.20373738538703
      ],
      [
        "_some",
        -9.204529342954327
      ],
      [
        "ost",
        -9.205747554987418
      ],
      [
        "tan",
        -9.207239178633447
      ],
      [
        "_gr",
        -9.207387376911853
      ],
      [
        "bu",
        -9.207485566770217
      ],
      [
        "from",
        -9.208827486377984
      ],
      [
        "wi",
        -9.209039828006189
      ],
      [
        "tin",
        -9.20905780257218
      ],
      [
        "_car",
        -9.210848174890993
      ],
      [
        "_aid",
        -9.211111819884668
      ],
      [
        "_Monday",
        -9.211640726105312
      ],
      [
        "_sc",
        -9.213705772031226
      ],
      [
        "oh",
        -9.214094216163469
      ],
      [
        "_comp",
        -9.215454636763848
      ],
      [
        "ire",
        -9.221515217729412
      ],
      [
        "ead",
        -9.221934266710822
      ],
      [
        "_Cup",
        -9.22267154614806
      ],
      [
        "_Wa",
        -9.228841839502987
      ],
      [
        "_Sun",
        -9.22977345514433
      ],
      [
        "ach",
        -9.23145128947258
      ],
      [
        "_Ro",
        -9.23554755996232
      ],
      [
        "_three",
        -9.235712173960929
      ],
      [
        "_which",
        -9.237032323528943
      ],
      [
        "_#3",
        -9.238019691516428
      ],
      [
        "_Go",
        -9.243168382206438
      ],
      [
        "vs",
        -9.24451852541085
      ],
      [
        "_world",
        -9.247000601601597
      ],
      [
        "in-g",
        -9.247239521627154
      ],
      [
        "_ab",
        -9.247346721882447
      ],
      [
        "_deal",
        -9.248798574559327
      ],
      [
        "po",
        -9.249807231249491
      ],
      [
        "_tle",
        -9.250631868685677
      ],
      [
        "fer",
        -9.25154992798931
      ],
      [
        "bi",
        -9.253125308923229
      ],
      [
        "con",
        -9.253784105268295
      ],
      [
        "_Bush",
        -9.25514350050911
      ],
      [
        "_sn",
        -9.256276451785503
      ],
      [
        "_da",
        -9.257548769920326
      ],
      [
        "_(R",
        -9.258488734395272
      ],
      [
        "-and",
        -9.258893768849273
      ],
      [
        "~e",
        -9.259634357525643
      ],
      [
        "_x",
        -9.261106731842593
      ],
      [
        "_war",
        -9.26116148068219
      ],
      [
        "was",
        -9.26132910802673
      ],
      [
        "Id",
        -9.261427390847253
      ],
      [
        "_ter",
        -9.264956634331348
      ],
      [
        "sp",
        -9.26497338813997
      ],
      [
        "ten",
        -9.266876002513165
      ],
      [
        "_Bu",
        -9.267900589483821
      ],
      [
        "war",
        -9.268227492478754
      ],
      [
        "_Bo",
        -9.268850401260453
      ],
      [
        "_get",
        -9.269401515198567
      ],
      [
        "not",
        -9.270092506159209
      ],
      [
        "-th",
        -9.271146543055533
      ],
      [
        "_tthe",
        -9.272239248605947
      ],
      [
        "pl",
        -9.272357823209045
      ],
      [
        "off",
        -9.272851790311545
      ],
      [
        "dr",
        -9.273357017630875
      ],
      [
        "_vi",
        -9.27345824681872
      ],
      [
        "_Ar",
        -9.274275763541972
      ],
      [
        "ok",
        -9.274366864710101
      ],
      [
        "able",
        -9.275490685564064
      ],
      [
        "_Red",
        -9.275830682714531
      ],
      [
        "ior",
        -9.278590974358409
      ],
      [
        "ev",
        -9.280657818738188
      ],
      [
        "ore",
        -9.28083349384682
      ],
      [
        "ua",
        -9.281381539630008
      ],
      [
        "_four",
        -9.281892315536432
      ],
      [
        "e-r",
        -9.283302653614907
      ],
      [
        "_ac",
        -9.284774198067376
      ],
      [
        "_hit",
        -9.286681194321432
      ],
      [
        "_Up",
        -9.286689875833265
      ],
      [
        "af",
        -9.287202088109835
      ],
      [
        "_rt",
        -9.287233318838268
      ],
      [
        "aw",
        -9.28841089922539
      ],
      [
        "'in",
        -9.291320049902495
      ],
      [
        "_Corp.",
        -9.297936523076139
      ],
      [
        "_&",
        -9.298777673685796
      ],
      [
        "ik",
        -9.298782033370372
      ],
      [
        "_ld",
        -9.299830412386571
      ],
      [
        "iv",
        -9.30171185794589
      ],
      [
        "_th-e",
        -9.302945455614108
      ],
      [
        "ance",
        -9.30337649917158
      ],
      [
        "_home",
        -9.303782731567109
      ],
      [
        "_t-he",
        -9.304196834278958
      ],
      [
        "said",
        -9.305342101241026
      ],
      [
        "_#39",
        -9.305410063118474
      ],
      [
        "eed",
        -9.30554112992174
      ],
      [
        "-g",
        -9.3070937269727
      ],
      [
        "_Ja",
        -9.307464935932794
      ],
      [
        "_pre",
        -9.309225113994728
      ],
      [
        "eal",
        -9.310543089730928
      ],
      [
        "ub",
        -9.311232592079683
      ],
      [
        "tic",
        -9.316012350052603
      ],
      [
        "one",
        -9.31720908235017
      ],
      [
        "_thi",
        -9.317500771450314
      ],
      [
        "eg",
        -9.317861085736514
      ],
      [
        "_IBM",
        -9.317937846215186
      ],
      [
        "_Friday",
        -9.319154679974858
      ],
      [
        "can",
        -9.319195585203612
      ],
      [
        "ong",
        -9.32032358458089
      ],
      [
        "i-n",
        -9.321001083788953
      ],
      [
        "_fir",
        -9.321211959547838
      ],
      [
        "_pla",
        -9.321883167915074
      ],
      [
        "_most",
        -9.32723690362688
      ],
      [
        "tar",
        -9.329142728148407
      ],
      [
        "_Sh",
        -9.329214192703619
      ],
      [
        "i-ng",
        -9.331839569183026
      ],
      [
        "_tb",
        -9.334245251440727
      ],
      [
        "vo",
        -9.335189999964241
      ],
      [
        "will",
        -9.335983707993925
      ],
      [
        "_am",
        -9.336424382665754
      ],
      [
        "_sta",
        -9.336531451088362
      ],
      [
        "_X",
        -9.337056756386442
      ],
      [
        "_Pe",
        -9.337797137710988
      ],
      [
        "ning",
        -9.338130705704073
      ],
      [
        "_pi",
        -9.33936617061979
      ],
      [
        "pa",
        -9.339602328450535
      ],
      [
        "av",
        -9.341702353262182
      ],
      [
        "ran",
        -9.342797333890797
      ],
      [
        "gr",
        -9.34344690211821
      ],
      [
        "iug",
        -9.343704939651154
      ],
      [
        "nc",
        -9.345960990215534
      ],
      [
        "_she",
        -9.346560634012405
      ],
      [
        "_Web",
        -9.34672242240385
      ],
      [
        "_lea",
        -9.349147745040202
      ],
      [
        "ring",
        -9.349558076460163
      ],
      [
        "air",
        -9.357541624844554
      ],
      [
        "per",
        -9.358871538716535
      ],
      [
        "_ga",
        -9.359579946152792
      ],
      [
        "_ihe",
        -9.359632581497543
      ],
      [
        "cal",
        -9.359986738495671
      ],
      [
        "ide",
        -9.360358437303375
      ],
      [
        "ces",
        -9.360422808237141
      ],
      [
        "hy",
        -9.36106660849287
      ],
      [
        "_play",
        -9.361504032137105
      ],
      [
        "_World",
        -9.362069845037926
      ],
      [
        "_ur",
        -9.362918791732255
      ],
      [
        "hr",
        -9.363117347131599
      ],
      [
        "ime",
        -9.36382143705183
      ],
      [
        "_No.",
        -9.36672653899043
      ],
      [
        "_won",
        -9.366790085205672
      ],
      [
        "au",
        -9.368072494731823
      ],
      [
        "_plan",
        -9.37014462380455
      ],
      [
        "_Do",
        -9.370506966027495
      ],
      [
        "way",
        -9.370596224692079
      ],
      [
        "hd",
        -9.37150630723248
      ],
      [
        "rg",
        -9.373336822456643
      ],
      [
        "wn",
        -9.374332204898856
      ],
      [
        "_Po",
        -9.37562674646044
      ],
      [
        "new",
        -9.375663690916877
      ],
      [
        "_thre",
        -9.376710518469306
      ],
      [
        "nk",
        -9.376916531076153
      ],
      [
        "_take",
        -9.377395129318224
      ],
      [
        "va",
        -9.379496125459276
      ],
      [
        "ble",
        -9.379895342279973
      ],
      [
        "ib",
        -9.38016538629714
      ],
      [
        "_res",
        -9.380873863700476
      ],
      [
        "ake",
        -9.382992856127977
      ],
      [
        "_'a",
        -9.386757233808549
      ],
      [
        "our",
        -9.387821848104796
      ],
      [
        "gh",
        -9.389641918448763
      ],
      [
        "_tio",
        -9.3902901168412
      ],
      [
        "-for",
        -9.390714793533949
      ],
      [
        "_Ha",
        -9.39261626478186
      ],
      [
        "pt",
        -9.39595436314714
      ],
      [
        "_against",
        -9.396041810425402
      ],
      [
        "oc",
        -9.396473696716985
      ],
      [
        "_make",
        -9.399239590068774
      ],
      [
        "_By",
        -9.401375704464815
      ],
      [
        "Q",
        -9.40162038040917
      ],
      [
        "Ia",
        -9.403834156476744
      ],
      [
        "Io",
        -9.406791876800288
      ],
      [
        "_.a",
        -9.409288113839306
      ],
      [
        "ov",
        -9.409327891918554
      ],
      [
        "igh",
        -9.410107165729944
      ],
      [
        "_use",
        -9.41095094697319
      ],
      [
        "_sto",
        -9.411007570455546
      ],
      [
        "_rn",
        -9.411041602795613
      ],
      [
        "_ct",
        -9.411501636583509
      ],
      [
        "_company",
        -9.411926210380983
      ],
      [
        "_wit",
        -9.41398316127745
      ],
      [
        "_bid",
        -9.415871071311614
      ],
      [
        "_now",
        -9.41655719994138
      ],
      [
        "_China",
        -9.418202641343777
      ],
      [
        "_t-o",
        -9.41970327234985
      ],
      [
        "ps",
        -9.421200031353099
      ],
      [
        "two",
        -9.422839654454531
      ],
      [
        "lic",
        -9.423016121122465
      ],
      [
        "_Me",
        -9.42455875977057
      ],
      [
        "_Lo",
        -9.424652915536694
      ],
      [
        "bl",
        -9.42498252393666
      ],
      [
        "_Tu",
        -9.427448990515327
      ],
      [
        "_Le",
        -9.427753353609035
      ],
      [
        "ith",
        -9.427767439629122
      ],
      [
        "_United",
        -9.428440449531813
      ],
      [
        "eer",
        -9.428769204067024
      ],
      [
        "_hat",
        -9.432777086604641
      ],
      [
        "ven",
        -9.43391700445022
      ],
      [
        ".y",
        -9.433943292584333
      ],
      [
        "port",
        -9.433984749003223
      ],
      [
        "_eo",
        -9.434439155020005
      ],
      [
        "lar",
        -9.438152468142086
      ],
      [
        "use",
        -9.439339813904438
      ],
      [
        "_-a",
        -9.44014864436962
      ],
      [
        "og",
        -9.44062606734893
      ],
      [
        "fa",
        -9.441436099300468
      ],
      [
        "a1",
        -9.444718416459747
      ],
      [
        "~s",
        -9.44476412136611
      ],
      [
        "_cou",
        -9.448769986035817
      ],
      [
        "old",
        -9.449955647672331
      ],
      [
        "_ow",
        -9.450094832470015
      ],
      [
        "ws",
        -9.450225954733412
      ],
      [
        "_Fi",
        -9.450877650064326
      ],
      [
        "_dis",
        -9.452018208895032
      ],
      [
        "1y",
        -9.454062396765554
      ],
      [
        "_-the",
        -9.455903567584981
      ],
      [
        "_oo",
        -9.456122421847649
      ],
      [
        "_#39;t",
        -9.457138287367147
      ],
      [
        "-re",
        -9.458053295192686
      ],
      [
        "tie",
        -9.460600638947406
      ],
      [
        "_Mon",
        -9.460683679248309
      ],
      [
        "ick",
        -9.461266210678527
      ],
      [
        "cent",
        -9.46169155690946
      ],
      [
        "_\\$",
        -9.461850038169715
      ],
      [
        "_tto",
        -9.462470456090784
      ],
      [
        "ust",
        -9.462485706539736
      ],
      [
        "_San",
        -9.462493710081647
      ],
      [
        "oil",
        -9.462751369457791
      ],
      [
        "inc",
        -9.463699232333415
      ],
      [
        "_high",
        -9.464454329214025
      ],
      [
        "rer",
        -9.464905800846925
      ],
      [
        "-at",
        -9.46516271170566
      ],
      [
        "ley",
        -9.465688718582442
      ],
      [
        "AP",
        -9.466548399145413
      ],
      [
        "_thr",
        -9.466731236321007
      ],
      [
        "rp",
        -9.467073084266698
      ],
      [
        "_2004",
        -9.467460448491698
      ],
      [
        "low",
        -9.467915013319901
      ],
      [
        "_Gr",
        -9.469822090183111
      ],
      [
        "_Da",
        -9.471584612358996
      ],
      [
        "_thie",
        -9.47284259096255
      ],
      [
        "_i-n",
        -9.473928081506674
      ],
      [
        "hed",
        -9.474493073591088
      ],
      [
        "uld",
        -9.47474774946561
      ],
      [
        "St",
        -9.47736767416557
      ],
      [
        "_Si",
        -9.477585349798675
      ],
      [
        "ich",
        -9.478678283138443
      ],
      [
        "_EU",
        -9.479395005372346
      ],
      [
        "_Fo",
        -9.481892220785753
      ],
      [
        "_ew",
        -9.484009295387477
      ],
      [
        "s)",
        -9.485999353663708
      ],
      [
        "try",
        -9.48713617988178
      ],
      [
        "_sl",
        -9.487253876753126
      ],
      [
        "ise",
        -9.487840197054595
      ],
      [
        "have",
        -9.489549413855915
      ],
      [
        "ple",
        -9.490164664605388
      ],
      [
        "_Tuesday",
        -9.49254087406156
      ],
      [
        "_dr",
        -9.495430777668659
      ],
      [
        "_rec",
        -9.497108089146804
      ],
      [
        "_Li",
        -9.497711657228061
      ],
      [
        "'on",
        -9.498584601849332
      ],
      [
        "ster",
        -9.49881839940672
      ],
      [
        "-st",
        -9.501715299190515
      ],
      [
        "_way",
        -9.503762551714
      ],
      [
        "ced",
        -9.504222119960302
      ],
      [
        "_help",
        -9.50442429587699
      ],
      [
        "X",
        -9.50507573895189
      ],
      [
        "_ov",
        -9.50613074967446
      ],
      [
        "_19",
        -9.506295292120527
      ],
      [
        "_Co.",
        -9.506646128624428
      ],
      [
        "e.d",
        -9.50680289219239
      ],
      [
        "_With",
        -9.507796462534486
      ],
      [
        "ars",
        -9.507963458041605
      ],
      [
        "net",
        -9.50841971764458
      ],
      [
        "_ci",
        -9.509346277089112
      ],
      [
        "bd",
        -9.509856609492921
      ],
      [
        "_pay",
        -9.510285208818287
      ],
      [
        "_Air",
        -9.510926086574269
      ],
      [
        "lf",
        -9.511073469119259
      ],
      [
        "_buy",
        -9.511791482232596
      ],
      [
        "ang",
        -9.512065482660384
      ],
      [
        "_cut",
        -9.512325853124688
      ],
      [
        "ure",
        -9.512395661330878
      ],
      [
        "tc",
        -9.515523571225938
      ],
      [
        "_;s",
        -9.51732564283192
      ],
      [
        "_UK",
        -9.517621691322233
      ],
      [
        "_str",
        -9.518093500943971
      ],
      [
        "set",
        -9.518191591123589
      ],
      [
        "_run",
        -9.520521443805826
      ],
      [
        "_just",
        -9.523669154389957
      ],
      [
        "_ear",
        -9.526256431334652
      ],
      [
        "ding",
        -9.52703351816211
      ],
      [
        "ade",
        -9.527912096445208
      ],
      [
        "_exp",
        -9.52821386158022
      ],
      [
        "_Na",
        -9.528338604768885
      ],
      [
        "rc",
        -9.528528264849486
      ],
      [
        "_Am",
        -9.52886713275819
      ],
      [
        "ous",
        -9.528869399094113
      ],
      [
        "mon",
        -9.531058442379404
      ],
      [
        "qu",
        -9.531101224896565
      ],
      [
        "_Tr",
        -9.53119706976073
      ],
      [
        "ru",
        -9.532947176404818
      ],
      [
        "my",
        -9.53477241978819
      ],
      [
        "ack",
        -9.534817121439119
      ],
      [
        "ish",
        -9.536315563706168
      ],
      [
        "'the",
        -9.536444241159248
      ],
      [
        "eb",
        -9.537464034942657
      ],
      [
        "_ke",
        -9.538301361608537
      ],
      [
        "lg",
        -9.539740664532566
      ],
      [
        "_Ga",
        -9.540161562603304
      ],
      [
        "sed",
        -9.540958737010547
      ],
      [
        "_other",
        -9.541693119737083
      ],
      [
        "line",
        -9.541793068625724
      ],
      [
        "ere",
        -9.542111524422957
      ],
      [
        "Iy",
        -9.543129896184155
      ],
      [
        "Ic",
        -9.543189067899894
      ],
      [
        "ove",
        -9.54415838904115
      ],
      [
        "_him",
        -9.544496721352036
      ],
      [
        "_York",
        -9.544667025210831
      ],
      [
        "ind",
        -9.545026924559355
      ],
      [
        "lal",
        -9.545849940431605
      ],
      [
        "_million",
        -9.546268520702512
      ],
      [
        "_today",
        -9.546794182388542
      ],
      [
        "_sec",
        -9.548088976554812
      ],
      [
        "_pu",
        -9.548813008790912
      ],
      [
        "_group",
        -9.549407218578061
      ],
      [
        "ame",
        -9.549747255368013
      ],
      [
        "-it",
        -9.551009993119013
      ],
      [
        "lor",
        -9.551550299597775
      ],
      [
        "-M",
        -9.55227970897759
      ],
      [
        "Re",
        -9.552330921719312
      ],
      [
        "_cha",
        -9.55245741060809
      ],
      [
        "_ap",
        -9.55290058112393
      ],
      [
        "back",
        -9.553651002598944
      ],
      [
        "lit",
        -9.55726953027666
      ],
      [
        "dn",
        -9.557799235206957
      ],
      [
        "_Con",
        -9.55951753137441
      ],
      [
        "_Of",
        -9.55960229835291
      ],
      [
        "ond",
        -9.561641860382032
      ],
      [
        "ati",
        -9.561705803318633
      ],
      [
        "eu",
        -9.562501523474479
      ],
      [
        "-ed",
        -9.563991733705514
      ],
      [
        "after",
        -9.56410523317421
      ],
      [
        "bh",
        -9.56534488501791
      ],
      [
        "_lhe",
        -9.56683297020151
      ],
      [
        "_ith",
        -9.56878532674159
      ],
      [
        "_part",
        -9.571199192968429
      ],
      [
        "tel",
        -9.571636144841772
      ],
      [
        "_work",
        -9.573363051246686
      ],
      [
        "-C",
        -9.573999164077241
      ],
      [
        "_11",
        -9.575375904291814
      ],
      [
        "less",
        -9.577833896059488
      ],
      [
        "_ht",
        -9.578385754323108
      ],
      [
        "_Sp",
        -9.578793312297446
      ],
      [
        "ect",
        -9.578819932733357
      ],
      [
        "_Pro",
        -9.579135233673293
      ],
      [
        "_PC",
        -9.58071589901957
      ],
      [
        "'p",
        -9.581380527651216
      ],
      [
        "tu",
        -9.583555729900517
      ],
      [
        "_tn",
        -9.584434705398424
      ],
      [
        "act",
        -9.586122131508596
      ],
      [
        "_any",
        -9.586486862608805
      ],
      [
        "_see",
        -9.587534853752182
      ],
      [
        "but",
        -9.587647397953823
      ],
      [
        "-T",
        -9.58831583822532
      ],
      [
        "any",
        -9.589118144261796
      ],
      [
        "1t",
        -9.589550262988693
      ],
      [
        "_sai",
        -9.590044144145757
      ],
      [
        "ome",
        -9.590049557285425
      ],
      [
        "tre",
        -9.590815126539841
      ],
      [
        "i'n",
        -9.59176857706408
      ],
      [
        "ees",
        -9.591957179087867
      ],
      [
        "lat",
        -9.592192048023616
      ],
      [
        "mn",
        -9.592473107353847
      ],
      [
        "lly",
        -9.593025010759131
      ],
      [
        "_tihe",
        -9.593067428788455
      ],
      [
        "_Cl",
        -9.594224236085104
      ],
      [
        "_years",
        -9.597850183809014
      ],
      [
        "ui",
        -9.597965112691728
      ],
      [
        "10",
        -9.600346700231999
      ],
      [
        "_fe",
        -9.601631469141944
      ],
      [
        "ave",
        -9.603186606751851
      ],
      [
        "_Ra",
        -9.603707520860667
      ],
      [
        "ix",
        -9.603768535256776
      ],
      [
        "more",
        -9.603779768068854
      ],
      [
        "tb",
        -9.603952209141319
      ],
      [
        "_hav",
        -9.604684065544713
      ],
      [
        "-P",
        -9.606462257147268
      ],
      [
        "ose",
        -9.606910500394601
      ],
      [
        "inig",
        -9.610065625651472
      ],
      [
        "_AFP",
        -9.61120524208163
      ],
      [
        "tio",
        -9.611260950803041
      ],
      [
        "mt",
        -9.611830590741118
      ],
      [
        "urt",
        -9.612015213909931
      ],
      [
        "(AP)",
        -9.612111516910197
      ],
      [
        "_tw",
        -9.61219684667538
      ],
      [
        "ont",
        -9.612885403228645
      ],
      [
        "rs)",
        -9.612891183494606
      ],
      [
        "Co",
        -9.61322908894664
      ],
      [
        "_wor",
        -9.613360498831431
      ],
      [
        "_people",
        -9.613847500690593
      ],
      [
        "_tro",
        -9.613945809117796
      ],
      [
        "_Ta",
        -9.613977070678477
      ],
      [
        "eon",
        -9.61458799566759
      ],
      [
        "_oa",
        -9.614938070271684
      ],
      [
        "rth",
        -9.615959196666417
      ],
      [
        "ight",
        -9.616137630961438
      ],
      [
        "_ver",
        -9.616683364393609
      ],
      [
        "een",
        -9.617760933971777
      ],
      [
        "_(A",
        -9.617932577617188
      ],
      [
        "'to",
        -9.618022633766369
      ],
      [
        "lm",
        -9.619181422788339
      ],
      [
        "ito",
        -9.619534348967413
      ],
      [
        "wer",
        -9.620087005451637
      ],
      [
        "ess",
        -9.621432325743747
      ],
      [
        "e-s",
        -9.621595456118278
      ],
      [
        "-up",
        -9.622451860372415
      ],
      [
        "_cu",
        -9.622966714072938
      ],
      [
        "_Sox",
        -9.62352804252856
      ],
      [
        "lie",
        -9.623868013186453
      ],
      [
        "_Sta",
        -9.623999635098322
      ],
      [
        "ga",
        -9.624052169102015
      ],
      [
        "_Ci",
        -9.624530202302925
      ],
      [
        "_lin",
        -9.624838121726022
      ],
      [
        "_made",
        -9.627495402469904
      ],
      [
        "ght",
        -9.62879687820632
      ],
      [
        "ans",
        -9.629135699325715
      ],
      [
        "_ithe",
        -9.629457811950743
      ],
      [
        "~t",
        -9.63226361015857
      ],
      [
        "On",
        -9.633157948917578
      ],
      [
        "_big",
        -9.633396988240545
      ],
      [
        "ks",
        -9.633987553775732
      ],
      [
        "_o-f",
        -9.635372515589616
      ],
      [
        "ric",
        -9.635749858878928
      ],
      [
        "_Di",
        -9.636023175730788
      ],
      [
        "lia",
        -9.636451626394518
      ],
      [
        "ase",
        -9.640260956917341
      ],
      [
        "ual",
        -9.640354053954695
      ],
      [
        "_fl",
        -9.641487083922403
      ],
      [
        "ern",
        -9.643224644477995
      ],
      [
        "ean",
        -9.643761991868095
      ],
      [
        "rh",
        -9.643926393468377
      ],
      [
        "_bl",
        -9.645211538433504
      ],
      [
        "sion",
        -9.647254041012484
      ],
      [
        "ated",
        -9.648473008011242
      ],
      [
        "don",
        -9.649053438960795
      ],
      [
        "es,",
        -9.650764358771632
      ],
      [
        "_second",
        -9.651370716661534
      ],
      [
        "_what",
        -9.653769438993297
      ],
      [
        "_(AFP)",
        -9.65381845562271
      ],
      [
        "eis",
        -9.654178259470946
      ],
      [
        "els",
        -9.654268799963377
      ],
      [
        "Th",
        -9.65550032930626
      ],
      [
        "_12",
        -9.655615428836068
      ],
      [
        "tur",
        -9.656689366989342
      ],
      [
        "-al",
        -9.658191364091476
      ],
      [
        "rie",
        -9.658405065474309
      ],
      [
        "_rel",
        -9.658633707615333
      ],
      [
        "tch",
        -9.658708718611564
      ],
      [
        "eas",
        -9.659346146353613
      ],
      [
        "_En",
        -9.659773849939882
      ],
      [
        "iag",
        -9.65978067096064
      ],
      [
        "_lt",
        -9.664800702445529
      ],
      [
        "_open",
        -9.665652783309973
      ],
      [
        "uc",
        -9.666164322248676
      ],
      [
        "uy",
        -9.666856993327379
      ],
      [
        "ris",
        -9.669617014756373
      ],
      [
        "cer",
        -9.669673799919536
      ],
      [
        "tra",
        -9.669757964125756
      ],
      [
        "_Fa",
        -9.6705470589545
      ],
      [
        "es.",
        -9.672490111795845
      ],
      [
        "tro",
        -9.672516683770866
      ],
      [
        "tp",
        -9.674733703278271
      ],
      [
        "_But",
        -9.674973796048443
      ],
      [
        "ves",
        -9.674998989643516
      ],
      [
        "_prices",
        -9.675695247285734
      ],
      [
        "_Pre",
        -9.675875486366284
      ],
      [
        "_India",
        -9.676341119495202
      ],
      [
        "_vo",
        -9.676747460250159
      ],
      [
        "_under",
        -9.676857741874777
      ],
      [
        "_tra",
        -9.677062278131988
      ],
      [
        "o-n",
        -9.67744358884746
      ],
      [
        "iat",
        -9.677450087338194
      ],
      [
        "_John",
        -9.677935094168223
      ],
      [
        "inng",
        -9.679098760309394
      ],
      [
        "side",
        -9.679465363742636
      ],
      [
        "win",
        -9.679710921083846
      ],
      [
        "_Mar",
        -9.680010947891743
      ],
      [
        "'er",
        -9.680163582294636
      ],
      [
        "_Q",
        -9.681674362655084
      ],
      [
        "_ill",
        -9.682541216538807
      ],
      [
        "ree",
        -9.684015081951554
      ],
      [
        "_report",
        -9.684026116388047
      ],
      [
        "Le",
        -9.685011958575254
      ],
      [
        "eat",
        -9.686332063301698
      ],
      [
        "i.n",
        -9.687451394989395
      ],
      [
        "rge",
        -9.688014745308006
      ],
      [
        "i.ng",
        -9.688418643437505
      ],
      [
        "ries",
        -9.68868400211733
      ],
      [
        "_own",
        -9.68938292457569
      ],
      [
        "_Au",
        -9.689566843054093
      ],
      [
        "_third",
        -9.689645486046636
      ],
      [
        "had",
        -9.689685412092794
      ],
      [
        "_final",
        -9.691648947654457
      ],
      [
        "in.g",
        -9.693547445328576
      ],
      [
        "ox",
        -9.694388703506487
      ],
      [
        "er,",
        -9.694676825933762
      ],
      [
        "lion",
        -9.694965032875801
      ],
      [
        "-er",
        -9.696899803062411
      ],
      [
        "ther",
        -9.698094796057473
      ],
      [
        "_record",
        -9.698662614999847
      ],
      [
        "e.r",
        -9.69990028650554
      ],
      [
        "ound",
        -9.700061911229731
      ],
      [
        "_(Reu",
        -9.700300554343167
      ],
      [
        "_night",
        -9.700374381227384
      ],
      [
        "ded",
        -9.701222066422076
      ],
      [
        "_t.he",
        -9.70146963365735
      ],
      [
        "_sea",
        -9.701500520569631
      ],
      [
        "_head",
        -9.701670400352034
      ],
      [
        "lu",
        -9.701732432806068
      ],
      [
        "tbe",
        -9.702046798840719
      ],
      [
        "_th.e",
        -9.702369914362912
      ],
      [
        "ilg",
        -9.702857070895217
      ],
      [
        "cle",
        -9.70377502685929
      ],
      [
        "itg",
        -9.70391643547309
      ],
      [
        "_fro",
        -9.70420268548736
      ],
      [
        "ters",
        -9.7043385100269
      ],
      [
        "ful",
        -9.704370568252369
      ],
      [
        "'h",
        -9.705651144652396
      ],
      [
        "_ove",
        -9.706265615033026
      ],
      [
        "e'd",
        -9.707585752675756
      ],
      [
        "_Ia",
        -9.707649993835258
      ],
      [
        "_Mic",
        -9.707934696761095
      ],
      [
        "a-l",
        -9.708109881736945
      ],
      [
        "_sales",
        -9.708907570721252
      ],
      [
        "_-to",
        -9.7097454485146
      ],
      [
        "pro",
        -9.709968362382837
      ],
      [
        "sday",
        -9.710843578734416
      ],
      [
        "ign",
        -9.711702661677208
      ],
      [
        "fter",
        -9.712403537068102
      ],
      [
        "_pri",
        -9.713803340038353
      ],
      [
        "_put",
        -9.715582114769957
      ],
      [
        "-is",
        -9.71616713326551
      ],
      [
        "_move",
        -9.716841152652421
      ],
      [
        "nts",
        -9.716989567090659
      ],
      [
        "-year",
        -9.717091303930477
      ],
      [
        "_Or",
        -9.717677489006673
      ],
      [
        "_five",
        -9.717712295816492
      ],
      [
        "_fin",
        -9.717851208309028
      ],
      [
        "'g",
        -9.718958484083508
      ],
      [
        "_If",
        -9.71925913766027
      ],
      [
        "_fu",
        -9.721209229090604
      ],
      [
        "_Ex",
        -9.721641082232264
      ],
      [
        "-O",
        -9.722153674458696
      ],
      [
        "_sho",
        -9.723069971148526
      ],
      [
        "ock",
        -9.72307765168004
      ],
      [
        "fit",
        -9.723728464770353
      ],
      [
        "king",
        -9.726325017423534
      ],
      [
        "pi",
        -9.728625592037368
      ],
      [
        "_Ge",
        -9.728662717369659
      ],
      [
        "_ru",
        -9.729488335927876
      ],
      [
        "-se",
        -9.730631091994864
      ],
      [
        "_rd",
        -9.73073719070376
      ],
      [
        "sto",
        -9.730764504359335
      ],
      [
        "iet",
        -9.734035640078014
      ],
      [
        "ser",
        -9.734065430392338
      ],
      [
        "ath",
        -9.734235059520827
      ],
      [
        "ved",
        -9.73520080756171
      ],
      [
        "ory",
        -9.736556628252321
      ],
      [
        "_mil",
        -9.736831975882264
      ],
      [
        "ban",
        -9.738775926499038
      ],
      [
        "_six",
        -9.739206239576848
      ],
      [
        "iti",
        -9.739593677996359
      ],
      [
        "_Vi",
        -9.739827840494995
      ],
      [
        "'ed",
        -9.740036878381677
      ],
      [
        "_t.o",
        -9.740230239222313
      ],
      [
        "_Pl",
        -9.741616947965742
      ],
      [
        "'c",
        -9.74288989517768
      ],
      [
        "med",
        -9.743179643409313
      ],
      [
        "_key",
        -9.743675084792958
      ],
      [
        "_Ru",
        -9.74441302486771
      ],
      [
        "rch",
        -9.747481251153182
      ],
      [
        "_net",
        -9.748702474914136
      ],
      [
        "_cn",
        -9.7496184462231
      ],
      [
        "_mu",
        -9.750960924767655
      ],
      [
        "als",
        -9.751256690698249
      ],
      [
        "ff",
        -9.751303498070484
      ],
      [
        "rce",
        -9.751909135502798
      ],
      [
        "_ian",
        -9.752546485018282
      ],
      [
        "own",
        -9.752697688752752
      ],
      [
        "val",
        -9.754054804942644
      ],
      [
        "oin",
        -9.755545220860654
      ],
      [
        "aon",
        -9.755931104345553
      ],
      [
        "_par",
        -9.75731424022549
      ],
      [
        "20",
        -9.75831212575629
      ],
      [
        "_ry",
        -9.758360874676173
      ],
      [
        "_plans",
        -9.759374956811024
      ],
      [
        "_like",
        -9.759457976302723
      ],
      [
        "uo",
        -9.761171111039362
      ],
      [
        "mes",
        -9.761290457987354
      ],
      [
        "ren",
        -9.763024708899339
      ],
      [
        "_em",
        -9.763099441396154
      ],
      [
        "_Wo",
        -9.763395029811223
      ],
      [
        "_...",
        -9.764079577860592
      ],
      [
        "_market",
        -9.765240355319529
      ],
      [
        "_Iraqi",
        -9.765378840395933
      ],
      [
        "sk",
        -9.766989933525082
      ],
      [
        "_show",
        -9.767856506002445
      ],
      [
        "_Chi",
        -9.768350264058821
      ],
      [
        "eng",
        -9.768395285644836
      ],
      [
        "cu",
        -9.768493443279834
      ],
      [
        "lle",
        -9.76870670307293
      ],
      [
        "ech",
        -9.77321514074334
      ],
      [
        "_hy",
        -9.773818136772608
      ],
      [
        "ses",
        -9.775074762972416
      ],
      [
        "rat",
        -9.775250301945372
      ],
      [
        "_Sunday",
        -9.775369457578464
      ],
      [
        "New",
        -9.775370723512747
      ],
      [
        "a-n",
        -9.775877550667952
      ],
      [
        "_oif",
        -9.776100120872588
      ],
      [
        "_Pi",
        -9.776103714263371
      ],
      [
        "_Bank",
        -9.77656248762733
      ],
      [
        "_.the",
        -9.777292269219782
      ],
      [
        "Ch",
        -9.778070583672513
      ],
      [
        "1l",
        -9.780069391631713
      ],
      [
        "_Uni",
        -9.780103786736595
      ],
      [
        "_State",
        -9.780651354331457
      ],
      [
        "mb",
        -9.782129634280853
      ],
      [
        "_ito",
        -9.78296084431243
      ],
      [
        "_Open",
        -9.78334562510765
      ],
      [
        "car",
        -9.783939397101218
      ],
      [
        "_Int",
        -9.784602210361012
      ],
      [
        "orn",
        -9.785397406666904
      ],
      [
        "_aft",
        -9.785847379974024
      ],
      [
        "_ec",
        -9.787357542382
      ],
      [
        "_Bl",
        -9.787373136857907
      ],
      [
        "ally",
        -9.788158695215703
      ],
      [
        "_ope",
        -9.788576783509907
      ],
      [
        "-as",
        -9.788729223004697
      ],
      [
        "hin",
        -9.78922403160481
      ],
      [
        "'S",
        -9.789479833139435
      ],
      [
        "cks",
        -9.789600086458512
      ],
      [
        "urs",
        -9.791062169744073
      ],
      [
        "_ju",
        -9.792186634687965
      ],
      [
        "_low",
        -9.793216469543385
      ],
      [
        "_Thursday",
        -9.793930992043261
      ],
      [
        "rst",
        -9.797037476074287
      ],
      [
        "_rep",
        -9.797193937094175
      ],
      [
        "_South",
        -9.797232556431922
      ],
      [
        "cb",
        -9.798584015255237
      ],
      [
        "etr",
        -9.799236640908319
      ],
      [
        "oon",
        -9.799782878926916
      ],
      [
        "_(Re",
        -9.799903324797826
      ],
      [
        "nter",
        -9.80013346676601
      ],
      [
        "ein",
        -9.800331629981972
      ],
      [
        "_mak",
        -9.801349090756284
      ],
      [
        "_El",
        -9.801367211139834
      ],
      [
        ",the",
        -9.802018890993116
      ],
      [
        "mr",
        -9.80229260526597
      ],
      [
        "nst",
        -9.803293519553918
      ],
      [
        "ical",
        -9.803439897159247
      ],
      [
        "inn",
        -9.803774402704047
      ],
      [
        "_rhe",
        -9.804775108968595
      ],
      [
        "_wil",
        -9.80559830329072
      ],
      [
        "_start",
        -9.806257347170305
      ],
      [
        "_Japan",
        -9.807165297061538
      ],
      [
        "_Mu",
        -9.807321888031344
      ],
      [
        "elr",
        -9.808287064706647
      ],
      [
        "_18",
        -9.808489962801456
      ],
      [
        "=",
        -9.8089867174531
      ],
      [
        "ash",
        -9.809107441603532
      ],
      [
        "_price",
        -9.80941410402045
      ],
      [
        "e'r",
        -9.810073765099006
      ],
      [
        "ence",
        -9.810826217489776
      ],
      [
        "i'ng",
        -9.811549028292994
      ],
      [
        "fl",
        -9.811787463340357
      ],
      [
        "_again",
        -9.812393648246928
      ],
      [
        "_bomb",
        -9.813229049893213
      ],
      [
        "_15",
        -9.815054256541835
      ],
      [
        "tw",
        -9.815654091017699
      ],
      [
        "_how",
        -9.815715739708427
      ],
      [
        "nan",
        -9.816221608035834
      ],
      [
        "in'g",
        -9.816348790110142
      ],
      [
        "nch",
        -9.816776407212942
      ],
      [
        "_said.",
        -9.816782861321492
      ],
      [
        "irs",
        -9.817279569329088
      ],
      [
        "_ck",
        -9.818609271793417
      ],
      [
        "pan",
        -9.81901770772627
      ],
      [
        "ze",
        -9.81985474587739
      ],
      [
        "_'o",
        -9.819855886784751
      ],
      [
        "ob",
        -9.821102154179272
      ],
      [
        "-he",
        -9.822170476768328
      ],
      [
        "ger",
        -9.822426356522234
      ],
      [
        "_Can",
        -9.823098764820793
      ],
      [
        "_Iran",
        -9.824313337485087
      ],
      [
        "ike",
        -9.82433586907192
      ],
      [
        "_even",
        -9.825255872370985
      ],
      [
        "_.to",
        -9.825366087511362
      ],
      [
        "_Man",
        -9.825485784308306
      ],
      [
        "_Cr",
        -9.826600032979584
      ],
      [
        "_thc",
        -9.827909504369371
      ],
      [
        "_left",
        -9.828391483108856
      ],
      [
        "_least",
        -9.830827073630703
      ],
      [
        "1o",
        -9.830970075713545
      ],
      [
        "_Jo",
        -9.83136285626493
      ],
      [
        "rld",
        -9.831807457660446
      ],
      [
        "ons",
        -9.831813998108254
      ],
      [
        "_IT",
        -9.833434154917988
      ],
      [
        "_Ti",
        -9.833820724007053
      ],
      [
        "_ki",
        -9.834318350362775
      ],
      [
        "dia",
        -9.834765813785364
      ],
      [
        "_anl",
        -9.836831483249654
      ],
      [
        "irg",
        -9.83751964551733
      ],
      [
        "ness",
        -9.838116204027372
      ],
      [
        "_Win",
        -9.838136411052291
      ],
      [
        "ware",
        -9.838541318771073
      ],
      [
        "_tlo",
        -9.838543979878736
      ],
      [
        "rom",
        -9.838650418140343
      ],
      [
        "tg",
        -9.839802868597996
      ],
      [
        "_Reuters",
        -9.84031038600844
      ],
      [
        "test",
        -9.840325792410265
      ],
      [
        "ung",
        -9.8403488370705
      ],
      [
        "An",
        -9.841571479218322
      ],
      [
        "erd",
        -9.843686104950091
      ],
      [
        "_air",
        -9.844458821267825
      ],
      [
        "_Eu",
        -9.845896272966378
      ],
      [
        "_che",
        -9.846699794509675
      ],
      [
        "cor",
        -9.84703506385673
      ],
      [
        "y,",
        -9.847562294805112
      ],
      [
        "Ion",
        -9.847690836926418
      ],
      [
        "ope",
        -9.848463781803733
      ],
      [
        "_TV",
        -9.848538361725803
      ],
      [
        "~d",
        -9.849790996796632
      ],
      [
        "_Car",
        -9.849811278537643
      ],
      [
        "ki",
        -9.849999696663613
      ],
      [
        "_hu",
        -9.850256178287756
      ],
      [
        "ilng",
        -9.85115674318348
      ],
      [
        "-B",
        -9.851450663271521
      ],
      [
        "mar",
        -9.85192012687182
      ],
      [
        "_Two",
        -9.853738374651115
      ],
      [
        "ute",
        -9.853869237067265
      ],
      [
        "_kill",
        -9.854013664724388
      ],
      [
        "oft",
        -9.85567817047303
      ],
      [
        "den",
        -9.85602176176367
      ],
      [
        "_whe",
        -9.856120980448036
      ],
      [
        "gs",
        -9.856278800993941
      ],
      [
        "urn",
        -9.85639391731317
      ],
      [
        "lk",
        -9.85674604833337
      ],
      [
        "aer",
        -9.856999513434722
      ],
      [
        "_thle",
        -9.85786661708702
      ],
      [
        "time",
        -9.859045131946743
      ],
      [
        "gn",
        -9.859491139103309
      ],
      [
        "ays",
        -9.860533450308619
      ],
      [
        "_Net",
        -9.861949348971194
      ],
      [
        "ihe",
        -9.86201974201605
      ],
      [
        "_mon",
        -9.862466237929432
      ],
      [
        "_job",
        -9.86518870987053
      ],
      [
        "_tre",
        -9.865229123140058
      ],
      [
        "ert",
        -9.865776754855162
      ],
      [
        "-D",
        -9.86611878620138
      ],
      [
        "sit",
        -9.866724677755604
      ],
      [
        "oer",
        -9.866751687072018
      ],
      [
        "intg",
        -9.866868431881933
      ],
      [
        "_wn",
        -9.86721748877032
      ],
      [
        "irn",
        -9.86769262004007
      ],
      [
        "Se",
        -9.868496938458833
      ],
      [
        "_Af",
        -9.868824452876776
      ],
      [
        "_percent",
        -9.870918763886271
      ],
      [
        "last",
        -9.8710957554099
      ],
      [
        "their",
        -9.872432899079605
      ],
      [
        "ita",
        -9.872537438020803
      ],
      [
        "'of",
        -9.87336048810306
      ],
      [
        "nic",
        -9.874220631007447
      ],
      [
        "etd",
        -9.875749933241048
      ],
      [
        "iday",
        -9.87687449660833
      ],
      [
        "fd",
        -9.877116097802482
      ],
      [
        "'A",
        -9.877737623762028
      ],
      [
        "cre",
        -9.877965727295445
      ],
      [
        "_coach",
        -9.879474589607469
      ],
      [
        "nday",
        -9.879714766838891
      ],
      [
        "tte",
        -9.880675287409627
      ],
      [
        "inlg",
        -9.880742318771741
      ],
      [
        "_state",
        -9.880748057521078
      ],
      [
        "ica",
        -9.88082273208214
      ],
      [
        "tm",
        -9.880931424901446
      ],
      [
        "ett",
        -9.882519413988035
      ],
      [
        "ale",
        -9.882698600825425
      ],
      [
        "_ip",
        -9.8834148615316
      ],
      [
        "ult",
        -9.884002017914145
      ],
      [
        "rea",
        -9.885079313933733
      ],
      [
        "_Sc",
        -9.885315339158176
      ],
      [
        "_13",
        -9.885949624858405
      ],
      [
        "ers)",
        -9.885970698775136
      ],
      [
        "_Fri",
        -9.888131781032204
      ],
      [
        "ord",
        -9.88864475270805
      ],
      [
        "_Bi",
        -9.888652013185196
      ],
      [
        "tions",
        -9.889698890600515
      ],
      [
        "arl",
        -9.891458805846966
      ],
      [
        "_nn",
        -9.891504257259552
      ],
      [
        "_Microsoft",
        -9.891986750734041
      ],
      [
        "unt",
        -9.892051594343936
      ],
      [
        "-R",
        -9.892059757656229
      ],
      [
        "_-in",
        -9.892265697250929
      ],
      [
        "rly",
        -9.893144876602149
      ],
      [
        "ists",
        -9.893521613203625
      ],
      [
        "_One",
        -9.89389441173116
      ],
      [
        "_firm",
        -9.893920737653243
      ],
      [
        "_Z",
        -9.894291761500547
      ],
      [
        "hing",
        -9.894470531953813
      ],
      [
        "rin",
        -9.894916678042279
      ],
      [
        "rv",
        -9.89563953041884
      ],
      [
        "tho",
        -9.895680080676446
      ],
      [
        "pre",
        -9.895824913501325
      ],
      [
        "ez",
        -9.895933525657705
      ],
      [
        "lre",
        -9.896398621063668
      ],
      [
        "_Hu",
        -9.897208384288762
      ],
      [
        "_season",
        -9.89750729520059
      ],
      [
        "_quo",
        -9.89765954053206
      ],
      [
        "_near",
        -9.897752314661872
      ],
      [
        "ios",
        -9.89834402371736
      ],
      [
        "bal",
        -9.898889328694686
      ],
      [
        "uch",
        -9.898911373084374
      ],
      [
        "ull",
        -9.899125043253969
      ],
      [
        "pp",
        -9.899356809329513
      ],
      [
        "rit",
        -9.89979683950478
      ],
      [
        "_cont",
        -9.900038319485187
      ],
      [
        "ues",
        -9.901515069070372
      ],
      [
        "ould",
        -9.901679597053612
      ],
      [
        "aq",
        -9.90195191414939
      ],
      [
        "iel",
        -9.902458345837875
      ],
      [
        "_tlhe",
        -9.902802033534604
      ],
      [
        "_gro",
        -9.902995631870894
      ],
      [
        "ils",
        -9.903079686049864
      ],
      [
        "_maker",
        -9.90321790723308
      ],
      [
        "_star",
        -9.903328582163484
      ],
      [
        "ize",
        -9.903494929701637
      ],
      [
        "At",
        -9.90384067332987
      ],
      [
        "_killed",
        -9.903926542775094
      ],
      [
        "_bas",
        -9.904038198158666
      ],
      [
        "dd",
        -9.904074528045555
      ],
      [
        "P)",
        -9.904403898374369
      ],
      [
        "_th'e",
        -9.90502368629826
      ],
      [
        "_est",
        -9.905717566284007
      ],
      [
        "_Bri",
        -9.906541696019834
      ],
      [
        "ort",
        -9.906782433275634
      ],
      [
        "_far",
        -9.907425354486602
      ],
      [
        "oes",
        -9.90779665447526
      ],
      [
        "'es",
        -9.907849937733491
      ],
      [
        "ker",
        -9.90797908709245
      ],
      [
        "top",
        -9.908683788365224
      ],
      [
        "Ma",
        -9.908766660045835
      ],
      [
        "_(Reut",
        -9.909293361418902
      ],
      [
        "_200",
        -9.909526665023392
      ],
      [
        "_Com",
        -9.909669147311877
      ],
      [
        "_acc",
        -9.909877838272486
      ],
      [
        "get",
        -9.91036684531943
      ],
      [
        "xt",
        -9.911409156068252
      ],
      [
        "isg",
        -9.912637354308515
      ],
      [
        "iln",
        -9.913246876319942
      ],
      [
        "_ser",
        -9.913330587353329
      ],
      [
        "_West",
        -9.913776004943902
      ],
      [
        "hip",
        -9.915812730517121
      ],
      [
        "par",
        -9.9158850812248
      ],
      [
        "_Us",
        -9.91626118814693
      ],
      [
        "anl",
        -9.916262499716346
      ],
      [
        "_Ce",
        -9.916416279282663
      ],
      [
        "gy",
        -9.916723826005441
      ],
      [
        "soft",
        -9.91719819506215
      ],
      [
        "_-of",
        -9.917974947918454
      ],
      [
        "down",
        -9.918063031350744
      ],
      [
        "_major",
        -9.918669600251093
      ],
      [
        "Ig",
        -9.92059251987006
      ],
      [
        "ait",
        -9.920622327901217
      ],
      [
        "tng",
        -9.921044343964546
      ],
      [
        "Al",
        -9.9215402373263
      ],
      [
        "ient",
        -9.921858895232148
      ],
      [
        "pen",
        -9.922331749425826
      ],
      [
        "_Out",
        -9.922473621611509
      ],
      [
        "U.S.",
        -9.92320763114154
      ],
      [
        "y.",
        -9.923544235919206
      ],
      [
        "_tu",
        -9.924465087961114
      ],
      [
        "iit",
        -9.925464273613409
      ],
      [
        "pla",
        -9.925663226350444
      ],
      [
        "_ret",
        -9.926214659276699
      ],
      [
        "iic",
        -9.927185683906114
      ],
      [
        "_ph",
        -9.927606331190905
      ],
      [
        "ird",
        -9.928684205807508
      ],
      [
        "uf",
        -9.929120288883805
      ],
      [
        "bed",
        -9.929227142142974
      ],
      [
        "_offer",
        -9.929235741971013
      ],
      [
        "_fer",
        -9.929246215294416
      ],
      [
        "_men",
        -9.929316546560887
      ],
      [
        "n't",
        -9.93009357006095
      ],
      [
        "_Group",
        -9.9304819208416
      ],
      [
        "Ar",
        -9.930744810886072
      ],
      [
        "har",
        -9.931589867600668
      ],
      [
        "len",
        -9.931652866185786
      ],
      [
        "_Cu",
        -9.93187780746778
      ],
      [
        "_late",
        -9.931955851402552
      ],
      [
        "ions",
        -9.932077010335078
      ],
      [
        "-be",
        -9.932078494522901
      ],
      [
        "_chief",
        -9.933228223531792
      ],
      [
        "eut",
        -9.933266828729435
      ],
      [
        "_many",
        -9.933429836586821
      ],
      [
        "_16",
        -9.93380504918036
      ],
      [
        "put",
        -9.934038396308097
      ],
      [
        "_news",
        -9.934345411384717
      ],
      [
        "gi",
        -9.93505562616824
      ],
      [
        "_ev",
        -9.935448138620412
      ],
      [
        "_oin",
        -9.936096637323057
      ],
      [
        "ward",
        -9.936339082223235
      ],
      [
        "_t'he",
        -9.93692356904696
      ],
      [
        "'an",
        -9.939352057069382
      ],
      [
        "ugh",
        -9.940367320518785
      ],
      [
        "ush",
        -9.940661178185852
      ],
      [
        ";e",
        -9.940869260780389
      ],
      [
        "_las",
        -9.940872379404631
      ],
      [
        "cut",
        -9.940888157143014
      ],
      [
        "ition",
        -9.94258857600314
      ],
      [
        "iS",
        -9.943038511125106
      ],
      [
        "_9;s",
        -9.943240704774226
      ],
      [
        "fn",
        -9.943529085158477
      ],
      [
        "_Ko",
        -9.943804205034212
      ],
      [
        "itng",
        -9.94384730405847
      ],
      [
        "t;",
        -9.944367311694482
      ],
      [
        "_und",
        -9.945629043885553
      ],
      [
        "_cal",
        -9.945991646869945
      ],
      [
        "ited",
        -9.94609287009282
      ],
      [
        "eek",
        -9.946620023087245
      ],
      [
        "ael",
        -9.94739226771416
      ],
      [
        "_ty",
        -9.94752449720169
      ],
      [
        "ino",
        -9.948508649967817
      ],
      [
        "_law",
        -9.948617304439374
      ],
      [
        "p.",
        -9.948633532654624
      ],
      [
        "ices",
        -9.949087063517027
      ],
      [
        "hen",
        -9.949432598645496
      ],
      [
        "che",
        -9.949541062732045
      ],
      [
        "uit",
        -9.949850828674577
      ],
      [
        "iot",
        -9.950270691237808
      ],
      [
        "_&lt;A",
        -9.950704709540627
      ],
      [
        "_Ind",
        -9.9510915985107
      ],
      [
        "lis",
        -9.951252798656903
      ],
      [
        "_talks",
        -9.953839472172639
      ],
      [
        "'re",
        -9.954896055921282
      ],
      [
        "year",
        -9.955023007520257
      ],
      [
        "_May",
        -9.955084551864944
      ],
      [
        "_sha",
        -9.956628504253983
      ],
      [
        "_tion",
        -9.958345448824426
      ],
      [
        "Or",
        -9.958524722214822
      ],
      [
        "ough",
        -9.959359781587354
      ],
      [
        "_giant",
        -9.96146328640074
      ],
      [
        "_iof",
        -9.9621286486964
      ],
      [
        "_pol",
        -9.962672379306238
      ],
      [
        "1d",
        -9.964216334084021
      ],
      [
        "_thte",
        -9.964761512799175
      ],
      [
        "~r",
        -9.966095851793948
      ],
      [
        "'is",
        -9.966807471880891
      ],
      [
        "ink",
        -9.967979282572875
      ],
      [
        "_long",
        -9.96806494780169
      ],
      [
        "_Ol",
        -9.9682965569898
      ],
      [
        "Mo",
        -9.968882405607298
      ],
      [
        "-es",
        -9.969036941889973
      ],
      [
        "ini",
        -9.969630363688276
      ],
      [
        "-en",
        -9.969890355598217
      ],
      [
        "nat",
        -9.971068440059035
      ],
      [
        "who",
        -9.971971205010014
      ],
      [
        "sof",
        -9.972328686820266
      ],
      [
        "'w",
        -9.972723299532271
      ],
      [
        "las",
        -9.972910322438311
      ],
      [
        "du",
        -9.973047564798815
      ],
      [
        "_app",
        -9.973122877885437
      ],
      [
        "_t;",
        -9.97350955696621
      ],
      [
        "_i.n",
        -9.974242392933125
      ],
      [
        "We",
        -9.974281291401295
      ],
      [
        "ork",
        -9.975469738735486
      ],
      [
        "-le",
        -9.976025919835195
      ],
      [
        "rts",
        -9.976124012681755
      ],
      [
        "_mor",
        -9.97641514560787
      ],
      [
        "oll",
        -9.978028392696114
      ],
      [
        "aft",
        -9.978228179891936
      ],
      [
        "_ft",
        -9.978245393415303
      ],
      [
        "tay",
        -9.978502675425943
      ],
      [
        "ray",
        -9.978597957195344
      ],
      [
        "_Ri",
        -9.978790339290205
      ],
      [
        "let",
        -9.978881661172469
      ],
      [
        "_beat",
        -9.979095778422266
      ],
      [
        "min",
        -9.979578835594033
      ],
      [
        "ving",
        -9.979689189258977
      ],
      [
        "-E",
        -9.97993883892669
      ],
      [
        "_t'o",
        -9.980579007920426
      ],
      [
        "_clo",
        -9.980643233364805
      ],
      [
        "lea",
        -9.980693299208612
      ],
      [
        "nto",
        -9.98069732797186
      ],
      [
        "&gt;",
        -9.981425908958965
      ],
      [
        "_Fl",
        -9.982101992125624
      ],
      [
        "ates",
        -9.98234006838685
      ],
      [
        "_city",
        -9.982565963285904
      ],
      [
        "_lthe",
        -9.982825804458137
      ],
      [
        "tto",
        -9.982889239165967
      ],
      [
        "_loss",
        -9.982897098183503
      ],
      [
        "_lto",
        -9.98326868679763
      ],
      [
        "_still",
        -9.98356836895065
      ],
      [
        "lve",
        -9.983650399883661
      ],
      [
        "ges",
        -9.98365758950774
      ],
      [
        "De",
        -9.984461679935979
      ],
      [
        "_Hi",
        -9.984875995835333
      ],
      [
        "_data",
        -9.985127898574033
      ],
      [
        "_17",
        -9.985145020571913
      ],
      [
        "aes",
        -9.985223653451824
      ],
      [
        "tter",
        -9.985245306995877
      ],
      [
        "_whi",
        -9.985300321832055
      ],
      [
        "nds",
        -9.985311544172028
      ],
      [
        "_Wednesday",
        -9.985648127344941
      ],
      [
        "_only",
        -9.98598468201312
      ],
      [
        "To",
        -9.986919921798929
      ],
      [
        "_free",
        -9.98745199387675
      ],
      [
        "_share",
        -9.98768887558025
      ],
      [
        "tive",
        -9.988776299371345
      ],
      [
        "_14",
        -9.990487589776983
      ],
      [
        "'m",
        -9.991477741998825
      ],
      [
        "ery",
        -9.992164552933858
      ],
      [
        "_yea",
        -9.992567959103175
      ],
      [
        "itn",
        -9.993143069409843
      ],
      [
        "_.in",
        -9.993468014544884
      ],
      [
        "ction",
        -9.993742344389117
      ],
      [
        "_iln",
        -9.993789891358666
      ],
      [
        "hit",
        -9.994792199255965
      ],
      [
        "ithe",
        -9.995401748604603
      ],
      [
        "_before",
        -9.995626593356299
      ],
      [
        "non",
        -9.996296515196093
      ],
      [
        "_va",
        -9.996772732782407
      ],
      [
        "_Google",
        -9.996906460886086
      ],
      [
        ".com",
        -9.997172480085204
      ],
      [
        "_ih",
        -9.997685612493424
      ],
      [
        "ever",
        -9.998029224466588
      ],
      [
        "np",
        -9.998319451748348
      ],
      [
        "_Gaza",
        -9.999747469028566
      ],
      [
        "ney",
        -9.999997143977433
      ],
      [
        "ax",
        -10.000245140288804
      ],
      [
        "_tf",
        -10.001462092719244
      ],
      [
        "ari",
        -10.00158394803682
      ],
      [
        "_ib",
        -10.00234475754674
      ],
      [
        "_tak",
        -10.002937398782711
      ],
      [
        "rday",
        -10.003870011441549
      ],
      [
        "_month",
        -10.00412667863149
      ],
      [
        "_30",
        -10.004274583470723
      ],
      [
        "Z",
        -10.004495464936006
      ],
      [
        "_since",
        -10.004539925544954
      ],
      [
        "tri",
        -10.004903960737732
      ],
      [
        "_Fe",
        -10.005008931809611
      ],
      [
        "_ue",
        -10.005055149231762
      ],
      [
        "des",
        -10.005474997197577
      ],
      [
        "_lf",
        -10.007686610932781
      ],
      [
        "ria",
        -10.008226311787137
      ],
      [
        "_pt",
        -10.008431969136279
      ],
      [
        "aed",
        -10.008543474742918
      ],
      [
        "za",
        -10.00921513735979
      ],
      [
        "_Ai",
        -10.009436006005998
      ],
      [
        "vy",
        -10.009817841991929
      ],
      [
        "gue",
        -10.00982935059415
      ],
      [
        "wh",
        -10.010210916938092
      ],
      [
        "_ban",
        -10.010572222589444
      ],
      [
        "hu",
        -10.011444894458931
      ],
      [
        "_\\$1",
        -10.01236240686362
      ],
      [
        "_ree",
        -10.012605296367397
      ],
      [
        "ret",
        -10.012967582449441
      ],
      [
        "Ip",
        -10.013907829150773
      ],
      [
        "ank",
        -10.014868070645953
      ],
      [
        "into",
        -10.015795319838046
      ],
      [
        "fy",
        -10.015892460930782
      ],
      [
        "-N",
        -10.01648877065945
      ],
      [
        "than",
        -10.017120593567897
      ],
      [
        "ham",
        -10.01759871014691
      ],
      [
        "ias",
        -10.017736908000643
      ],
      [
        "day.",
        -10.01807170025102
      ],
      [
        "ass",
        -10.018231723617737
      ],
      [
        "were",
        -10.018713201886273
      ],
      [
        "_Not",
        -10.019380508201888
      ],
      [
        "uh",
        -10.020023809402318
      ],
      [
        "uter",
        -10.020120310492782
      ],
      [
        "dent",
        -10.020425580509702
      ],
      [
        "rle",
        -10.020914083234468
      ],
      [
        "gl",
        -10.021438957266344
      ],
      [
        "atio",
        -10.021574311561935
      ],
      [
        "_them",
        -10.022039872458102
      ],
      [
        "_rea",
        -10.022145622478448
      ],
      [
        "_North",
        -10.02216889115375
      ],
      [
        "bel",
        -10.022309803645232
      ],
      [
        "_court",
        -10.022335581395254
      ],
      [
        "_face",
        -10.022729532017857
      ],
      [
        "_Cor",
        -10.022822416388985
      ],
      [
        "_Ph",
        -10.023066064431223
      ],
      [
        "_After",
        -10.023539462937894
      ],
      [
        "ture",
        -10.026792628785428
      ],
      [
        "_profit",
        -10.02831661638243
      ],
      [
        "_def",
        -10.028334606850066
      ],
      [
        "oun",
        -10.029260379953401
      ],
      [
        "iis",
        -10.029435957687603
      ],
      [
        "tha",
        -10.029658319431313
      ],
      [
        "Ca",
        -10.030099075258368
      ],
      [
        "ild",
        -10.030474444059255
      ],
      [
        "_Io",
        -10.031177683168522
      ],
      [
        "bat",
        -10.031382144905379
      ],
      [
        "work",
        -10.031420493107637
      ],
      [
        "ball",
        -10.03225110689807
      ],
      [
        "ote",
        -10.032328712086882
      ],
      [
        "_Cha",
        -10.03375365946712
      ],
      [
        "_U.",
        -10.033800442562189
      ],
      [
        "arn",
        -10.03449933848081
      ],
      [
        "oen",
        -10.034598366029705
      ],
      [
        "ot;",
        -10.034957715755574
      ],
      [
        "_stock",
        -10.035049486180146
      ],
      [
        "_call",
        -10.035434529653546
      ],
      [
        "_ant",
        -10.035699223375104
      ],
      [
        "eet",
        -10.036120078664837
      ],
      [
        "bor",
        -10.036882420419797
      ],
      [
        "tory",
        -10.037337712696118
      ],
      [
        "rate",
        -10.03769673846057
      ],
      [
        "_'the",
        -10.037991717524594
      ],
      [
        "ship",
        -10.038116651357896
      ],
      [
        "_wer",
        -10.038273362143968
      ],
      [
        "arch",
        -10.038335834319302
      ],
      [
        "_Inter",
        -10.038556896301936
      ],
      [
        "-or",
        -10.038734904819222
      ],
      [
        "_25",
        -10.038956081443647
      ],
      [
        "ineg",
        -10.04082089287321
      ],
      [
        "lead",
        -10.041859106151087
      ],
      [
        "_All",
        -10.043235671836111
      ],
      [
        "ium",
        -10.044021128409593
      ],
      [
        "ison",
        -10.045194731524333
      ],
      [
        "nu",
        -10.045418727991134
      ],
      [
        "lte",
        -10.045923679027814
      ],
      [
        "iou",
        -10.04694301527901
      ],
      [
        "1n",
        -10.047005500695875
      ],
      [
        "Ies",
        -10.048045992182708
      ],
      [
        "_early",
        -10.049684751667654
      ],
      [
        "_sell",
        -10.05002133366656
      ],
      [
        "_Tue",
        -10.050815166802732
      ],
      [
        "_Game",
        -10.051841196093498
      ],
      [
        "ph",
        -10.05311905187061
      ],
      [
        "eve",
        -10.05351261483247
      ],
      [
        "_dea",
        -10.054568965409247
      ],
      [
        "bhe",
        -10.054791744315054
      ],
      [
        "_ers",
        -10.055144418333942
      ],
      [
        "mor",
        -10.055623003800306
      ],
      [
        "rre",
        -10.055702424931077
      ],
      [
        "nor",
        -10.056496452909315
      ],
      [
        "_Apple",
        -10.056627686728621
      ],
      [
        "gt",
        -10.057058560129049
      ],
      [
        "1a",
        -10.05752970916566
      ],
      [
        "_Thu",
        -10.058052733746873
      ],
      [
        "cord",
        -10.0582291007028
      ],
      [
        "_Ni",
        -10.059697996765138
      ],
      [
        "esd",
        -10.05983536750178
      ],
      [
        "_Min",
        -10.05996574099875
      ],
      [
        "50",
        -10.061054204339035
      ],
      [
        "amp",
        -10.061179894486028
      ],
      [
        "~a",
        -10.061390687327282
      ],
      [
        "'al",
        -10.061582427133317
      ],
      [
        "_test",
        -10.06218689469527
      ],
      [
        "_former",
        -10.062240103869492
      ],
      [
        "_lat",
        -10.063082980436313
      ],
      [
        "_mark",
        -10.063315891585464
      ],
      [
        "_amp;",
        -10.063735137853097
      ],
      [
        "pu",
        -10.064242628721543
      ],
      [
        "_Ke",
        -10.064783193321437
      ],
      [
        "_Europe",
        -10.064819978020548
      ],
      [
        "ieng",
        -10.064870729196656
      ],
      [
        "_music",
        -10.064986770658402
      ],
      [
        "_o.f",
        -10.065360647993874
      ],
      [
        "mber",
        -10.06613898157368
      ],
      [
        "_nto",
        -10.06674087672052
      ],
      [
        "lled",
        -10.067328768425106
      ],
      [
        "_i'n",
        -10.06734654175023
      ],
      [
        "_Prime",
        -10.06757832497946
      ],
      [
        "_age",
        -10.067705595705174
      ],
      [
        "Ier",
        -10.067860184243722
      ],
      [
        "nng",
        -10.06828936938184
      ],
      [
        "say",
        -10.068899083073864
      ],
      [
        "Iraq",
        -10.069039644615113
      ],
      [
        "_sign",
        -10.069186047704884
      ],
      [
        "nia",
        -10.069371852962917
      ],
      [
        "this",
        -10.069773347565487
      ],
      [
        "_led",
        -10.070699096428832
      ],
      [
        "_line",
        -10.070968669854267
      ],
      [
        "_o-n",
        -10.071471833499892
      ],
      [
        "_jo",
        -10.071600765778195
      ],
      [
        "first",
        -10.072082328954194
      ],
      [
        "ook",
        -10.072182536056442
      ],
      [
        "late",
        -10.072653984737311
      ],
      [
        "oan",
        -10.072795341567954
      ],
      [
        "ece",
        -10.072896412236897
      ],
      [
        "tain",
        -10.07324918190136
      ],
      [
        "ald",
        -10.0732567888573
      ],
      [
        "ations",
        -10.07326878000223
      ],
      [
        "_mar",
        -10.073953371587763
      ],
      [
        "_Wall",
        -10.07470366405122
      ],
      [
        "_ran",
        -10.074762036880935
      ],
      [
        "_rose",
        -10.075516108154568
      ],
      [
        "md",
        -10.075972626605534
      ],
      [
        "_afte",
        -10.076639198805228
      ],
      [
        "_olf",
        -10.077669924913884
      ],
      [
        "_teo",
        -10.077822610769193
      ],
      [
        "_found",
        -10.07838575962257
      ],
      [
        "_inter",
        -10.078425660628783
      ],
      [
        "_Sha",
        -10.078649059155374
      ],
      [
        "-te",
        -10.0786618984929
      ],
      [
        "_min",
        -10.07978759744015
      ],
      [
        "_while",
        -10.080055932857826
      ],
      [
        "iia",
        -10.08025868293484
      ],
      [
        "oup",
        -10.080340074218864
      ],
      [
        "_ind",
        -10.080770537778498
      ],
      [
        "_ms",
        -10.08079537218686
      ],
      [
        "hal",
        -10.081368504639965
      ],
      [
        "_son",
        -10.08151801188674
      ],
      [
        "_od",
        -10.0825534123478
      ],
      [
        "_NASA",
        -10.084506302221875
      ],
      [
        "_han",
        -10.084885066336783
      ],
      [
        "ket",
        -10.085134919228036
      ],
      [
        "vie",
        -10.085664498442823
      ],
      [
        "nis",
        -10.085760494889644
      ],
      [
        "ene",
        -10.086011692948496
      ],
      [
        "_'to",
        -10.086314374003715
      ],
      [
        "_Wed",
        -10.086637422902111
      ],
      [
        "head",
        -10.087169478264473
      ],
      [
        "-co",
        -10.087475022641442
      ],
      [
        "_&lt;",
        -10.088390995545762
      ],
      [
        "_Wh",
        -10.088462983942074
      ],
      [
        "isn",
        -10.089333874952437
      ],
      [
        "_gold",
        -10.089581431604163
      ],
      [
        "_past",
        -10.090180775131076
      ],
      [
        "1r",
        -10.09038544521519
      ],
      [
        "come",
        -10.090467921972024
      ],
      [
        "tern",
        -10.090519771754234
      ],
      [
        "_lor",
        -10.090936177273573
      ],
      [
        "_CEO",
        -10.090998584016402
      ],
      [
        "iter",
        -10.09100747806704
      ],
      [
        "vis",
        -10.091046055405199
      ],
      [
        "_Intel",
        -10.092318749656172
      ],
      [
        "fu",
        -10.093515416881784
      ],
      [
        "_21",
        -10.093656559280141
      ],
      [
        "_chi",
        -10.094494674634824
      ],
      [
        "ais",
        -10.095682154548083
      ],
      [
        "oit",
        -10.096313384381993
      ],
      [
        "ement",
        -10.096870502361162
      ],
      [
        "&l",
        -10.097419173825752
      ],
      [
        "_ks",
        -10.097835261637298
      ],
      [
        "_billion",
        -10.097872198396733
      ],
      [
        "_Sl",
        -10.097885754082206
      ],
      [
        "tia",
        -10.098058157977853
      ],
      [
        "_othe",
        -10.098607539803744
      ],
      [
        "_bn",
        -10.098937958459633
      ],
      [
        "_Sat",
        -10.099292837261324
      ],
      [
        "ark",
        -10.099293625813065
      ],
      [
        "_otf",
        -10.099396971727607
      ],
      [
        "_ain",
        -10.101700234080212
      ],
      [
        "o.n",
        -10.102075129749092
      ],
      [
        "game",
        -10.102264764484083
      ],
      [
        "tir",
        -10.102435960072057
      ],
      [
        "~n",
        -10.103377068563304
      ],
      [
        "ales",
        -10.104830009118759
      ],
      [
        "_old",
        -10.10493962417851
      ],
      [
        "aet",
        -10.10532062251687
      ],
      [
        "other",
        -10.106701441441988
      ],
      [
        "eral",
        -10.106719687667859
      ],
      [
        "_spe",
        -10.106775027130304
      ],
      [
        "ttle",
        -10.108319094764287
      ],
      [
        "quot;",
        -10.109003765652556
      ],
      [
        "mis",
        -10.109785799214237
      ],
      [
        "ged",
        -10.11000682026609
      ],
      [
        "_Wedn",
        -10.110415930086305
      ],
      [
        "_leader",
        -10.110625794594611
      ],
      [
        "eor",
        -10.110866742033172
      ],
      [
        "_sf",
        -10.111385661506109
      ],
      [
        "_tc",
        -10.111407441945868
      ],
      [
        "_quarter",
        -10.112631896941267
      ],
      [
        ",y",
        -10.114100639173873
      ],
      [
        "lad",
        -10.114159195523536
      ],
      [
        "_Ju",
        -10.114532167104201
      ],
      [
        "_bh",
        -10.114649000736453
      ],
      [
        "lhe",
        -10.114874345395446
      ],
      [
        "_AT",
        -10.115479832718403
      ],
      [
        "_Inc",
        -10.115538271727702
      ],
      [
        "cial",
        -10.116352978821375
      ],
      [
        "iw",
        -10.116435559755562
      ],
      [
        "_Gu",
        -10.116525591272424
      ],
      [
        "part",
        -10.116632177996337
      ],
      [
        "lts",
        -10.117019704537057
      ],
      [
        "Inc.",
        -10.117176054872184
      ],
      [
        "_tri",
        -10.117979933888508
      ],
      [
        "AN",
        -10.118511431795795
      ],
      [
        "uk",
        -10.119121730829793
      ],
      [
        "_phone",
        -10.119721970985418
      ],
      [
        "nit",
        -10.120459173639867
      ],
      [
        "eli",
        -10.120497046986475
      ],
      [
        "_aga",
        -10.121707299713297
      ],
      [
        "_fou",
        -10.122604190649358
      ],
      [
        "oal",
        -10.12375086690917
      ],
      [
        "vr",
        -10.124447977188353
      ],
      [
        "_Inte",
        -10.124632637791084
      ],
      [
        "era",
        -10.124834317332166
      ],
      [
        "ext",
        -10.126727461532678
      ],
      [
        "_ths",
        -10.126980889665793
      ],
      [
        "_ann",
        -10.127116796253656
      ],
      [
        "_hand",
        -10.128116155459516
      ],
      [
        ".on",
        -10.128482479520455
      ],
      [
        "how",
        -10.128666288530994
      ],
      [
        "-day",
        -10.128772151256015
      ],
      [
        "iar",
        -10.12929366052277
      ],
      [
        "sen",
        -10.129504225631452
      ],
      [
        "oss",
        -10.129585665034542
      ],
      [
        "a'l",
        -10.129795682594905
      ],
      [
        "_victory",
        -10.129796614346548
      ],
      [
        "rest",
        -10.131478092494827
      ],
      [
        "ties",
        -10.1315612351438
      ],
      [
        "iled",
        -10.131870628237436
      ],
      [
        "cted",
        -10.132168214005368
      ],
      [
        "ears",
        -10.133986406831442
      ],
      [
        "_Ad",
        -10.134149282827359
      ],
      [
        "mat",
        -10.134283269705897
      ],
      [
        "rity",
        -10.134513048571492
      ],
      [
        "sta",
        -10.134558706766146
      ],
      [
        ";t",
        -10.134743496091037
      ],
      [
        "rent",
        -10.13475253400848
      ],
      [
        "rry",
        -10.134945413567356
      ],
      [
        "_yes",
        -10.13545239517398
      ],
      [
        "_due",
        -10.136064339521164
      ],
      [
        "ional",
        -10.136074359428523
      ],
      [
        "\"e",
        -10.137456349739534
      ],
      [
        "ily",
        -10.138144220235692
      ],
      [
        "week",
        -10.138192522482466
      ],
      [
        "nte",
        -10.138340284033971
      ],
      [
        "IS",
        -10.138361406190135
      ],
      [
        "ood",
        -10.138470333340013
      ],
      [
        "_ehe",
        -10.138632473185048
      ],
      [
        "ics",
        -10.13903496542359
      ],
      [
        "_bus",
        -10.139050663207348
      ],
      [
        "e-n",
        -10.139373689049233
      ],
      [
        "_du",
        -10.139673352846797
      ],
      [
        "ating",
        -10.139903118222058
      ],
      [
        "_got",
        -10.140036690980741
      ],
      [
        "ieg",
        -10.140297295516245
      ],
      [
        "bout",
        -10.140704236439923
      ],
      [
        "tthe",
        -10.140937151488846
      ],
      [
        "Ian",
        -10.141140677493247
      ],
      [
        "aal",
        -10.143240685955025
      ],
      [
        "Pr",
        -10.144482044543432
      ],
      [
        "_au",
        -10.144529880070868
      ],
      [
        "#",
        -10.145434158813556
      ],
      [
        "_Ka",
        -10.146670806878879
      ],
      [
        "_bank",
        -10.146923240274283
      ],
      [
        "_fell",
        -10.147352393133517
      ],
      [
        "ince",
        -10.147367295224521
      ],
      [
        "_space",
        -10.14791250436973
      ],
      [
        "ane",
        -10.147961819736786
      ],
      [
        "_States",
        -10.148643995951648
      ],
      [
        "_St.",
        -10.148654195423168
      ],
      [
        "mu",
        -10.148717166112657
      ],
      [
        "iion",
        -10.148841775538692
      ],
      [
        "_Ya",
        -10.149179567530144
      ],
      [
        "_39;s",
        -10.149629686023454
      ],
      [
        "nent",
        -10.150563966592662
      ],
      [
        "_ore",
        -10.15062846487023
      ],
      [
        "_Je",
        -10.151590506700764
      ],
      [
        "t-h",
        -10.1520086588553
      ],
      [
        "bon",
        -10.15206634662333
      ],
      [
        "cat",
        -10.155231343389008
      ],
      [
        "),",
        -10.15563842388534
      ],
      [
        "_half",
        -10.155720872438355
      ],
      [
        "_cent",
        -10.156443303764906
      ],
      [
        "_land",
        -10.156706516743643
      ],
      [
        "_much",
        -10.157214613893222
      ],
      [
        "_Ea",
        -10.15734696479291
      ],
      [
        "_during",
        -10.157641919509572
      ],
      [
        "_software",
        -10.15767846408346
      ],
      [
        "iun",
        -10.157697242508481
      ],
      [
        "mal",
        -10.157752393036827
      ],
      [
        "app",
        -10.158503948735715
      ],
      [
        "_attack",
        -10.15911392672054
      ],
      [
        "_gi",
        -10.159117716125238
      ],
      [
        "Un",
        -10.159707938592675
      ],
      [
        "ease",
        -10.15973338812924
      ],
      [
        "cro",
        -10.159802576450172
      ],
      [
        "uer",
        -10.160551883413472
      ],
      [
        "_Over",
        -10.161300732870867
      ],
      [
        "_give",
        -10.161459932396749
      ],
      [
        "_Russia",
        -10.161579949663505
      ],
      [
        "_Off",
        -10.161934330287737
      ],
      [
        "inrg",
        -10.162148772154989
      ],
      [
        "abl",
        -10.162201661435944
      ],
      [
        "_try",
        -10.162562019702708
      ],
      [
        "ete",
        -10.162685275571992
      ],
      [
        "_search",
        -10.163214642361094
      ],
      [
        "_bill",
        -10.163368382728553
      ],
      [
        "lty",
        -10.16395768932588
      ],
      [
        "ued",
        -10.164321997836428
      ],
      [
        "_gh",
        -10.164490563296816
      ],
      [
        "_dec",
        -10.165076879413814
      ],
      [
        "_tO",
        -10.16550772739615
      ],
      [
        "tors",
        -10.16557601507785
      ],
      [
        "_Cal",
        -10.166074492535444
      ],
      [
        "lian",
        -10.16640474384991
      ],
      [
        "_add",
        -10.167278637750027
      ],
      [
        "_'n",
        -10.167626392287202
      ],
      [
        "a.l",
        -10.16834556765751
      ],
      [
        "tat",
        -10.168708451702063
      ],
      [
        "rter",
        -10.169853813924572
      ],
      [
        "ux",
        -10.170353567305707
      ],
      [
        "'at",
        -10.171070713390797
      ],
      [
        "_sof",
        -10.17154796075793
      ],
      [
        "ili",
        -10.172019528080135
      ],
      [
        "_rise",
        -10.1726872713766
      ],
      [
        "_iis",
        -10.173410480048958
      ],
      [
        "_trhe",
        -10.173542351975378
      ],
      [
        "wl",
        -10.17375141153711
      ],
      [
        "nder",
        -10.174401612458695
      ],
      [
        "_'he",
        -10.17487771286342
      ],
      [
        "tly",
        -10.175031685853067
      ],
      [
        "ali",
        -10.17559088821106
      ],
      [
        "_drug",
        -10.175880749357223
      ],
      [
        "now",
        -10.17628174305349
      ],
      [
        "cc",
        -10.177222130023125
      ],
      [
        "_look",
        -10.177755222204876
      ],
      [
        "irng",
        -10.178517919022163
      ],
      [
        "rte",
        -10.178965653865069
      ],
      [
        "_being",
        -10.17925062651698
      ],
      [
        "_pric",
        -10.179504574814842
      ],
      [
        "uce",
        -10.180437290443514
      ],
      [
        "_Ve",
        -10.180463837154004
      ],
      [
        "_firs",
        -10.1805178919141
      ],
      [
        "_held",
        -10.180965866490302
      ],
      [
        "uth",
        -10.180988661576583
      ],
      [
        ".N",
        -10.18108512505371
      ],
      [
        "'th",
        -10.18129791325622
      ],
      [
        "take",
        -10.182387334267004
      ],
      [
        "ines",
        -10.182447523092268
      ],
      [
        "_red",
        -10.182551776294302
      ],
      [
        "_lon",
        -10.182597867264715
      ],
      [
        "eIr",
        -10.182918794001925
      ],
      [
        "esday",
        -10.18303640292132
      ],
      [
        "_#S9;s",
        -10.18319529050019
      ],
      [
        "_our",
        -10.18370101327485
      ],
      [
        "_.of",
        -10.184047484624774
      ],
      [
        "_o'f",
        -10.184673672439455
      ],
      [
        "-based",
        -10.185418899152502
      ],
      [
        "iee",
        -10.185670519696407
      ],
      [
        "vd",
        -10.185733281248634
      ],
      [
        "_sb",
        -10.186952421862292
      ],
      [
        "iie",
        -10.187055410061674
      ],
      [
        "fin",
        -10.187129122631053
      ],
      [
        "ole",
        -10.187493550956866
      ],
      [
        "ele",
        -10.188121158981083
      ],
      [
        "_close",
        -10.188214598085722
      ],
      [
        "-k",
        -10.188678036727019
      ],
      [
        "play",
        -10.189067754113061
      ],
      [
        "att",
        -10.189406496054803
      ],
      [
        "_,a",
        -10.18957920292522
      ],
      [
        "_S.",
        -10.189835523814901
      ],
      [
        "_case",
        -10.190185123436322
      ],
      [
        "atl",
        -10.190798415151967
      ],
      [
        "ives",
        -10.191178945150007
      ],
      [
        "a'n",
        -10.191475244068483
      ],
      [
        "_War",
        -10.191712534236776
      ],
      [
        "iA",
        -10.193155658554481
      ],
      [
        "_days",
        -10.193466721653834
      ],
      [
        "fir",
        -10.194122022909433
      ],
      [
        "_City",
        -10.19498289970796
      ],
      [
        "Te",
        -10.195026931544135
      ],
      [
        "_sup",
        -10.195798080666819
      ],
      [
        "_Mac",
        -10.195822911911632
      ],
      [
        "_ien",
        -10.19601070971611
      ],
      [
        "_Micro",
        -10.196366707872496
      ],
      [
        "_Ap",
        -10.197046805605734
      ],
      [
        "_Yo",
        -10.197403041202858
      ],
      [
        "lio",
        -10.199242106849695
      ],
      [
        "may",
        -10.19986376830849
      ],
      [
        "_mn",
        -10.199973036346385
      ],
      [
        "_uS",
        -10.20008465808003
      ],
      [
        "_fall",
        -10.201262646084064
      ],
      [
        "e,d",
        -10.20154140672448
      ],
      [
        "_your",
        -10.20186243425087
      ],
      [
        "_Ira",
        -10.201890145080274
      ],
      [
        "hie",
        -10.20257395833684
      ],
      [
        "_lar",
        -10.202853987439303
      ],
      [
        "gle",
        -10.203197566417252
      ],
      [
        "_act",
        -10.20327078332007
      ],
      [
        "irst",
        -10.203758188715309
      ],
      [
        "iol",
        -10.204549545351261
      ],
      [
        "_att",
        -10.204978770772719
      ],
      [
        ".the",
        -10.204996120086914
      ],
      [
        "_meet",
        -10.205155916981099
      ],
      [
        "Lo",
        -10.206567875238239
      ],
      [
        "lne",
        -10.207229664767445
      ],
      [
        "_gam",
        -10.20738973098512
      ],
      [
        "_power",
        -10.207602363741724
      ],
      [
        "ON",
        -10.207870633135855
      ],
      [
        "iers",
        -10.207988224091082
      ],
      [
        "_come",
        -10.208805294390862
      ],
      [
        "_hig",
        -10.209172519583307
      ],
      [
        "_Big",
        -10.209207888358295
      ],
      [
        "tis",
        -10.209257040095551
      ],
      [
        "_ul",
        -10.20938628199789
      ],
      [
        "_used",
        -10.209404387278315
      ],
      [
        "nin",
        -10.20968562498382
      ],
      [
        "iay",
        -10.210716110303629
      ],
      [
        "eam",
        -10.210781352639406
      ],
      [
        "ants",
        -10.210992242237321
      ],
      [
        "_Thur",
        -10.211750962221135
      ],
      [
        "eit",
        -10.212219962226115
      ],
      [
        "hle",
        -10.212272480378896
      ],
      [
        "run",
        -10.212299779457481
      ],
      [
        "-ch",
        -10.213098570187826
      ],
      [
        "_SAN",
        -10.213912530435547
      ],
      [
        "even",
        -10.213954630018508
      ],
      [
        "vn",
        -10.2143529032274
      ],
      [
        "_rom",
        -10.214573968523329
      ],
      [
        "_took",
        -10.21501250367977
      ],
      [
        "_tehe",
        -10.215050777614586
      ],
      [
        "_Pal",
        -10.21542951688345
      ],
      [
        "hre",
        -10.215485340212846
      ],
      [
        "_British",
        -10.216100752122951
      ],
      [
        "they",
        -10.216617579305458
      ],
      [
        "_tin",
        -10.21741610774322
      ],
      [
        "-F",
        -10.217573942954946
      ],
      [
        "_abo",
        -10.218098484787399
      ],
      [
        "about",
        -10.218255420750895
      ],
      [
        "lid",
        -10.218663239948434
      ],
      [
        "gain",
        -10.218935663994648
      ],
      [
        "_ris",
        -10.2192043800003
      ],
      [
        "_Er",
        -10.219696139381544
      ],
      [
        "_Internet",
        -10.219737166952013
      ],
      [
        "_eve",
        -10.220014762074689
      ],
      [
        "ja",
        -10.220089599148139
      ],
      [
        "ots",
        -10.220390556216842
      ],
      [
        "_pres",
        -10.220486005578923
      ],
      [
        "ped",
        -10.220987140577215
      ],
      [
        "uts",
        -10.221940581836277
      ],
      [
        "Be",
        -10.2224011097584
      ],
      [
        "_(C",
        -10.223576108939122
      ],
      [
        "_sin",
        -10.223865215431601
      ],
      [
        "_ght",
        -10.22400639355912
      ],
      [
        "ats",
        -10.225551560527869
      ],
      [
        "Ist",
        -10.225625631859025
      ],
      [
        "_sale",
        -10.225679620850002
      ],
      [
        "i-s",
        -10.225912134879014
      ],
      [
        "_compa",
        -10.226387920471423
      ],
      [
        "rel",
        -10.226428792047741
      ],
      [
        "oir",
        -10.226550332397181
      ],
      [
        "je",
        -10.227306809283137
      ],
      [
        "cond",
        -10.227507419671202
      ],
      [
        "_yesterday",
        -10.228115946910005
      ],
      [
        "mic",
        -10.2286495289127
      ],
      [
        "_rat",
        -10.228957464825985
      ],
      [
        "_des",
        -10.228982302698665
      ],
      [
        "row",
        -10.22912042017965
      ],
      [
        "_U.S",
        -10.229376536406626
      ],
      [
        "orld",
        -10.230838045972533
      ],
      [
        "_keep",
        -10.230848250091686
      ],
      [
        "Li",
        -10.232134511143471
      ],
      [
        "i,n",
        -10.232428655165648
      ],
      [
        "_Pri",
        -10.232477652289031
      ],
      [
        "tent",
        -10.233324236725927
      ],
      [
        "ato",
        -10.23360218075005
      ],
      [
        "_Will",
        -10.23446874236194
      ],
      [
        "Ve",
        -10.23455026242215
      ],
      [
        "been",
        -10.235272224186325
      ],
      [
        "eme",
        -10.235432131514777
      ],
      [
        "_did",
        -10.235434196859476
      ],
      [
        "_cap",
        -10.235917780132347
      ],
      [
        "lce",
        -10.236814880801203
      ],
      [
        "rol",
        -10.236972843491216
      ],
      [
        "tlo",
        -10.237373910821638
      ],
      [
        "hon",
        -10.237408020763269
      ],
      [
        "ians",
        -10.237972724464319
      ],
      [
        "_And",
        -10.238673228947714
      ],
      [
        "_Eur",
        -10.238764424776672
      ],
      [
        "ital",
        -10.239138193309124
      ],
      [
        "SA",
        -10.240945202372513
      ],
      [
        "IN",
        -10.241005175421666
      ],
      [
        "ers,",
        -10.24138036973726
      ],
      [
        "til",
        -10.24144149976788
      ],
      [
        "_Op",
        -10.241662497655511
      ],
      [
        "NEW",
        -10.241858194886689
      ],
      [
        "_round",
        -10.241909416289541
      ],
      [
        "nig",
        -10.242145393460651
      ],
      [
        "ese",
        -10.24252941568648
      ],
      [
        "_#39,s",
        -10.242779015672859
      ],
      [
        "_itn",
        -10.24374392696213
      ],
      [
        "iang",
        -10.244013003484074
      ],
      [
        "_9;",
        -10.244040848489394
      ],
      [
        "_ext",
        -10.244351518945775
      ],
      [
        "lks",
        -10.245191891587504
      ],
      [
        "_Euro",
        -10.245641121196403
      ],
      [
        "TO",
        -10.246116279184502
      ],
      [
        "-W",
        -10.246478769341998
      ],
      [
        "_-A",
        -10.247473112944123
      ],
      [
        "Pa",
        -10.247504539168876
      ],
      [
        "anc",
        -10.247579948039201
      ],
      [
        "_Wor",
        -10.24877789986268
      ],
      [
        "rri",
        -10.248911558935475
      ],
      [
        "lto",
        -10.24918480767618
      ],
      [
        "_serv",
        -10.249607240963659
      ],
      [
        "_'in",
        -10.250325408886933
      ],
      [
        "tional",
        -10.250716565444876
      ],
      [
        "_iS",
        -10.251817062529994
      ],
      [
        "ican",
        -10.252009136733847
      ],
      [
        "_ff",
        -10.252142280024074
      ],
      [
        "_bat",
        -10.252785862802172
      ],
      [
        "mil",
        -10.253514462133602
      ],
      [
        "_hold",
        -10.253666378182746
      ],
      [
        "lw",
        -10.2536678277054
      ],
      [
        "If",
        -10.253695708275648
      ],
      [
        "heir",
        -10.254491260458401
      ],
      [
        "-L",
        -10.255463944854649
      ],
      [
        "_sit",
        -10.255529434341033
      ],
      [
        "nth",
        -10.255541021333986
      ],
      [
        "inst",
        -10.255622204615191
      ],
      [
        "uct",
        -10.255815736664307
      ],
      [
        "hc",
        -10.257045715639084
      ],
      [
        "oth",
        -10.257770014753628
      ],
      [
        "_(Reute",
        -10.258006512720666
      ],
      [
        "_tno",
        -10.25869238377345
      ],
      [
        "_Sony",
        -10.258742422355217
      ],
      [
        "_trade",
        -10.259411481405433
      ],
      [
        "team",
        -10.259616006673367
      ],
      [
        "_nf",
        -10.259975826156218
      ],
      [
        "-ar",
        -10.26058058627777
      ],
      [
        "hm",
        -10.260789159443704
      ],
      [
        "a-t",
        -10.261279452927017
      ],
      [
        "ague",
        -10.261309748784798
      ],
      [
        "19",
        -10.26152996126444
      ],
      [
        "ers.",
        -10.262034171618195
      ],
      [
        "_vic",
        -10.262547381425932
      ],
      [
        "ky",
        -10.262942110970053
      ],
      [
        "ani",
        -10.263261087045205
      ],
      [
        "sic",
        -10.263647678546873
      ],
      [
        "ict",
        -10.263862436830166
      ],
      [
        "_More",
        -10.264236524601007
      ],
      [
        "a.n",
        -10.264501887198323
      ],
      [
        "_miss",
        -10.264587154953617
      ],
      [
        "o'n",
        -10.264730647026223
      ],
      [
        "rid",
        -10.264867952194837
      ],
      [
        "ros",
        -10.265624939457316
      ],
      [
        "vers",
        -10.266386518411927
      ],
      [
        "_good",
        -10.267417677564307
      ],
      [
        "_tht",
        -10.268111964255045
      ],
      [
        "_right",
        -10.268152035092573
      ],
      [
        ".p",
        -10.268234472623906
      ],
      [
        "_art",
        -10.268440465193372
      ],
      [
        "rad",
        -10.268454512168628
      ],
      [
        "_ago",
        -10.268789375781836
      ],
      [
        "turn",
        -10.269689644798008
      ],
      [
        "_Lea",
        -10.272057873015193
      ],
      [
        "_fil",
        -10.273447262841536
      ],
      [
        "_50",
        -10.273546634140743
      ],
      [
        "_mis",
        -10.274471961224798
      ],
      [
        "Ied",
        -10.274502126685649
      ],
      [
        "sw",
        -10.274584731247458
      ],
      [
        "_bv",
        -10.27481756832404
      ],
      [
        "00",
        -10.274871486301333
      ],
      [
        "vic",
        -10.275351338351784
      ],
      [
        "_grow",
        -10.27561463539313
      ],
      [
        "_lof",
        -10.276212857247447
      ],
      [
        "_pos",
        -10.277046986380793
      ],
      [
        "_Vo",
        -10.27763449944759
      ],
      [
        "_NFL",
        -10.277799059949913
      ],
      [
        "_Micr",
        -10.278469321577699
      ],
      [
        "ked",
        -10.278711657727495
      ],
      [
        "uters",
        -10.279347693924677
      ],
      [
        "day,",
        -10.279564332201963
      ],
      [
        "nm",
        -10.279638064977082
      ],
      [
        "vice",
        -10.279757339866194
      ],
      [
        "ka",
        -10.27991761037015
      ],
      [
        "onal",
        -10.280061853252057
      ],
      [
        "_shar",
        -10.280094964320234
      ],
      [
        "_tax",
        -10.280302883373505
      ],
      [
        "_here",
        -10.281473709012424
      ],
      [
        "los",
        -10.283045898536907
      ],
      [
        "sid",
        -10.283299832499013
      ],
      [
        "_country",
        -10.283314971536704
      ],
      [
        "pri",
        -10.28381156297197
      ],
      [
        "_ever",
        -10.283940761605407
      ],
      [
        "_oh",
        -10.284440843282535
      ],
      [
        "_'t",
        -10.284447527090041
      ],
      [
        "Mi",
        -10.284682123650262
      ],
      [
        "_tar",
        -10.285118166939556
      ],
      [
        "_fire",
        -10.28520354168505
      ],
      [
        "_rthe",
        -10.28530309754749
      ],
      [
        "_Mc",
        -10.286043296773805
      ],
      [
        "_Str",
        -10.286044579107784
      ],
      [
        "ized",
        -10.28613468569673
      ],
      [
        "_gu",
        -10.28618465376563
      ],
      [
        "_ele",
        -10.286480898903708
      ],
      [
        "_Unit",
        -10.286508006660581
      ],
      [
        "lice",
        -10.286749486011324
      ],
      [
        "tih",
        -10.287186128118332
      ],
      [
        "_jobs",
        -10.287222872962804
      ],
      [
        "high",
        -10.287365088983247
      ],
      [
        "Ial",
        -10.287794149796532
      ],
      [
        "_Tues",
        -10.288407605784759
      ],
      [
        "ady",
        -10.288698797352449
      ],
      [
        "que",
        -10.288737930779785
      ],
      [
        "'and",
        -10.288998853308453
      ],
      [
        "ered",
        -10.289105288201199
      ],
      [
        "_yet",
        -10.28957976768098
      ],
      [
        "ago",
        -10.289675126634933
      ],
      [
        "(Reuters)",
        -10.289938924788324
      ],
      [
        "_police",
        -10.290700527836629
      ],
      [
        "-de",
        -10.291015454561304
      ],
      [
        "r-e",
        -10.292032381120805
      ],
      [
        "_Res",
        -10.292212196527274
      ],
      [
        "nding",
        -10.293703775179107
      ],
      [
        "_ep",
        -10.294138723316635
      ],
      [
        "S.",
        -10.294186279525295
      ],
      [
        "_col",
        -10.29423420332671
      ],
      [
        "Sa",
        -10.29436879769694
      ],
      [
        "_League",
        -10.294590007964182
      ],
      [
        "So",
        -10.294689448748684
      ],
      [
        "_Gi",
        -10.294829630330085
      ],
      [
        "Br",
        -10.295006533559576
      ],
      [
        "cia",
        -10.295367783118943
      ],
      [
        "_Says",
        -10.296654079722948
      ],
      [
        "_both",
        -10.298181168516829
      ],
      [
        "oln",
        -10.298284455234347
      ],
      [
        "ule",
        -10.298569576260393
      ],
      [
        "_security",
        -10.298606220359627
      ],
      [
        "Ne",
        -10.298708149023298
      ],
      [
        "vor",
        -10.29878713737388
      ],
      [
        "_ethe",
        -10.299060850735287
      ],
      [
        "_Sn",
        -10.299574344061154
      ],
      [
        "#3",
        -10.299771150446666
      ],
      [
        "_rc",
        -10.300044635581346
      ],
      [
        "_Ame",
        -10.300451449772734
      ],
      [
        "_qua",
        -10.301457171072983
      ],
      [
        "uters)",
        -10.301533179027068
      ],
      [
        "ased",
        -10.301669955100655
      ],
      [
        "_Pres",
        -10.301679557428796
      ],
      [
        "_main",
        -10.302180430924682
      ],
      [
        "eur",
        -10.302992953298801
      ],
      [
        "jo",
        -10.30320564741323
      ],
      [
        "For",
        -10.304699317849003
      ],
      [
        "wor",
        -10.304716225468344
      ],
      [
        "sts",
        -10.305186169206864
      ],
      [
        "_American",
        -10.305422623245729
      ],
      [
        "east",
        -10.30567963285659
      ],
      [
        "-G",
        -10.305821799947758
      ],
      [
        "_ste",
        -10.306245312000353
      ],
      [
        "_site",
        -10.306600086485384
      ],
      [
        "_oon",
        -10.30664263905473
      ],
      [
        "_Sto",
        -10.306920171544444
      ],
      [
        "nge",
        -10.30696044690092
      ],
      [
        "_los",
        -10.307348885883822
      ],
      [
        "gu",
        -10.307710495844132
      ],
      [
        "_2005",
        -10.308074640479603
      ],
      [
        "_MI",
        -10.308245115999302
      ],
      [
        "Ba",
        -10.308464009785176
      ],
      [
        "dan",
        -10.308631602802105
      ],
      [
        "Su",
        -10.308636420941149
      ],
      [
        "_aud",
        -10.309729400654069
      ],
      [
        "He",
        -10.310294969669783
      ],
      [
        "_(S",
        -10.311262667283264
      ],
      [
        "_Israel",
        -10.311909722255423
      ],
      [
        "_kil",
        -10.311927951389801
      ],
      [
        "_President",
        -10.312020726276364
      ],
      [
        "_Los",
        -10.312465776687443
      ],
      [
        "ror",
        -10.312674809839114
      ],
      [
        "gan",
        -10.314051253910002
      ],
      [
        "vel",
        -10.314078506287995
      ],
      [
        "bas",
        -10.314201643881834
      ],
      [
        "ident",
        -10.314443792898993
      ],
      [
        "_nin",
        -10.314732341802156
      ],
      [
        "_ere",
        -10.314841305007784
      ],
      [
        "_ws",
        -10.315352469155766
      ],
      [
        "_thae",
        -10.315924124653787
      ],
      [
        "rne",
        -10.316634310990231
      ],
      [
        "_ble",
        -10.317215920957494
      ],
      [
        "lst",
        -10.31745577637831
      ],
      [
        "_Oi",
        -10.31762939700926
      ],
      [
        "tate",
        -10.317803749935779
      ],
      [
        "pd",
        -10.318217862781623
      ],
      [
        "ments",
        -10.318525802793316
      ],
      [
        "_race",
        -10.319417813375729
      ],
      [
        "iog",
        -10.31980115026979
      ],
      [
        "_Tbe",
        -10.319998261588838
      ],
      [
        "aIl",
        -10.320072372034097
      ],
      [
        "_inte",
        -10.320085162290761
      ],
      [
        "_cost",
        -10.32047623549903
      ],
      [
        "iIn",
        -10.321041805284196
      ],
      [
        "Po",
        -10.32157538283527
      ],
      [
        "_service",
        -10.32335809129918
      ],
      [
        "_Ki",
        -10.323878406282592
      ],
      [
        "bit",
        -10.325023604293115
      ],
      [
        "ible",
        -10.32552191390629
      ],
      [
        "_European",
        -10.325741396547244
      ],
      [
        "_yo",
        -10.326741585043749
      ],
      [
        "hree",
        -10.326910308063653
      ],
      [
        "_growth",
        -10.327549924813601
      ],
      [
        "bc",
        -10.327758256528323
      ],
      [
        "_Col",
        -10.327848615119994
      ],
      [
        "_Sou",
        -10.327850404525032
      ],
      [
        "illion",
        -10.327881588170916
      ],
      [
        "_cla",
        -10.327928327162287
      ],
      [
        "Ro",
        -10.328591154058728
      ],
      [
        "_where",
        -10.328763265323442
      ],
      [
        "_nu",
        -10.329048079184254
      ],
      [
        "_Dr",
        -10.329097571144661
      ],
      [
        "_ard",
        -10.329402981049393
      ],
      [
        "lers",
        -10.329589343587212
      ],
      [
        "_Thurs",
        -10.330000544274757
      ],
      [
        "_y.",
        -10.330128155527166
      ],
      [
        "_t-h",
        -10.330162037608066
      ],
      [
        "bin",
        -10.331078796029052
      ],
      [
        "_fac",
        -10.331172067014403
      ],
      [
        "oed",
        -10.33117341040031
      ],
      [
        "ters)",
        -10.33128924282669
      ],
      [
        "rio",
        -10.331616416773297
      ],
      [
        "_eto",
        -10.331968395834231
      ],
      [
        "nment",
        -10.332318360911342
      ],
      [
        "Sh",
        -10.332353306519504
      ],
      [
        "_soft",
        -10.332659031261475
      ],
      [
        "tim",
        -10.332858449059682
      ],
      [
        "'le",
        -10.333061331099508
      ],
      [
        "used",
        -10.3332823321462
      ],
      [
        "ners",
        -10.333623857383904
      ],
      [
        "_sw",
        -10.333631761296475
      ],
      [
        "Im",
        -10.333683010839845
      ],
      [
        "_100",
        -10.333816129459978
      ],
      [
        "_repo",
        -10.33397182873448
      ],
      [
        "_Reu",
        -10.334092539058402
      ],
      [
        "_Aus",
        -10.334429997470629
      ],
      [
        "oid",
        -10.334560333640326
      ],
      [
        "_thne",
        -10.334589612391659
      ],
      [
        "Corp.",
        -10.33463839640527
      ],
      [
        "ious",
        -10.33473124353856
      ],
      [
        "atch",
        -10.334992792410299
      ],
      [
        "world",
        -10.335659442189627
      ],
      [
        "_bro",
        -10.336180445742924
      ],
      [
        "_imp",
        -10.336358404730358
      ],
      [
        "sur",
        -10.33731030901933
      ],
      [
        "_cf",
        -10.337426087915503
      ],
      [
        "_ein",
        -10.338162998452486
      ],
      [
        "La",
        -10.338277482417919
      ],
      [
        "No",
        -10.33874037633408
      ],
      [
        "ool",
        -10.338777542801367
      ],
      [
        "vin",
        -10.340019538052436
      ],
      [
        "under",
        -10.340057765336905
      ],
      [
        "lim",
        -10.3400783080686
      ],
      [
        "_best",
        -10.340305998265361
      ],
      [
        "_gas",
        -10.340515370014348
      ],
      [
        "t-o",
        -10.34103887475209
      ],
      [
        "_rin",
        -10.341113989772637
      ],
      [
        "_few",
        -10.341587794772348
      ],
      [
        "_talk",
        -10.342232417617105
      ],
      [
        "roup",
        -10.342353600862767
      ],
      [
        "hp",
        -10.34256649633857
      ],
      [
        "_Oracle",
        -10.343160966570565
      ],
      [
        "rw",
        -10.343887931120406
      ],
      [
        "lam",
        -10.344280172909368
      ],
      [
        "inr",
        -10.344422586743072
      ],
      [
        "_Ste",
        -10.344841891200463
      ],
      [
        "_Ser",
        -10.34493240946356
      ],
      [
        "rng",
        -10.344961149133974
      ],
      [
        "ER",
        -10.345090302322266
      ],
      [
        "Ja",
        -10.345285862033109
      ],
      [
        "_Ban",
        -10.346027154593271
      ],
      [
        "_turn",
        -10.346231810690572
      ],
      [
        "_Top",
        -10.346331502872307
      ],
      [
        "eId",
        -10.347635682597065
      ],
      [
        "ows",
        -10.347893522498278
      ],
      [
        "12",
        -10.348110998756392
      ],
      [
        "\"t",
        -10.34816067409841
      ],
      [
        "_XP",
        -10.348728584966594
      ],
      [
        "fic",
        -10.348823254346716
      ],
      [
        "enr",
        -10.348967421911704
      ],
      [
        "_mill",
        -10.349490902555926
      ],
      [
        "main",
        -10.349492955266683
      ],
      [
        "mm",
        -10.349711040827197
      ],
      [
        "some",
        -10.350548351541555
      ],
      [
        "when",
        -10.350717689700652
      ],
      [
        ".an",
        -10.351921863628888
      ],
      [
        "mpany",
        -10.352338513534594
      ],
      [
        "lth",
        -10.3524059239509
      ],
      [
        ",000",
        -10.35244425528936
      ],
      [
        "_sm",
        -10.35251705341462
      ],
      [
        "cm",
        -10.35288231442096
      ],
      [
        "_th,e",
        -10.35316141053086
      ],
      [
        "_yest",
        -10.353523858518678
      ],
      [
        "rto",
        -10.35376951257176
      ],
      [
        "_ps",
        -10.354854427455738
      ],
      [
        "ely",
        -10.355599780162958
      ],
      [
        "kes",
        -10.356171282620515
      ],
      [
        "Ill",
        -10.356715954477329
      ],
      [
        "_dead",
        -10.356755031175911
      ],
      [
        "itt",
        -10.356844692275146
      ],
      [
        "por",
        -10.357307468769267
      ],
      [
        "_rate",
        -10.357668490162688
      ],
      [
        "hes",
        -10.358707719436001
      ],
      [
        "inl",
        -10.35873359815578
      ],
      [
        "ents",
        -10.359192926615052
      ],
      [
        "_foi",
        -10.35991925299209
      ],
      [
        "_vote",
        -10.360409821299818
      ],
      [
        "cen",
        -10.360478059630001
      ],
      [
        "_such",
        -10.36124779545908
      ],
      [
        "'as",
        -10.361274750218215
      ],
      [
        "ops",
        -10.361354898351884
      ],
      [
        "plan",
        -10.361570024012266
      ],
      [
        "IT",
        -10.361920457255799
      ],
      [
        "ste",
        -10.362078513136595
      ],
      [
        "_an-d",
        -10.3622115229477
      ],
      [
        "pn",
        -10.362891256217198
      ],
      [
        "llion",
        -10.363355040787003
      ],
      [
        "_Sea",
        -10.363635835062002
      ],
      [
        "_Corp",
        -10.36408400338149
      ],
      [
        "sent",
        -10.364105272120046
      ],
      [
        "30",
        -10.364227354516679
      ],
      [
        "iue",
        -10.364677985990628
      ],
      [
        "_met",
        -10.36494025756371
      ],
      [
        "_my",
        -10.365431805619137
      ],
      [
        "_form",
        -10.365606211632512
      ],
      [
        "_.S",
        -10.365898038678587
      ],
      [
        "_W.",
        -10.365917643554798
      ],
      [
        "az",
        -10.366205011369853
      ],
      [
        "i,ng",
        -10.36644336808914
      ],
      [
        "Bo",
        -10.366524569212629
      ],
      [
        "rhe",
        -10.367711790365504
      ],
      [
        "_well",
        -10.367747486345593
      ],
      [
        "uck",
        -10.36776586219942
      ],
      [
        "_business",
        -10.368466026556339
      ],
      [
        "_fight",
        -10.368530199118446
      ],
      [
        "ay.",
        -10.368807939786567
      ],
      [
        "_tahe",
        -10.369045053303854
      ],
      [
        "As",
        -10.369090628811152
      ],
      [
        "_also",
        -10.369167935532388
      ],
      [
        "_nat",
        -10.369184089152183
      ],
      [
        "ift",
        -10.36926911336667
      ],
      [
        "_agreed",
        -10.369611458713926
      ],
      [
        "maker",
        -10.370022190460471
      ],
      [
        "-(",
        -10.370194428296077
      ],
      [
        "_24",
        -10.37050166610861
      ],
      [
        "_mobile",
        -10.370694050072439
      ],
      [
        "-K",
        -10.370748366676912
      ],
      [
        "_Ii",
        -10.371260664225769
      ],
      [
        "_Bus",
        -10.37129167288671
      ],
      [
        "~y",
        -10.371721464922814
      ],
      [
        "_Pu",
        -10.371879981913906
      ],
      [
        "e,r",
        -10.37204693879572
      ],
      [
        "_chip",
        -10.372334649029895
      ],
      [
        "_sur",
        -10.372549106609503
      ],
      [
        "ister",
        -10.372564138159586
      ],
      [
        "lnd",
        -10.37261747359949
      ],
      [
        "nc.",
        -10.372911274929463
      ],
      [
        "lil",
        -10.373099419182893
      ],
      [
        "ims",
        -10.373373953097701
      ],
      [
        "_government",
        -10.373731278813228
      ],
      [
        "str",
        -10.373998824396804
      ],
      [
        "_rf",
        -10.374229109139124
      ],
      [
        "_fol",
        -10.37436767854582
      ],
      [
        "_High",
        -10.374451455217688
      ],
      [
        "vil",
        -10.374524208185989
      ],
      [
        "a-r",
        -10.374721026964089
      ],
      [
        "_ior",
        -10.374734004799535
      ],
      [
        "_a-nd",
        -10.374892432079866
      ],
      [
        "Ex",
        -10.375015764653202
      ],
      [
        "tei",
        -10.375388333935403
      ],
      [
        "inag",
        -10.375542804959494
      ],
      [
        "cha",
        -10.376114402775539
      ],
      [
        "pic",
        -10.376137095404445
      ],
      [
        "long",
        -10.37679409695771
      ],
      [
        "_gov",
        -10.377187921431375
      ],
      [
        "in,g",
        -10.377400973729749
      ],
      [
        "o-r",
        -10.377513690645626
      ],
      [
        "rac",
        -10.377804774439321
      ],
      [
        "_don",
        -10.377809893855101
      ],
      [
        "_iIn",
        -10.378310854966195
      ],
      [
        "_hn",
        -10.378700927064916
      ],
      [
        "ctor",
        -10.380028532132375
      ],
      [
        "inIg",
        -10.38090865336027
      ],
      [
        "_ey",
        -10.381193955713837
      ],
      [
        "lies",
        -10.381584154083367
      ],
      [
        "_launch",
        -10.38179418485404
      ],
      [
        "err",
        -10.381972908222112
      ],
      [
        "ram",
        -10.382053062336011
      ],
      [
        "bre",
        -10.382591869959985
      ],
      [
        "mark",
        -10.38272147503356
      ],
      [
        "-3",
        -10.383475592740373
      ],
      [
        "lig",
        -10.383626279960755
      ],
      [
        "_Qu",
        -10.38367113058382
      ],
      [
        "_lu",
        -10.383895512817062
      ],
      [
        "_Fed",
        -10.384051876622411
      ],
      [
        "otn",
        -10.384584751567054
      ],
      [
        "gest",
        -10.384626539094185
      ],
      [
        "_z",
        -10.384657944724168
      ],
      [
        "_oef",
        -10.384928285533611
      ],
      [
        "bil",
        -10.385424458560951
      ],
      [
        "pos",
        -10.38574290080351
      ],
      [
        "light",
        -10.386333937296406
      ],
      [
        "_irn",
        -10.38665163384509
      ],
      [
        "'it",
        -10.386690435446543
      ],
      [
        "comp",
        -10.38712621371931
      ],
      [
        "ts,",
        -10.387128747762087
      ],
      [
        "bar",
        -10.387132516425647
      ],
      [
        "aen",
        -10.387319178170875
      ],
      [
        "field",
        -10.387334751046367
      ],
      [
        "ocks",
        -10.388296722840378
      ],
      [
        "next",
        -10.389007903015973
      ],
      [
        "dge",
        -10.389269605215453
      ],
      [
        "\\$",
        -10.390015388775206
      ],
      [
        "_'of",
        -10.390552035278771
      ],
      [
        "arm",
        -10.390623070103565
      ],
      [
        "_Bay",
        -10.390778265656134
      ],
      [
        "&lt;",
        -10.391202035878546
      ],
      [
        "_reg",
        -10.39135979009653
      ],
      [
        "_.o",
        -10.391704574587077
      ],
      [
        "_39;",
        -10.392346133054383
      ],
      [
        "_lost",
        -10.392949922743977
      ],
      [
        "ams",
        -10.393498918305395
      ],
      [
        "_Nov",
        -10.393865934612522
      ],
      [
        "]",
        -10.394199257579036
      ],
      [
        "bid",
        -10.394234148861628
      ],
      [
        "dow",
        -10.394311961288341
      ],
      [
        "_Union",
        -10.394740226708464
      ],
      [
        "_nation",
        -10.395127596134326
      ],
      [
        "sident",
        -10.395609651383817
      ],
      [
        "iil",
        -10.395899512373493
      ],
      [
        "van",
        -10.396048104302064
      ],
      [
        "rs.",
        -10.397064989802516
      ],
      [
        "_ahead",
        -10.397435194028963
      ],
      [
        "hot",
        -10.397621291087928
      ],
      [
        "_ias",
        -10.398321455386629
      ],
      [
        "_largest",
        -10.398635804474003
      ],
      [
        "eck",
        -10.399328802625275
      ],
      [
        "lue",
        -10.399778680681326
      ],
      [
        "Ind",
        -10.39997194268433
      ],
      [
        "_Che",
        -10.400442869220058
      ],
      [
        "ila",
        -10.400933029030044
      ],
      [
        "11",
        -10.401564788392466
      ],
      [
        "san",
        -10.402442343809632
      ],
      [
        "_Del",
        -10.403068730867314
      ],
      [
        "_der",
        -10.403167891191476
      ],
      [
        "ism",
        -10.403284659881217
      ],
      [
        "_cons",
        -10.403874606946847
      ],
      [
        "aim",
        -10.404244830215205
      ],
      [
        "_host",
        -10.40430670404083
      ],
      [
        "ude",
        -10.404615246502974
      ],
      [
        "ye",
        -10.404859252201524
      ],
      [
        "_Korea",
        -10.40494058988783
      ],
      [
        "_rto",
        -10.404991339854698
      ],
      [
        "UN",
        -10.40504671499511
      ],
      [
        "tem",
        -10.405277857178959
      ],
      [
        "most",
        -10.405934824179944
      ],
      [
        "_Linux",
        -10.406486162070497
      ],
      [
        "sat",
        -10.407019239587294
      ],
      [
        "_hie",
        -10.407509686008648
      ],
      [
        "_wr",
        -10.408549076895671
      ],
      [
        "imp",
        -10.408954923540914
      ],
      [
        "him",
        -10.409143076183089
      ],
      [
        "_wee",
        -10.409210428905315
      ],
      [
        "15",
        -10.409304085284925
      ],
      [
        "hold",
        -10.409305869087945
      ],
      [
        "iro",
        -10.409637569176986
      ],
      [
        "arly",
        -10.40982748377213
      ],
      [
        "_tso",
        -10.410228839664796
      ],
      [
        "aud",
        -10.410366347288779
      ],
      [
        "aan",
        -10.410610826735926
      ],
      [
        "_Du",
        -10.410779268615608
      ],
      [
        "vid",
        -10.411283508080952
      ],
      [
        "_Kerry",
        -10.411571269098143
      ],
      [
        ".O",
        -10.412300012870102
      ],
      [
        "_between",
        -10.412347534195757
      ],
      [
        "-ba",
        -10.412533292710883
      ],
      [
        "_America",
        -10.412694491262627
      ],
      [
        "_peace",
        -10.412714389869254
      ],
      [
        "_'f",
        -10.413230335127238
      ],
      [
        "_23",
        -10.413248673922876
      ],
      [
        "_NBA",
        -10.41355741677782
      ],
      [
        "_nce",
        -10.413642689115477
      ],
      [
        "_mov",
        -10.413818454364336
      ],
      [
        "eter",
        -10.414081672041318
      ],
      [
        "wr",
        -10.414274317066056
      ],
      [
        "rou",
        -10.414433660076565
      ],
      [
        "_News",
        -10.414766701001216
      ],
      [
        "_Tho",
        -10.414942812397424
      ],
      [
        "ying",
        -10.414958454606552
      ],
      [
        "_seven",
        -10.415008624257526
      ],
      [
        "ko",
        -10.415215346848033
      ],
      [
        "Ra",
        -10.415315345791083
      ],
      [
        "-un",
        -10.415388896911079
      ],
      [
        "_die",
        -10.415692877019215
      ],
      [
        "bur",
        -10.41626123923422
      ],
      [
        "_tnhe",
        -10.416299105973835
      ],
      [
        "inf",
        -10.416685722669596
      ],
      [
        "make",
        -10.41693407419517
      ],
      [
        "_post",
        -10.417115746170168
      ],
      [
        "i-c",
        -10.417669942236223
      ],
      [
        "_PM",
        -10.418091794171978
      ],
      [
        "ites",
        -10.418419482092474
      ],
      [
        "_Ab",
        -10.418480488794259
      ],
      [
        "_let",
        -10.41913703665204
      ],
      [
        "ower",
        -10.419337579198334
      ],
      [
        "_life",
        -10.419549858187013
      ],
      [
        "_tshe",
        -10.420664602120802
      ],
      [
        "_&l",
        -10.421612086122124
      ],
      [
        "_agai",
        -10.421975221297938
      ],
      [
        "_s)",
        -10.42202879430764
      ],
      [
        "Ho",
        -10.422562380338071
      ],
      [
        "_Bill",
        -10.422964904133332
      ],
      [
        "_nthe",
        -10.423441427225471
      ],
      [
        "_count",
        -10.424566628530197
      ],
      [
        "_abou",
        -10.424678316840476
      ],
      [
        "rial",
        -10.424764099842097
      ],
      [
        "_iA",
        -10.425232287606194
      ],
      [
        "_P)",
        -10.425280217367156
      ],
      [
        "bes",
        -10.425616751993644
      ],
      [
        "uis",
        -10.425960950650634
      ],
      [
        "ange",
        -10.426385814226693
      ],
      [
        "_ple",
        -10.426484064089355
      ],
      [
        "_lh",
        -10.426925338753449
      ],
      [
        "_t,he",
        -10.427433422736653
      ],
      [
        "_list",
        -10.427712605015188
      ],
      [
        "ju",
        -10.428267771443556
      ],
      [
        "ira",
        -10.42829331769707
      ],
      [
        "_Now",
        -10.428397496260796
      ],
      [
        "_dev",
        -10.42884686740088
      ],
      [
        "nded",
        -10.42912752100013
      ],
      [
        "tit",
        -10.429143074681079
      ],
      [
        "_IB",
        -10.430196966566859
      ],
      [
        "irt",
        -10.430251221576643
      ],
      [
        "_Stocks",
        -10.430338758739488
      ],
      [
        "_stat",
        -10.4303789324632
      ],
      [
        "_rival",
        -10.430836602429082
      ],
      [
        "_eat",
        -10.430843830995025
      ],
      [
        "iof",
        -10.430948490780395
      ],
      [
        "nnd",
        -10.431651978275507
      ],
      [
        "unch",
        -10.432668647754515
      ],
      [
        "(R",
        -10.432820057366627
      ],
      [
        "h-e",
        -10.432879645453529
      ],
      [
        "_tim",
        -10.433247372971376
      ],
      [
        "ision",
        -10.433483097854872
      ],
      [
        "ief",
        -10.434047387688764
      ],
      [
        "fh",
        -10.434244605195328
      ],
      [
        "a's",
        -10.43447585334448
      ],
      [
        "_bil",
        -10.434581771174994
      ],
      [
        "_Par",
        -10.434683385738156
      ],
      [
        "ury",
        -10.43671160839856
      ],
      [
        "_pen",
        -10.436720342867414
      ],
      [
        "_cor",
        -10.436784625608954
      ],
      [
        "mas",
        -10.436817654317665
      ],
      [
        "ming",
        -10.437008861458875
      ],
      [
        "well",
        -10.438027772541751
      ],
      [
        "ems",
        -10.43874330248285
      ],
      [
        "_med",
        -10.439500923655434
      ],
      [
        "bile",
        -10.439904497204974
      ],
      [
        "_lis",
        -10.44005510541923
      ],
      [
        "_Tim",
        -10.440181758128626
      ],
      [
        "AL",
        -10.440321662107305
      ],
      [
        "_Wedne",
        -10.440495993961797
      ],
      [
        "_sy",
        -10.440679309771278
      ],
      [
        "isng",
        -10.440800048238053
      ],
      [
        "_away",
        -10.440829483974648
      ],
      [
        "_Jap",
        -10.441084963381556
      ],
      [
        "tet",
        -10.441299318731236
      ],
      [
        "dal",
        -10.441703236156684
      ],
      [
        "ts.",
        -10.44170993956412
      ],
      [
        "_Wal",
        -10.442973317021767
      ],
      [
        "mont",
        -10.443125763089043
      ],
      [
        "lls",
        -10.44328163301875
      ],
      [
        "_step",
        -10.44395840396609
      ],
      [
        "chi",
        -10.44403685441048
      ],
      [
        "key",
        -10.444301890324262
      ],
      [
        "_thse",
        -10.445687126575926
      ],
      [
        "ula",
        -10.445888091299235
      ],
      [
        "_announced",
        -10.445903460549735
      ],
      [
        "eil",
        -10.445906488232573
      ],
      [
        "cp",
        -10.445941222066327
      ],
      [
        "cas",
        -10.445981907564683
      ],
      [
        "_iP",
        -10.446331142800407
      ],
      [
        "_weeks",
        -10.44639084508363
      ],
      [
        "met",
        -10.446960874548415
      ],
      [
        "r.e",
        -10.447237748276741
      ],
      [
        "_,to",
        -10.448118269940476
      ],
      [
        "_fre",
        -10.448441148478224
      ],
      [
        "_Set",
        -10.44873665950242
      ],
      [
        "round",
        -10.448764463586695
      ],
      [
        "_Fra",
        -10.448800350242001
      ],
      [
        "Int",
        -10.449090681443696
      ],
      [
        "AS",
        -10.449580025289562
      ],
      [
        "would",
        -10.449757677819738
      ],
      [
        "_online",
        -10.450349909125721
      ],
      [
        "_inthe",
        -10.451163627767928
      ],
      [
        "law",
        -10.451349458843419
      ],
      [
        "&lt;/",
        -10.451877556678452
      ],
      [
        "_Nor",
        -10.452485197692237
      ],
      [
        "_thhe",
        -10.452815617355501
      ],
      [
        "_oc",
        -10.4528263820462
      ],
      [
        "ott",
        -10.45318613777768
      ],
      [
        "arter",
        -10.453326388653242
      ],
      [
        "insg",
        -10.453514638325036
      ],
      [
        "ids",
        -10.453923357202672
      ],
      [
        "could",
        -10.454463553525219
      ],
      [
        "_peo",
        -10.454743011226554
      ],
      [
        "_users",
        -10.454959678239799
      ],
      [
        "ration",
        -10.455051300104463
      ],
      [
        "ami",
        -10.455357022431489
      ],
      [
        "she",
        -10.456131949114766
      ],
      [
        "tk",
        -10.457192529691067
      ],
      [
        "_Test",
        -10.457904349592708
      ],
      [
        "tne",
        -10.458065845379544
      ],
      [
        "_Tech",
        -10.458451329529586
      ],
      [
        "_oof",
        -10.459284528850233
      ],
      [
        "_tte",
        -10.459539781190369
      ],
      [
        "nle",
        -10.459643155879538
      ],
      [
        "_eas",
        -10.459669849055764
      ],
      [
        "_Its",
        -10.45969438964752
      ],
      [
        "alt",
        -10.459757967152015
      ],
      [
        "_reco",
        -10.461475757290508
      ],
      [
        "_fo-r",
        -10.462049772867662
      ],
      [
        "ress",
        -10.462200394195172
      ],
      [
        ",an",
        -10.462527352810994
      ],
      [
        "cess",
        -10.463056086499428
      ],
      [
        "_Mond",
        -10.4634997638714
      ],
      [
        "_NE",
        -10.46371719908598
      ],
      [
        "rae",
        -10.463871555924825
      ],
      [
        "_coa",
        -10.463956054389161
      ],
      [
        "_lower",
        -10.464090833491527
      ],
      [
        "_eco",
        -10.464377849793955
      ],
      [
        "deal",
        -10.46490539319441
      ],
      [
        "bm",
        -10.46500174789902
      ],
      [
        "_cb",
        -10.465156787067496
      ],
      [
        "e's",
        -10.465271364014873
      ],
      [
        "says",
        -10.465885796640897
      ],
      [
        "cou",
        -10.46607946808555
      ],
      [
        "ump",
        -10.46683557975231
      ],
      [
        "-H",
        -10.467427490591628
      ],
      [
        "200",
        -10.467498697366702
      ],
      [
        "ige",
        -10.467860886988301
      ],
      [
        "fon",
        -10.468704210110758
      ],
      [
        "gin",
        -10.471045114724976
      ],
      [
        "hor",
        -10.471206602956222
      ],
      [
        "AT",
        -10.47182046778925
      ],
      [
        "right",
        -10.471823382292165
      ],
      [
        "_.A",
        -10.472224304650027
      ],
      [
        "ational",
        -10.472314451086376
      ],
      [
        "_lan",
        -10.472776413973502
      ],
      [
        "#39",
        -10.473097779178044
      ],
      [
        "'he",
        -10.473346486295796
      ],
      [
        "rns",
        -10.473799046926057
      ],
      [
        "ilt",
        -10.473814183857574
      ],
      [
        "bro",
        -10.473868388967503
      ],
      [
        "fur",
        -10.474083843781537
      ],
      [
        "_cen",
        -10.474373890936672
      ],
      [
        "'ve",
        -10.47482978671119
      ],
      [
        "_oth",
        -10.475875956157237
      ],
      [
        "rus",
        -10.476176343570966
      ],
      [
        "'or",
        -10.476604537578323
      ],
      [
        "_cre",
        -10.476951765506591
      ],
      [
        "_aw",
        -10.477759317623313
      ],
      [
        "_#89;s",
        -10.479262158759642
      ],
      [
        "_t,o",
        -10.479629442271166
      ],
      [
        "ada",
        -10.479969341207862
      ],
      [
        "rty",
        -10.480188123108222
      ],
      [
        "_ave",
        -10.480900510052525
      ],
      [
        "cie",
        -10.481081239227677
      ],
      [
        "_Sr",
        -10.481382330915059
      ],
      [
        "thr",
        -10.481409264144734
      ],
      [
        "_shot",
        -10.48201681449553
      ],
      [
        "_official",
        -10.4821763148062
      ],
      [
        "cli",
        -10.482217664387427
      ],
      [
        "_Minister",
        -10.482834767762153
      ],
      [
        "din",
        -10.483407640800012
      ],
      [
        "three",
        -10.483425692512816
      ],
      [
        "_When",
        -10.484175845968636
      ],
      [
        "BA",
        -10.484524969812544
      ],
      [
        "_bt",
        -10.484845461988591
      ],
      [
        "_sco",
        -10.484882584883469
      ],
      [
        "_#S9;",
        -10.484901666072094
      ],
      [
        "tO",
        -10.4849692588785
      ],
      [
        "cts",
        -10.485452336771745
      ],
      [
        "_ive",
        -10.485823531753152
      ],
      [
        "Fi",
        -10.485982625924063
      ],
      [
        "company",
        -10.486077300527981
      ],
      [
        "_mid",
        -10.486302302752431
      ],
      [
        "a.t",
        -10.486376378597907
      ],
      [
        "_Reut",
        -10.486665775448735
      ],
      [
        "rve",
        -10.486743732874398
      ],
      [
        "-ng",
        -10.486760112952734
      ],
      [
        ".al",
        -10.48721530507894
      ],
      [
        "_Gro",
        -10.4872712035102
      ],
      [
        "_rest",
        -10.487962139225743
      ],
      [
        "sand",
        -10.48839130596349
      ],
      [
        "_tao",
        -10.488709946524239
      ],
      [
        "_Court",
        -10.488786245259455
      ],
      [
        "fat",
        -10.489650485202827
      ],
      [
        "_video",
        -10.489851533605922
      ],
      [
        "t-he",
        -10.49070243865229
      ],
      [
        "ason",
        -10.490878480428535
      ],
      [
        "-by",
        -10.491691568423985
      ],
      [
        "Ive",
        -10.493376295767831
      ],
      [
        "Web",
        -10.493533192526186
      ],
      [
        "hel",
        -10.49357496206752
      ],
      [
        "_N.",
        -10.49405189352537
      ],
      [
        "market",
        -10.494149838984406
      ],
      [
        "_Mil",
        -10.494290209100182
      ],
      [
        "cit",
        -10.49454573011895
      ],
      [
        "-its",
        -10.494617297737857
      ],
      [
        "_large",
        -10.49492836131889
      ],
      [
        "_Brit",
        -10.495683289406827
      ],
      [
        "-with",
        -10.495748290154713
      ],
      [
        "_find",
        -10.49653196054782
      ],
      [
        "cto",
        -10.49656752913469
      ],
      [
        "exp",
        -10.496713747473148
      ],
      [
        "ired",
        -10.496926248279511
      ],
      [
        "kin",
        -10.497054735640646
      ],
      [
        "o'r",
        -10.497138605607873
      ],
      [
        "_reach",
        -10.497277584559335
      ],
      [
        "Do",
        -10.498035545662578
      ],
      [
        "_tIhe",
        -10.498404071013251
      ],
      [
        "gre",
        -10.499152855683132
      ],
      [
        "_ted",
        -10.499361729134858
      ],
      [
        "_row",
        -10.50001505040623
      ],
      [
        "_rev",
        -10.50062550542906
      ],
      [
        "_o.n",
        -10.500715099847282
      ],
      [
        "_bar",
        -10.500759098362286
      ],
      [
        "_'S",
        -10.501256787479939
      ],
      [
        "_orf",
        -10.501544501253012
      ],
      [
        "_LONDON",
        -10.501545637080358
      ],
      [
        "9;s",
        -10.502884765760694
      ],
      [
        "_r-e",
        -10.502914073903586
      ],
      [
        "ping",
        -10.50399197018213
      ],
      [
        "eod",
        -10.504287833827567
      ],
      [
        ".A",
        -10.50430103727281
      ],
      [
        "Ce",
        -10.504496766094356
      ],
      [
        "iIng",
        -10.5045666145075
      ],
      [
        "17",
        -10.505180086315855
      ],
      [
        "esr",
        -10.50532616586569
      ],
      [
        "_repor",
        -10.505440769683311
      ],
      [
        "mid",
        -10.505733742370175
      ],
      [
        "orm",
        -10.505787122565302
      ],
      [
        "aut",
        -10.506370597383922
      ],
      [
        "-li",
        -10.506821912413464
      ],
      [
        "_thir",
        -10.506935941088734
      ],
      [
        "hut",
        -10.50713307083231
      ],
      [
        "osoft",
        -10.507193283337124
      ],
      [
        "_eof",
        -10.507615950103323
      ],
      [
        "_Sudan",
        -10.507767521332005
      ],
      [
        "nel",
        -10.507891278313501
      ],
      [
        "tec",
        -10.508169141160753
      ],
      [
        "sal",
        -10.508499255128733
      ],
      [
        "_dollar",
        -10.508929167760048
      ],
      [
        "Fr",
        -10.509597994521984
      ],
      [
        "_Bla",
        -10.5099961142831
      ],
      [
        "ston",
        -10.510136720650003
      ],
      [
        "_HP",
        -10.510253137824346
      ],
      [
        "night",
        -10.510464569750628
      ],
      [
        "ator",
        -10.510542707491364
      ],
      [
        "aL",
        -10.510796021104216
      ],
      [
        "rket",
        -10.510900883955951
      ],
      [
        "_nc",
        -10.511159235894137
      ],
      [
        "_eon",
        -10.511466617240988
      ],
      [
        "Sun",
        -10.511791859419402
      ],
      [
        "ius",
        -10.511847369980426
      ],
      [
        "pany",
        -10.5122161869213
      ],
      [
        "cnt",
        -10.512296443146829
      ],
      [
        "_Frid",
        -10.512359245536475
      ],
      [
        "_Chin",
        -10.512912530263275
      ],
      [
        "rage",
        -10.513234986107168
      ],
      [
        "_another",
        -10.513701349657659
      ],
      [
        "oar",
        -10.513925615898366
      ],
      [
        "_YO",
        -10.514076018576636
      ],
      [
        "cing",
        -10.514612044269438
      ],
      [
        "you",
        -10.514713558690035
      ],
      [
        "-ro",
        -10.51550837144677
      ],
      [
        "rian",
        -10.515813979196844
      ],
      [
        "_elec",
        -10.515842172011716
      ],
      [
        "Iu",
        -10.516037078866336
      ],
      [
        "_Saturday",
        -10.516460372228483
      ],
      [
        "iad",
        -10.516478621279383
      ],
      [
        "_Per",
        -10.516481331889588
      ],
      [
        "rnet",
        -10.516548634033363
      ],
      [
        "_This",
        -10.51671320242585
      ],
      [
        "oul",
        -10.516825190844386
      ],
      [
        "_system",
        -10.517128184086813
      ],
      [
        "nie",
        -10.517195309384533
      ],
      [
        "snt",
        -10.517329572247522
      ],
      [
        "four",
        -10.517504138360533
      ],
      [
        "_cam",
        -10.517571816277545
      ],
      [
        "_fund",
        -10.518186151760684
      ],
      [
        "_rm",
        -10.518470229657881
      ],
      [
        "_hom",
        -10.518554782416956
      ],
      [
        "PC",
        -10.518632297246317
      ],
      [
        "r)",
        -10.518873267639622
      ],
      [
        "aj",
        -10.519106786426986
      ],
      [
        "th-e",
        -10.519490341146513
      ],
      [
        "_Gre",
        -10.51958370543504
      ],
      [
        "_-S",
        -10.519731794805846
      ],
      [
        "ities",
        -10.519932762563691
      ],
      [
        "c-h",
        -10.520595910913016
      ],
      [
        "_Olympic",
        -10.520652372146973
      ],
      [
        "ico",
        -10.520811190996596
      ],
      [
        "-#39;s",
        -10.52129435210694
      ],
      [
        "_offic",
        -10.522231443231975
      ],
      [
        "pace",
        -10.522985924746095
      ],
      [
        "_need",
        -10.523407620714458
      ],
      [
        "_came",
        -10.523569011707465
      ],
      [
        "ders",
        -10.523749464654905
      ],
      [
        "_push",
        -10.52502799432925
      ],
      [
        "_Boston",
        -10.525586333205158
      ],
      [
        "_demand",
        -10.525873380921215
      ],
      [
        "ept",
        -10.526025799704776
      ],
      [
        "_year.",
        -10.526170488475948
      ],
      [
        "_told",
        -10.527163981315109
      ],
      [
        "iver",
        -10.527171903544787
      ],
      [
        "jor",
        -10.52739166279131
      ],
      [
        "Up",
        -10.527594646932126
      ],
      [
        "_expe",
        -10.52817798431929
      ],
      [
        "_You",
        -10.528523535046485
      ],
      [
        "Ad",
        -10.528639666642267
      ],
      [
        "_fuel",
        -10.528888383886368
      ],
      [
        "-off",
        -10.529109980726316
      ],
      [
        "-that",
        -10.529163705587905
      ],
      [
        "aga",
        -10.529383345186112
      ],
      [
        "_pn",
        -10.53005420543287
      ],
      [
        "aay",
        -10.530072734446428
      ],
      [
        "ater",
        -10.530310212818566
      ],
      [
        "_dur",
        -10.53040020162934
      ],
      [
        "_rS",
        -10.53059490659992
      ],
      [
        "&g",
        -10.530644998972516
      ],
      [
        "_latest",
        -10.530758572401332
      ],
      [
        "_Iin",
        -10.531219383571852
      ],
      [
        "_through",
        -10.531257744075866
      ],
      [
        "sia",
        -10.532124246819292
      ],
      [
        "here",
        -10.532613478084922
      ],
      [
        "_ies",
        -10.532632892804422
      ],
      [
        "_unit",
        -10.532662096464065
      ],
      [
        "nion",
        -10.532893015201939
      ],
      [
        "_ire",
        -10.533122498264099
      ],
      [
        "~o",
        -10.533163807582419
      ],
      [
        "_40",
        -10.533556750602092
      ],
      [
        "_troops",
        -10.533646169415286
      ],
      [
        "_SI",
        -10.533682661309005
      ],
      [
        "wit",
        -10.533924405850877
      ],
      [
        "_Amer",
        -10.53399377787462
      ],
      [
        "1p",
        -10.534301205337771
      ],
      [
        "uri",
        -10.534345370821619
      ],
      [
        "_hot",
        -10.534559782261933
      ],
      [
        "nne",
        -10.534676192694036
      ],
      [
        "_hard",
        -10.536689652350045
      ],
      [
        "ips",
        -10.536690147576373
      ],
      [
        "ara",
        -10.536782942326987
      ],
      [
        "ege",
        -10.536957983302017
      ],
      [
        "_there",
        -10.537081969503628
      ],
      [
        "_coun",
        -10.537252645267131
      ],
      [
        "_pass",
        -10.537709482605269
      ],
      [
        "tth",
        -10.537731610464311
      ],
      [
        "le,",
        -10.537769424982065
      ],
      [
        "mit",
        -10.538377863327128
      ],
      [
        "Iv",
        -10.538607878215583
      ],
      [
        "-has",
        -10.538673755837078
      ],
      [
        "lse",
        -10.53868700512989
      ],
      [
        "14",
        -10.53893916533071
      ],
      [
        "_public",
        -10.53923260758781
      ],
      [
        "_quar",
        -10.539768513944255
      ],
      [
        "_ide",
        -10.539814174374655
      ],
      [
        "Ire",
        -10.540831404987525
      ],
      [
        "_char",
        -10.541121199442703
      ],
      [
        "_gn",
        -10.542067603103352
      ],
      [
        "far",
        -10.542213515910154
      ],
      [
        "_Nat",
        -10.542911895572198
      ],
      [
        "_Israeli",
        -10.542961544364347
      ],
      [
        "_Wil",
        -10.542972292863407
      ],
      [
        "fore",
        -10.543175999653567
      ],
      [
        "ES",
        -10.543368418873388
      ],
      [
        "iam",
        -10.543735862735346
      ],
      [
        "curity",
        -10.544236398070243
      ],
      [
        "iong",
        -10.5444538691963
      ],
      [
        "Cup",
        -10.54445588382891
      ],
      [
        "_har",
        -10.54467480399805
      ],
      [
        "_IS",
        -10.544703606501834
      ],
      [
        "uan",
        -10.545238599815885
      ],
      [
        "t.h",
        -10.545272645375329
      ],
      [
        "-me",
        -10.545486378873067
      ],
      [
        "ched",
        -10.546036467085642
      ],
      [
        "_mat",
        -10.546092437787248
      ],
      [
        "iO",
        -10.546095313884308
      ],
      [
        "lti",
        -10.546101514042254
      ],
      [
        "arr",
        -10.546145403104786
      ],
      [
        "istan",
        -10.54622197024987
      ],
      [
        "_port",
        -10.547278343664903
      ],
      [
        "_tth",
        -10.547376244404557
      ],
      [
        "_CA",
        -10.547393854412075
      ],
      [
        "lock",
        -10.547616455136115
      ],
      [
        "oli",
        -10.54773820013095
      ],
      [
        "_nuclear",
        -10.547742995701576
      ],
      [
        "mak",
        -10.548268845046199
      ],
      [
        "eak",
        -10.54836878596464
      ],
      [
        "_-he",
        -10.54837709300264
      ],
      [
        "_boost",
        -10.548423608410866
      ],
      [
        "_iit",
        -10.548526327094823
      ],
      [
        "_Pla",
        -10.548555045902848
      ],
      [
        "_Cou",
        -10.548956421098083
      ],
      [
        "_tech",
        -10.549149166262236
      ],
      [
        "_should",
        -10.54916445231656
      ],
      [
        "_comm",
        -10.549254355731374
      ],
      [
        "_less",
        -10.549475825209086
      ],
      [
        "ised",
        -10.549527924831903
      ],
      [
        "_hope",
        -10.549594652998552
      ],
      [
        "_might",
        -10.549902231458542
      ],
      [
        "py",
        -10.551231708185014
      ],
      [
        "_THE",
        -10.551620198292827
      ],
      [
        ".S.",
        -10.55209309942212
      ],
      [
        "Wi",
        -10.55209787798466
      ],
      [
        "inal",
        -10.552174746348598
      ],
      [
        "form",
        -10.552372210309906
      ],
      [
        "_Wednes",
        -10.552374493962555
      ],
      [
        "'C",
        -10.552386606742472
      ],
      [
        "_strong",
        -10.553123125790716
      ],
      [
        "pped",
        -10.553362723355818
      ],
      [
        "nning",
        -10.553726180166144
      ],
      [
        "nar",
        -10.553957109826104
      ],
      [
        "_kn",
        -10.554069628418105
      ],
      [
        "rica",
        -10.5542677646182
      ],
      [
        "cra",
        -10.554726664236966
      ],
      [
        "vent",
        -10.55514997011036
      ],
      [
        "tlh",
        -10.555237647845644
      ],
      [
        "iC",
        -10.555476028245728
      ],
      [
        "18",
        -10.55565160140629
      ],
      [
        ",on",
        -10.555819244797629
      ],
      [
        "_\\$5",
        -10.555900817729174
      ],
      [
        "oad",
        -10.555925808403028
      ],
      [
        "Er",
        -10.556210067863406
      ],
      [
        "qi",
        -10.557052238136418
      ],
      [
        "tz",
        -10.557275093631468
      ],
      [
        "tA",
        -10.557305785093767
      ],
      [
        "ois",
        -10.557700617079542
      ],
      [
        "rp.",
        -10.558213418077681
      ],
      [
        "'st",
        -10.558277290986855
      ],
      [
        "_East",
        -10.558566297339521
      ],
      [
        "like",
        -10.558588588030368
      ],
      [
        "-2",
        -10.558655583853131
      ],
      [
        "liy",
        -10.559062154420754
      ],
      [
        "n-g",
        -10.559293402672246
      ],
      [
        "BM",
        -10.559658728223551
      ],
      [
        "_She",
        -10.559718094591377
      ],
      [
        "_title",
        -10.559760086408573
      ],
      [
        "_cas",
        -10.560079514230452
      ],
      [
        "e.s",
        -10.560116671286796
      ],
      [
        "_stop",
        -10.560293859383757
      ],
      [
        "_dow",
        -10.560467542420486
      ],
      [
        "_Sy",
        -10.560526947249276
      ],
      [
        "une",
        -10.560726025535196
      ],
      [
        "_sal",
        -10.561220383197877
      ],
      [
        "_cash",
        -10.561784740308514
      ],
      [
        "_mp",
        -10.561865609266043
      ],
      [
        "_uo",
        -10.562755114770024
      ],
      [
        "EN",
        -10.563050010068663
      ],
      [
        "_inv",
        -10.563180293382125
      ],
      [
        "SE",
        -10.563339118638002
      ],
      [
        "raq",
        -10.563547782506369
      ],
      [
        "osn",
        -10.564274616507316
      ],
      [
        "ibe",
        -10.564278407882632
      ],
      [
        "_higher",
        -10.565004785143456
      ],
      [
        "fed",
        -10.565201258811012
      ],
      [
        "ida",
        -10.566028429756273
      ],
      [
        "_iPod",
        -10.566059281993539
      ],
      [
        "_agree",
        -10.566490753573234
      ],
      [
        "_return",
        -10.566591047300962
      ],
      [
        ").",
        -10.566668396233911
      ],
      [
        "tnd",
        -10.56694100768483
      ],
      [
        "sign",
        -10.567408191635515
      ],
      [
        "_bad",
        -10.567695268013349
      ],
      [
        "1ed",
        -10.567811743476039
      ],
      [
        "iff",
        -10.568061122096719
      ],
      [
        "_Deal",
        -10.568123121843204
      ],
      [
        "EW",
        -10.568607668099798
      ],
      [
        "bing",
        -10.568734112800206
      ],
      [
        "_side",
        -10.568784058190575
      ],
      [
        "trs",
        -10.569518444620583
      ],
      [
        "pay",
        -10.569596471966893
      ],
      [
        "_Spa",
        -10.56983966901453
      ],
      [
        "Ju",
        -10.570569060196712
      ],
      [
        "von",
        -10.57085636235006
      ],
      [
        "unc",
        -10.570883048551647
      ],
      [
        "_Mark",
        -10.570936060989894
      ],
      [
        "e-rs",
        -10.570986280812578
      ],
      [
        "dic",
        -10.571029692665029
      ],
      [
        "_Ih",
        -10.571101901198519
      ],
      [
        "eof",
        -10.571228211039516
      ],
      [
        "_amid",
        -10.57127073352201
      ],
      [
        "Bush",
        -10.571433517895052
      ],
      [
        "ethe",
        -10.571701353826128
      ],
      [
        "tll",
        -10.571714120901913
      ],
      [
        "_Stat",
        -10.572124488120497
      ],
      [
        "hia",
        -10.572336118330881
      ],
      [
        "home",
        -10.572562901979056
      ],
      [
        "_thIe",
        -10.57266968953164
      ],
      [
        "_release",
        -10.572896695813569
      ],
      [
        "dom",
        -10.572933467762546
      ],
      [
        "ife",
        -10.573069117089767
      ],
      [
        "cur",
        -10.573104627942097
      ],
      [
        "Bu",
        -10.573473836571846
      ],
      [
        "i-t",
        -10.573708270707442
      ],
      [
        "eft",
        -10.573844695398442
      ],
      [
        "nse",
        -10.573981988612985
      ],
      [
        "_ny",
        -10.574265821213826
      ],
      [
        "_22",
        -10.574531052600744
      ],
      [
        "_games",
        -10.575050660810703
      ],
      [
        "lry",
        -10.57552292786354
      ],
      [
        "_ice",
        -10.575674262454331
      ],
      [
        "_Sec",
        -10.575723064164627
      ],
      [
        "_del",
        -10.576088539564847
      ],
      [
        "ncy",
        -10.576199835948081
      ],
      [
        "log",
        -10.57651884524705
      ],
      [
        "CO",
        -10.576540457075076
      ],
      [
        "RK",
        -10.577227375000364
      ],
      [
        "_rul",
        -10.577595494682491
      ],
      [
        "inz",
[...]
