{
  "version": "1.0",
  "truncation": null,
  "padding": null,
  "added_tokens": [
    {
      "id": 0,
      "content": "<pad>",
      "single_word": false,
      "lstrip": false,
      "rstrip": false,
      "normalized": false,
      "special": true
    },
    {
      "id": 1,
      "content": "<unk>",
      "single_word": false,
      "lstrip": false,
      "rstrip": false,
      "normalized": false,
      "special": true
    },
    {
      "id": 2,
      "content": "<mask>",
      "single_word": false,
      "lstrip": false,
      "rstrip": false,
      "normalized": false,
      "special": true
    },
    {
      "id": 3,
      "content": "<s>",
      "single_word": false,
      "lstrip": false,
      "rstrip": false,
      "normalized": false,
      "special": true
    },
    {
      "id": 4,
      "content": "</s>",
      "single_word": false,
      "lstrip": false,
      "rstrip": false,
      "normalized": false,
      "special": true
    }
  ],
  "normalizer": {
    "type": "Sequence",
    "normalizers": [
      {
        "type": "NFKC"
      }
    ]
  },
  "pre_tokenizer": {
    "type": "ByteLevel",
    "add_prefix_space": true,
    "trim_offsets": true,
    "use_regex": true
  },
  "post_processor": null,
  "decoder": null,
  "model": {
    "type": "BPE",
    "dropout": 0.3,
    "unk_token": "<unk>",
    "continuing_subword_prefix": null,
    "end_of_word_suffix": null,
    "fuse_unk": false,
    "byte_fallback": false,
    "ignore_merges": false,
    "vocab": {
      "<pad>": 0,
      "<unk>": 1,
      "<mask>": 2,
      "<s>": 3,
      "</s>": 4,
      "!": 5,
      "\"": 6,
      "#": 7,
      "$": 8,
      "%": 9,
      "&": 10,
      "'": 11,
      "(": 12,
      ")": 13,
      "*": 14,
      ",": 15,
      "-": 16,
      ".": 17,
      "/": 18,
      "0": 19,
      "1": 20,
      "2": 21,
      "3": 22,
      "4": 23,
      "5": 24,
      "6": 25,
      "7": 26,
      "8": 27,
      "9": 28,
      ":": 29,
      ";": 30,
      "=": 31,
      "?": 32,
      "A": 33,
      "B": 34,
      "C": 35,
      "D": 36,
      "E": 37,
      "F": 38,
      "G": 39,
      "H": 40,
      "I": 41,
      "J": 42,
      "K": 43,
      "L": 44,
      "M": 45,
      "N": 46,
      "O": 47,
      "P": 48,
      "Q": 49,
      "R": 50,
      "S": 51,
      "T": 52,
      "U": 53,
      "V": 54,
      "W": 55,
      "X": 56,
      "Y": 57,
      "Z": 58,
      "[": 59,
      "\\": 60,
      "]": 61,
      "_": 62,
      "a": 63,
      "b": 64,
      "c": 65,
      "d": 66,
      "e": 67,
      "f": 68,
      "g": 69,
      "h": 70,
      "i": 71,
      "j": 72,
      "k": 73,
      "l": 74,
      "m": 75,
      "n": 76,
      "o": 77,
      "p": 78,
      "q": 79,
      "r": 80,
      "s": 81,
      "t": 82,
      "u": 83,
      "v": 84,
      "w": 85,
      "x": 86,
      "y": 87,
      "z": 88,
      "~": 89,
      "Ġ": 90,
      "Ġt": 91,
      "in": 92,
      "Ġa": 93,
      "er": 94,
      "Ġs": 95,
      "Ġo": 96,
      "he": 97,
      "es": 98,
      "on": 99,
      "Ġi": 100,
      "an": 101,
      "or": 102,
      "en": 103,
      "Ġr": 104,
      "ar": 105,
      "ed": 106,
      "at": 107,
      "Ġc": 108,
      "Ġl": 109,
      "it": 110,
      "Ġf": 111,
      "Ġe": 112,
      "al": 113,
      "Ġn": 114,
      "Ġb": 115,
      "st": 116,
      "Ġw": 117,
      "Ġp": 118,
      "Ġh": 119,
      "il": 120,
      "Ġd": 121,
      "Ġ-": 122,
      "ic": 123,
      "is": 124,
      "et": 125,
      "Ġm": 126,
      "ĠS": 127,
      "el": 128,
      "ing": 129,
      "as": 130,
      "Ġthe": 131,
      "ro": 132,
      "Ġin": 133,
      "Ġto": 134,
      "re": 135,
      "ĠI": 136,
      "ut": 137,
      "ĠA": 138,
      "ay": 139,
      "nd": 140,
      "ĠT": 141,
      "id": 142,
      "ur": 143,
      "ĠC": 144,
      "Ġof": 145,
      "ir": 146,
      "le": 147,
      "ot": 148,
      "Ġth": 149,
      "om": 150,
      "ec": 151,
      "ol": 152,
      "ĠM": 153,
      "ion": 154,
      "ac": 155,
      "Ġg": 156,
      "ad": 157,
      "ĠP": 158,
      "ou": 159,
      "Ġ.": 160,
      "ĠB": 161,
      "ts": 162,
      "Ġu": 163,
      "ig": 164,
      "Ġon": 165,
      "ie": 166,
      "th": 167,
      "ers": 168,
      "am": 169,
      "ve": 170,
      "to": 171,
      "Ġ'": 172,
      "os": 173,
      "ĠW": 174,
      "ĠN": 175,
      "ent": 176,
      "ĠR": 177,
      "ĠF": 178,
      "us": 179,
      "te": 180,
      "Ġ#": 181,
      "39": 182,
      "ra": 183,
      "ri": 184,
      "ll": 185,
      "nt": 186,
      "ee": 187,
      "of": 188,
      "ĠU": 189,
      "ĠD": 190,
      "Ġ(": 191,
      "ia": 192,
      "ow": 193,
      "Ġan": 194,
      "Ġand": 195,
      "Ġv": 196,
      "Ġ1": 197,
      "ĠO": 198,
      "Ġy": 199,
      "ch": 200,
      "ce": 201,
      "ĠG": 202,
      "im": 203,
      "ĠE": 204,
      "io": 205,
      "est": 206,
      "Ġ,": 207,
      "ĠH": 208,
      "ea": 209,
      "ĠL": 210,
      "Ġfor": 211,
      "Ġst": 212,
      "un": 213,
      "'s": 214,
      "ill": 215,
      "and": 216,
      "lt": 217,
      "ld": 218,
      "Ġat": 219,
      "day": 220,
      "se": 221,
      "Ġre": 222,
      "ly": 223,
      "the": 224,
      "ng": 225,
      "Ġhe": 226,
      "ne": 227,
      "qu": 228,
      "ag": 229,
      "ht": 230,
      "op": 231,
      "ter": 232,
      "ai": 233,
      "em": 234,
      "ver": 235,
      "Ġas": 236,
      "la": 237,
      "ct": 238,
      "ak": 239,
      "od": 240,
      "li": 241,
      "rs": 242,
      "Ġis": 243,
      "ew": 244,
      "ĠJ": 245,
      "lo": 246,
      "Ġit": 247,
      "ĠĠ": 248,
      "ith": 249,
      "ap": 250,
      "ns": 251,
      "ear": 252,
      "be": 253,
      "ks": 254,
      "iv": 255,
      "ls": 256,
      "if": 257,
      "ess": 258,
      "up": 259,
      "Ġbe": 260,
      "oc": 261,
      "Ġk": 262,
      "Ġ2": 263,
      "ist": 264,
      "'t": 265,
      "ul": 266,
      "ip": 267,
      "um": 268,
      "00": 269,
      "ain": 270,
      "ab": 271,
      "ian": 272,
      "rt": 273,
      "ho": 274,
      "ĠK": 275,
      "..": 276,
      "ud": 277,
      "ate": 278,
      "ss": 279,
      "ge": 280,
      "for": 281,
      "av": 282,
      "nc": 283,
      "Ġen": 284,
      "ei": 285,
      "ep": 286,
      "ef": 287,
      "Ġsa": 288,
      "ry": 289,
      "all": 290,
      "ti": 291,
      "ast": 292,
      "oo": 293,
      "Ġer": 294,
      "ue": 295,
      "ha": 296,
      "mp": 297,
      "ĠThe": 298,
      "ies": 299,
      "ug": 300,
      "me": 301,
      "tr": 302,
      "ke": 303,
      "ation": 304,
      "ĠV": 305,
      "omp": 306,
      "ort": 307,
      "ii": 308,
      "ov": 309,
      "Ġpro": 310,
      "uc": 311,
      "Ġpr": 312,
      "ev": 313,
      "Ġby": 314,
      "gt": 315,
      "art": 316,
      "--": 317,
      "si": 318,
      "ust": 319,
      "pe": 320,
      "Ġsh": 321,
      "ine": 322,
      "ae": 323,
      "our": 324,
      "Ġte": 325,
      "Ġor": 326,
      "ob": 327,
      "ĠTh": 328,
      "Ġch": 329,
      "Ġcon": 330,
      "Ġar": 331,
      "ost": 332,
      "Ġqu": 333,
      "rom": 334,
      "end": 335,
      "ĠY": 336,
      "Ġex": 337,
      "out": 338,
      "eb": 339,
      "ub": 340,
      "Ġj": 341,
      "Ġits": 342,
      "Ġaf": 343,
      "ial": 344,
      "ack": 345,
      "Re": 346,
      "ĠSt": 347,
      "ard": 348,
      "Ġal": 349,
      "Ġag": 350,
      "Ġse": 351,
      "\\$": 352,
      "Ġwith": 353,
      "pp": 354,
      "co": 355,
      "Ġpl": 356,
      "her": 357,
      "ib": 358,
      "Ġthat": 359,
      "ity": 360,
      "af": 361,
      "sh": 362,
      "Ġle": 363,
      "ore": 364,
      "ĠCh": 365,
      "Ġhas": 366,
      "oe": 367,
      "Ġes": 368,
      "are": 369,
      "ni": 370,
      "oi": 371,
      "ant": 372,
      "pl": 373,
      "Ġac": 374,
      "ĠIn": 375,
      "de": 376,
      "Ġha": 377,
      "Ġco": 378,
      "wo": 379,
      "ell": 380,
      "rn": 381,
      "ice": 382,
      "Ġ3": 383,
      "ect": 384,
      "Ġsp": 385,
      "ds": 386,
      "ere": 387,
      "res": 388,
      "AP": 389,
      "und": 390,
      "ight": 391,
      "ern": 392,
      "hn": 393,
      "Ġtr": 394,
      "ĠUS": 395,
      "Ġ;": 396,
      "In": 397,
      "ans": 398,
      "Ġ~": 399,
      "tt": 400,
      "hi": 401,
      "its": 402,
      "Ġne": 403,
      "og": 404,
      ",-": 405,
      "sl": 406,
      "ck": 407,
      "Ġed": 408,
      "Ġ:": 409,
      "tl": 410,
      "ff": 411,
      "Ġad": 412,
      ".-": 413,
      "mer": 414,
      "Ġoff": 415,
      "Ġab": 416,
      "ln": 417,
      "uters": 418,
      "ond": 419,
      "rd": 420,
      "Ġup": 421,
      "oft": 422,
      "Ġhis": 423,
      "cl": 424,
      "ive": 425,
      "int": 426,
      "Ġsaid": 427,
      "ail": 428,
      "ih": 429,
      "Ġwh": 430,
      "ets": 431,
      "igh": 432,
      "Ġde": 433,
      "ah": 434,
      "ors": 435,
      "Ġfo": 436,
      "ace": 437,
      "Ġ\\$": 438,
      "ide": 439,
      "ile": 440,
      "pr": 441,
      "ment": 442,
      "ens": 443,
      "any": 444,
      "one": 445,
      "ft": 446,
      "ong": 447,
      "Ġla": 448,
      "ite": 449,
      "old": 450,
      "Ġ--": 451,
      "ord": 452,
      "ree": 453,
      "ons": 454,
      "Ġwas": 455,
      "It": 456,
      "ins": 457,
      "nes": 458,
      "Ġ&": 459,
      "Is": 460,
      "ome": 461,
      "ms": 462,
      "ber": 463,
      "ick": 464,
      "cr": 465,
      "ues": 466,
      "'d": 467,
      "Ġcomp": 468,
      "Ġ\"": 469,
      "Ġnew": 470,
      "ind": 471,
      "ĠFr": 472,
      "Ġts": 473,
      "ions": 474,
      "ork": 475,
      "ays": 476,
      "Ġfrom": 477,
      "ta": 478,
      "gh": 479,
      "Ġun": 480,
      "ON": 481,
      "ame": 482,
      "-.": 483,
      "da": 484,
      "Ġfir": 485,
      "ok": 486,
      "ati": 487,
      "Ġcl": 488,
      "sa": 489,
      "fo": 490,
      "arg": 491,
      "nn": 492,
      "Ġop": 493,
      "rl": 494,
      "ĠRe": 495,
      "urs": 496,
      "Ġsc": 497,
      "Ġ4": 498,
      "Ġnd": 499,
      "anc": 500,
      "ass": 501,
      "Ġng": 502,
      "Ġti": 503,
      "ex": 504,
      "ure": 505,
      "nl": 506,
      "ould": 507,
      "ish": 508,
      "ark": 509,
      "ma": 510,
      "na": 511,
      "Ġout": 512,
      "Ġgo": 513,
      "con": 514,
      "ina": 515,
      "Ġ9": 516,
      "ric": 517,
      "ase": 518,
      "ys": 519,
      "amp": 520,
      "ake": 521,
      ";/": 522,
      "ros": 523,
      "Ġot": 524,
      "com": 525,
      "erv": 526,
      "iss": 527,
      "no": 528,
      "ire": 529,
      "als": 530,
      "oll": 531,
      "Ġwill": 532,
      "hs": 533,
      "ull": 534,
      "ary": 535,
      "Ġ6": 536,
      "raq": 537,
      "act": 538,
      "man": 539,
      "Ġwi": 540,
      "age": 541,
      "ote": 542,
      "Ġta": 543,
      "Ie": 544,
      "Ġpe": 545,
      "ws": 546,
      "Ir": 547,
      "Ġcom": 548,
      "ĠAP": 549,
      "ier": 550,
      "bs": 551,
      "fe": 552,
      "po": 553,
      "Ġare": 554,
      "rit": 555,
      "Ġres": 556,
      "Ġq": 557,
      "ich": 558,
      "ign": 559,
      ".,": 560,
      "Ġet": 561,
      "Ġso": 562,
      "hed": 563,
      "iu": 564,
      "ps": 565,
      "Ġover": 566,
      "OR": 567,
      "Ġrs": 568,
      "fi": 569,
      "pt": 570,
      "Ġma": 571,
      "Ġnt": 572,
      "ars": 573,
      "ade": 574,
      "bl": 575,
      "by": 576,
      "ert": 577,
      "eek": 578,
      "ank": 579,
      "Ġsi": 580,
      "ict": 581,
      "ning": 582,
      "oh": 583,
      "oy": 584,
      "ory": 585,
      "ise": 586,
      "Ġsec": 587,
      "ach": 588,
      "ont": 589,
      "orld": 590,
      "ime": 591,
      "ci": 592,
      "wn": 593,
      "ous": 594,
      "we": 595,
      "own": 596,
      "por": 597,
      "Ġrec": 598,
      "ĠUn": 599,
      "rr": 600,
      "cs": 601,
      "ĠCo": 602,
      "ĠNew": 603,
      "Ġel": 604,
      "hat": 605,
      "Ġsl": 606,
      "Ġra": 607,
      "Ġme": 608,
      "Ġli": 609,
      "els": 610,
      "Ġol": 611,
      "'-": 612,
      "Ġfi": 613,
      "au": 614,
      "men": 615,
      "ĠIs": 616,
      "enc": 617,
      "Ġbu": 618,
      "ru": 619,
      "rg": 620,
      "Ġus": 621,
      "Ġper": 622,
      "ral": 623,
      "Ġtl": 624,
      "port": 625,
      "Ġsu": 626,
      "oa": 627,
      "ose": 628,
      "ca": 629,
      "Ġfr": 630,
      "-,": 631,
      "Ġil": 632,
      "The": 633,
      "pro": 634,
      "ele": 635,
      "Ġam": 636,
      "xt": 637,
      "Ġ5": 638,
      "iday": 639,
      "Qu": 640,
      "ang": 641,
      "att": 642,
      "Ġyear": 643,
      "ash": 644,
      "AN": 645,
      "-'": 646,
      "Ġ200": 647,
      "hen": 648,
      "per": 649,
      "ett": 650,
      "ates": 651,
      "Ġut": 652,
      "aid": 653,
      "gr": 654,
      "bo": 655,
      "led": 656,
      "St": 657,
      "iI": 658,
      "les": 659,
      "iz": 660,
      "ound": 661,
      "ĠMic": 662,
      "'m": 663,
      ".'": 664,
      "Ġss": 665,
      "ĠInt": 666,
      "ned": 667,
      "Ġquot": 668,
      "uro": 669,
      "Ġbut": 670,
      "Ġhave": 671,
      "ird": 672,
      "ĠIt": 673,
      "Ġlo": 674,
      "lr": 675,
      "Ġcr": 676,
      "Ġca": 677,
      "Ġpo": 678,
      "Ġmo": 679,
      "lin": 680,
      "ba": 681,
      "br": 682,
      "ces": 683,
      "eld": 684,
      "Id": 685,
      "ty": 686,
      "Ġur": 687,
      "Ġid": 688,
      "Ġall": 689,
      "mi": 690,
      "Ġnot": 691,
      ",.": 692,
      "AS": 693,
      "Ġwe": 694,
      "ner": 695,
      "Ġbo": 696,
      "row": 697,
      "Ġafter": 698,
      "Ġtwo": 699,
      "sp": 700,
      "ices": 701,
      "Ġro": 702,
      "ves": 703,
      "Ġll": 704,
      "fl": 705,
      "nr": 706,
      "Ġing": 707,
      "ĠSh": 708,
      "aw": 709,
      "Ġ7": 710,
      "IN": 711,
      "orp": 712,
      "ĠSp": 713,
      "Ġns": 714,
      "...": 715,
      "ĠWed": 716,
      "vi": 717,
      "ats": 718,
      "ush": 719,
      "ey": 720,
      "ĠInc": 721,
      "Ġic": 722,
      "Ġcou": 723,
      "Ġhi": 724,
      "Ġno": 725,
      "Ġtb": 726,
      "ĠAf": 727,
      "uter": 728,
      "ied": 729,
      "sr": 730,
      "Ġir": 731,
      "iy": 732,
      "ale": 733,
      "ĠIraq": 734,
      "ild": 735,
      "lp": 736,
      "ny": 737,
      "aI": 738,
      "ven": 739,
      "oss": 740,
      "Ġif": 741,
      "FP": 742,
      "Ġtt": 743,
      "Ġdo": 744,
      "ĠInd": 745,
      "Ġce": 746,
      "ane": 747,
      "hes": 748,
      "US": 749,
      "ited": 750,
      "ĠPr": 751,
      "ĠNo": 752,
      "bt": 753,
      "Ġear": 754,
      "ute": 755,
      "ph": 756,
      "ance": 757,
      "Ġone": 758,
      "Ġter": 759,
      "EW": 760,
      "ated": 761,
      "Ġef": 762,
      "ted": 763,
      "Ġwit": 764,
      "ble": 765,
      "hd": 766,
      "ien": 767,
      ",'": 768,
      "aa": 769,
      "ww": 770,
      "Ġim": 771,
      "'.": 772,
      "hr": 773,
      "yst": 774,
      "Ġdis": 775,
      "ely": 776,
      "ik": 777,
      "Ġov": 778,
      "ics": 779,
      "mo": 780,
      "Ġia": 781,
      "go": 782,
      "Ġfin": 783,
      "Ġint": 784,
      "ĠIr": 785,
      "ui": 786,
      "Reuters": 787,
      "Ġwin": 788,
      "wa": 789,
      "Th": 790,
      "ese": 791,
      "Ġos": 792,
      "Ġay": 793,
      "ident": 794,
      "Ġve": 795,
      "Ġrt": 796,
      "orn": 797,
      "oun": 798,
      "Il": 799,
      "Ġwa": 800,
      "Ġexp": 801,
      "fr": 802,
      "off": 803,
      "Ġfl": 804,
      "mb": 805,
      "Ġie": 806,
      "ĠSe": 807,
      "Ġtn": 808,
      "Ġday": 809,
      "Ġ8": 810,
      "=\"": 811,
      "ĠEx": 812,
      "Ġ0": 813,
      "Ġsto": 814,
      "Ġret": 815,
      "Ġho": 816,
      "ock": 817,
      "use": 818,
      "Ġec": 819,
      "di": 820,
      "ica": 821,
      "ĠMon": 822,
      "ath": 823,
      "du": 824,
      "iti": 825,
      "Ġtheir": 826,
      "urn": 827,
      "ence": 828,
      "so": 829,
      "Ġman": 830,
      "Ġtw": 831,
      "ief": 832,
      "illion": 833,
      "his": 834,
      "itt": 835,
      "ings": 836,
      "rm": 837,
      "Ġou": 838,
      "inc": 839,
      "uss": 840,
      "az": 841,
      "ĠPro": 842,
      "tn": 843,
      "ople": 844,
      "eri": 845,
      "Ġai": 846,
      "rc": 847,
      "lc": 848,
      "Ġea": 849,
      "alt": 850,
      "Ġlead": 851,
      "with": 852,
      "red": 853,
      "Ġtha": 854,
      "Ġend": 855,
      "Ġapp": 856,
      "Ġent": 857,
      "Ġls": 858,
      "bi": 859,
      "Ġmil": 860,
      "ĠAs": 861,
      "ght": 862,
      "Ġtbe": 863,
      "ther": 864,
      "ye": 865,
      "ton": 866,
      "ason": 867,
      "der": 868,
      "Ġx": 869,
      "ĠAn": 870,
      "ann": 871,
      "gy": 872,
      "vest": 873,
      "Ġlea": 874,
      "Ġwho": 875,
      "Ġwor": 876,
      "ini": 877,
      "ao": 878,
      "hl": 879,
      "ron": 880,
      "etw": 881,
      "roup": 882,
      "Ġfe": 883,
      "ene": 884,
      "lect": 885,
      "bu": 886,
      "sn": 887,
      "Ġwo": 888,
      "sc": 889,
      "Ġio": 890,
      "air": 891,
      "fer": 892,
      "ents": 893,
      "ler": 894,
      "Ġion": 895,
      "cc": 896,
      "that": 897,
      "Ġap": 898,
      "Ġfirst": 899,
      "ĠTues": 900,
      "Ġmore": 901,
      "Ġlt": 902,
      "Ġhad": 903,
      "ows": 904,
      "wi": 905,
      "Ġpre": 906,
      "Ch": 907,
      "ook": 908,
      "Ġthis": 909,
      "ult": 910,
      "arr": 911,
      "over": 912,
      "ani": 913,
      "atio": 914,
      "eng": 915,
      "Ġann": 916,
      "Ġoi": 917,
      "ĠFor": 918,
      "ĠAl": 919,
      "Ġind": 920,
      "Ġbr": 921,
      "Ġmon": 922,
      "arter": 923,
      "Ġbl": 924,
      "ally": 925,
      "has": 926,
      "ester": 927,
      "Ġsn": 928,
      "eli": 929,
      "Ġpol": 930,
      "fs": 931,
      "atur": 932,
      "dr": 933,
      "ainst": 934,
      "Ġdi": 935,
      "Ġacc": 936,
      "Ġln": 937,
      "do": 938,
      "lic": 939,
      "Ġmi": 940,
      "RE": 941,
      "Ġoil": 942,
      "med": 943,
      "ete": 944,
      "err": 945,
      "Ġom": 946,
      "cent": 947,
      "Ġlast": 948,
      "Ġ)": 949,
      "Ġri": 950,
      "Ġ10": 951,
      "Ġev": 952,
      "ales": 953,
      "ĠSo": 954,
      "Ġstr": 955,
      "ased": 956,
      ";-": 957,
      "Ġmak": 958,
      "ĠZ": 959,
      "Ġdr": 960,
      "eh": 961,
      "eo": 962,
      "bn": 963,
      "lay": 964,
      "era": 965,
      "ĠMi": 966,
      "ua": 967,
      "Ġwar": 968,
      "ots": 969,
      "pi": 970,
      "irs": 971,
      "ze": 972,
      "ition": 973,
      "year": 974,
      "ead": 975,
      "Ġdec": 976,
      "ĠMa": 977,
      "Ġba": 978,
      "war": 979,
      "eg": 980,
      ",,": 981,
      "ines": 982,
      "ĠMo": 983,
      "Ġrel": 984,
      "omm": 985,
      "ams": 986,
      "reat": 987,
      "Ġweek": 988,
      "Ġct": 989,
      "ount": 990,
      "ĠBr": 991,
      "Ġatt": 992,
      "lan": 993,
      "ower": 994,
      "Ġph": 995,
      "pa": 996,
      "Ġ\\": 997,
      "Ġ20": 998,
      "td": 999,
      "ORK": 1000,
      "ounc": 1001,
      "cn": 1002,
      "vo": 1003,
      "eral": 1004,
      "Ġthan": 1005,
      "Ġem": 1006,
      "cks": 1007,
      "unt": 1008,
      "vs": 1009,
      "ware": 1010,
      "inl": 1011,
      "arl": 1012,
      "pen": 1013,
      "Ġdes": 1014,
      "Ġsup": 1015,
      "Ġtro": 1016,
      "gi": 1017,
      "ations": 1018,
      "Ġplay": 1019,
      "Ġset": 1020,
      "Ġdef": 1021,
      "Ġund": 1022,
      "inn": 1023,
      "fir": 1024,
      "ual": 1025,
      "ER": 1026,
      "ical": 1027,
      "Ġii": 1028,
      "ged": 1029,
      "rat": 1030,
      "ursday": 1031,
      "uts": 1032,
      "Ġinto": 1033,
      "ech": 1034,
      "gl": 1035,
      "Ġant": 1036,
      "Ġee": 1037,
      "',": 1038,
      "000": 1039,
      "Io": 1040,
      "Ġsur": 1041,
      "ĠX": 1042,
      "ĠDe": 1043,
      "Ġrn": 1044,
      "su": 1045,
      "Ġtho": 1046,
      "olog": 1047,
      "ĠCl": 1048,
      "IS": 1049,
      "etr": 1050,
      "ĠAr": 1051,
      "fit": 1052,
      "AT": 1053,
      "ger": 1054,
      "\"&": 1055,
      "icial": 1056,
      "elt": 1057,
      "min": 1058,
      "ĠQ": 1059,
      "ital": 1060,
      "ĠNEW": 1061,
      "Ic": 1062,
      "Ġcan": 1063,
      "Ġiu": 1064,
      "Ġna": 1065,
      "BM": 1066,
      "oth": 1067,
      "way": 1068,
      "iat": 1069,
      "Ġste": 1070,
      "va": 1071,
      "Ġthey": 1072,
      "Ġld": 1073,
      "//": 1074,
      "wh": 1075,
      "Ġgr": 1076,
      "able": 1077,
      "nesday": 1078,
      "lu": 1079,
      "ils": 1080,
      "tp": 1081,
      "Ġsay": 1082,
      "gs": 1083,
      "str": 1084,
      "tin": 1085,
      "ved": 1086,
      "lh": 1087,
      "che": 1088,
      "omb": 1089,
      "Ġtie": 1090,
      "10": 1091,
      "cy": 1092,
      "orm": 1093,
      "sts": 1094,
      "dt": 1095,
      "ĠAmer": 1096,
      "Ġimp": 1097,
      "Ġins": 1098,
      "Ġwil": 1099,
      "ugh": 1100,
      "vern": 1101,
      "AL": 1102,
      "Ġbeen": 1103,
      "Ġye": 1104,
      "atch": 1105,
      "arn": 1106,
      "tion": 1107,
      "ali": 1108,
      "Ġow": 1109,
      "Ġ19": 1110,
      "Ġpri": 1111,
      "ata": 1112,
      "''": 1113,
      "ĠCon": 1114,
      "land": 1115,
      "Ġvi": 1116,
      "Ġwere": 1117,
      "ĠSu": 1118,
      "ster": 1119,
      "ga": 1120,
      "ĠAt": 1121,
      "han": 1122,
      "Ġtri": 1123,
      "rea": 1124,
      "'re": 1125,
      "Ġfa": 1126,
      "Ia": 1127,
      "AR": 1128,
      "Ġinc": 1129,
      "Ġae": 1130,
      "ĠJap": 1131,
      "Ġbec": 1132,
      "ĠCorp": 1133,
      "Ġpa": 1134,
      "eds": 1135,
      "ker": 1136,
      "was": 1137,
      "Ġtal": 1138,
      "orth": 1139,
      "ket": 1140,
      "Fr": 1141,
      "oI": 1142,
      "ĠPe": 1143,
      "ĠTr": 1144,
      "Ġbi": 1145,
      "Ġers": 1146,
      "ony": 1147,
      "Ġsm": 1148,
      ")-": 1149,
      "Ġbus": 1150,
      "ĠSund": 1151,
      "Ġtra": 1152,
      "Ġod": 1153,
      "ĠMar": 1154,
      "app": 1155,
      "gn": 1156,
      "bal": 1157,
      "Ġft": 1158,
      "urt": 1159,
      "earch": 1160,
      "Ġback": 1161,
      "ret": 1162,
      "Ġcar": 1163,
      "ĠEuro": 1164,
      "Ġav": 1165,
      "fa": 1166,
      "Ii": 1167,
      "Ġtor": 1168,
      "AFP": 1169,
      "ĠPres": 1170,
      "Ġda": 1171,
      "Ġserv": 1172,
      "pos": 1173,
      "ĠAir": 1174,
      "rac": 1175,
      "iin": 1176,
      "Ġmay": 1177,
      "Ġfour": 1178,
      "ĠTo": 1179,
      "Ġmark": 1180,
      "echn": 1181,
      "ected": 1182,
      ";.": 1183,
      "ĠBe": 1184,
      "ims": 1185,
      "ida": 1186,
      "oin": 1187,
      "Ġrd": 1188,
      "urity": 1189,
      "ald": 1190,
      "Ing": 1191,
      "Ġni": 1192,
      "cd": 1193,
      "Ġabout": 1194,
      "Ġher": 1195,
      "enn": 1196,
      "Reut": 1197,
      "Ġest": 1198,
      "lv": 1199,
      "66": 1200,
      "ants": 1201,
      "Ġbro": 1202,
      "ĠBl": 1203,
      "ction": 1204,
      "Ġfro": 1205,
      "ced": 1206,
      "ĠWe": 1207,
      "Ġkill": 1208,
      "ican": 1209,
      "ĠtI": 1210,
      "Ġcap": 1211,
      "ames": 1212,
      "Ġser": 1213,
      "ĠQu": 1214,
      "Ġdev": 1215,
      "gu": 1216,
      "mt": 1217,
      "ĠSa": 1218,
      "but": 1219,
      "Ġrun": 1220,
      "mon": 1221,
      "uch": 1222,
      "ĠPri": 1223,
      "ĠMonday": 1224,
      "ki": 1225,
      "50": 1226,
      "erd": 1227,
      "Ġsw": 1228,
      "Ġmed": 1229,
      "ists": 1230,
      "ott": 1231,
      "ecut": 1232,
      "ĠPh": 1233,
      "TO": 1234,
      "comp": 1235,
      "eep": 1236,
      "Ġair": 1237,
      "Ġiin": 1238,
      "ĠMin": 1239,
      "ope": 1240,
      "eni": 1241,
      "Ġbig": 1242,
      "xp": 1243,
      "lor": 1244,
      "get": 1245,
      "Ġht": 1246,
      "let": 1247,
      "ating": 1248,
      "Ġpres": 1249,
      "Ġbet": 1250,
      "jor": 1251,
      "Ġei": 1252,
      "EN": 1253,
      "ari": 1254,
      "=/": 1255,
      "ked": 1256,
      "ĠPa": 1257,
      "ING": 1258,
      "mn": 1259,
      "ĠAd": 1260,
      "uf": 1261,
      "ĠTe": 1262,
      "sd": 1263,
      "nal": 1264,
      "Ġmin": 1265,
      "gle": 1266,
      "ares": 1267,
      "ita": 1268,
      "Ġhav": 1269,
      "Co": 1270,
      "vel": 1271,
      "Ġtak": 1272,
      "net": 1273,
      "ĠBu": 1274,
      "ĠSec": 1275,
      "ili": 1276,
      "eal": 1277,
      "Ġtop": 1278,
      "ges": 1279,
      "Ġpar": 1280,
      "lear": 1281,
      "Ġly": 1282,
      "Ġmor": 1283,
      "ĠBrit": 1284,
      "Ġcol": 1285,
      "Ġge": 1286,
      "isi": 1287,
      "ling": 1288,
      "Ġworld": 1289,
      "Ġnn": 1290,
      "ĠNe": 1291,
      "ĠFriday": 1292,
      "Ġbhe": 1293,
      "sto": 1294,
      "ilt": 1295,
      "aly": 1296,
      "ands": 1297,
      "uo": 1298,
      "://": 1299,
      "fin": 1300,
      "vt": 1301,
      "atl": 1302,
      "Ġah": 1303,
      "ĠUp": 1304,
      "rh": 1305,
      "ury": 1306,
      "ones": 1307,
      "Ġteam": 1308,
      "Ġci": 1309,
      "king": 1310,
      "new": 1311,
      "ley": 1312,
      "itn": 1313,
      "ici": 1314,
      "dn": 1315,
      "ater": 1316,
      "Ġsoft": 1317,
      "isc": 1318,
      "ths": 1319,
      "iness": 1320,
      "Ġplan": 1321,
      "elr": 1322,
      "Ġpos": 1323,
      "from": 1324,
      "ily": 1325,
      "ĠUN": 1326,
      "ĠAm": 1327,
      "Ġaa": 1328,
      "ains": 1329,
      "erm": 1330,
      "eth": 1331,
      "ered": 1332,
      "CO": 1333,
      "Ġlin": 1334,
      "Ġds": 1335,
      "Ġaid": 1336,
      "ĠCan": 1337,
      "line": 1338,
      "ince": 1339,
      "DA": 1340,
      "Ġeo": 1341,
      "ough": 1342,
      "Ġinter": 1343,
      "ori": 1344,
      "Ġnc": 1345,
      "ĠRes": 1346,
      "ĠFo": 1347,
      "Ġew": 1348,
      "ste": 1349,
      "ourt": 1350,
      "hel": 1351,
      "ĠJo": 1352,
      "Int": 1353,
      "Ġsai": 1354,
      "adi": 1355,
      "rem": 1356,
      "ady": 1357,
      "Ġih": 1358,
      "ris": 1359,
      "fu": 1360,
      "inu": 1361,
      "Ġyou": 1362,
      "anl": 1363,
      "ĠAust": 1364,
      "ove": 1365,
      "rk": 1366,
      "200": 1367,
      "cu": 1368,
      "ĠCol": 1369,
      "Ġreg": 1370,
      "rosoft": 1371,
      "89": 1372,
      "cer": 1373,
      "Ġsb": 1374,
      "outh": 1375,
      "Ġz": 1376,
      "ball": 1377,
      "ĠOn": 1378,
      "ops": 1379,
      "ives": 1380,
      "hip": 1381,
      "head": 1382,
      "EL": 1383,
      "Ġith": 1384,
      "ision": 1385,
      "TON": 1386,
      "said": 1387,
      "duc": 1388,
      "uk": 1389,
      "As": 1390,
      "irt": 1391,
      "idn": 1392,
      "uring": 1393,
      "edi": 1394,
      "Ġwork": 1395,
      "Ġsays": 1396,
      "ĠHe": 1397,
      "Ġsee": 1398,
      "ave": 1399,
      "fn": 1400,
      "ĠSto": 1401,
      "gin": 1402,
      "iet": 1403,
      "ister": 1404,
      "ĠYORK": 1405,
      "acks": 1406,
      "Ġtime": 1407,
      "ĠGr": 1408,
      "Ġtel": 1409,
      "ĠSun": 1410,
      "iee": 1411,
      "Ġru": 1412,
      "OS": 1413,
      "Ġty": 1414,
      "alf": 1415,
      "ple": 1416,
      "Ġwould": 1417,
      "Ġgro": 1418,
      "lm": 1419,
      "Ġib": 1420,
      "par": 1421,
      "Ġpart": 1422,
      "Ġthei": 1423,
      "Ġton": 1424,
      "Ġhigh": 1425,
      "Ġgame": 1426,
      "Ġcont": 1427,
      "ĠSc": 1428,
      "Un": 1429,
      "will": 1430,
      "cess": 1431,
      "ange": 1432,
      "ĠCa": 1433,
      "iew": 1434,
      "ting": 1435,
      "Ġtd": 1436,
      "rv": 1437,
      "ror": 1438,
      "On": 1439,
      "Ġ39": 1440,
      "lI": 1441,
      "Ġthree": 1442,
      "arm": 1443,
      "irst": 1444,
      "Ġwhen": 1445,
      "Ġtle": 1446,
      "Ġthi": 1447,
      "ystem": 1448,
      "bd": 1449,
      "Ġdem": 1450,
      "Ġthre": 1451,
      "uld": 1452,
      "ĠBush": 1453,
      "rop": 1454,
      "Ġcould": 1455,
      "ana": 1456,
      "illi": 1457,
      "ĠOly": 1458,
      "mm": 1459,
      "ols": 1460,
      "Ġill": 1461,
      "ito": 1462,
      "top": 1463,
      "ĠWi": 1464,
      "uth": 1465,
      "ement": 1466,
      "ĠPl": 1467,
      "Ġaft": 1468,
      "ĠPal": 1469,
      "ĠRed": 1470,
      "orl": 1471,
      "Ġpi": 1472,
      "Ġdown": 1473,
      "ude": 1474,
      "ES": 1475,
      "back": 1476,
      "Ġtf": 1477,
      "Ġnext": 1478,
      "oul": 1479,
      "ears": 1480,
      "ĠApp": 1481,
      "Ġast": 1482,
      "Ġ11": 1483,
      "New": 1484,
      "Ġfil": 1485,
      ";&": 1486,
      "ped": 1487,
      "ĠCup": 1488,
      "Ġcompany": 1489,
      "uh": 1490,
      "Ġrep": 1491,
      "Ġtc": 1492,
      "ational": 1493,
      "Ġpla": 1494,
      "fore": 1495,
      "Ind": 1496,
      "nh": 1497,
      "uit": 1498,
      "Ġoe": 1499,
      "ilit": 1500,
      "ports": 1501,
      "Ġbas": 1502,
      "iant": 1503,
      "Ġig": 1504,
      "ries": 1505,
      "ren": 1506,
      "Ġwhe": 1507,
      "Ġyester": 1508,
      "Ġcons": 1509,
      "ward": 1510,
      "ids": 1511,
      "rel": 1512,
      "-;": 1513,
      "BA": 1514,
      "Ġtthe": 1515,
      "tb": 1516,
      "lf": 1517,
      "ĠOil": 1518,
      "rp": 1519,
      "unc": 1520,
      "ece": 1521,
      "Ġoa": 1522,
      "Ġeh": 1523,
      "tem": 1524,
      "Se": 1525,
      "Ġ2004": 1526,
      "gest": 1527,
      "eti": 1528,
      "Ġred": 1529,
      "itl": 1530,
      "ĠGe": 1531,
      "Ġlat": 1532,
      "Ġhig": 1533,
      "ĠAT": 1534,
      "Ġwon": 1535,
      "ĠĠĠ": 1536,
      "uct": 1537,
      "Ġhs": 1538,
      "An": 1539,
      "rI": 1540,
      "ised": 1541,
      "ĠSer": 1542,
      "ism": 1543,
      "ĠBo": 1544,
      "ĠIsra": 1545,
      "Sp": 1546,
      "ĠIBM": 1547,
      "...&": 1548,
      "Ġtoday": 1549,
      "Ion": 1550,
      "form": 1551,
      "gan": 1552,
      "lat": 1553,
      "arge": 1554,
      "Ġche": 1555,
      "Ġcs": 1556,
      "ĠRep": 1557,
      "Ih": 1558,
      "here": 1559,
      "Ġwhich": 1560,
      "Ġact": 1561,
      "rec": 1562,
      "Sh": 1563,
      "raf": 1564,
      "ĠEng": 1565,
      "IT": 1566,
      "Ġkn": 1567,
      "uel": 1568,
      "ery": 1569,
      "alif": 1570,
      "ures": 1571,
      "rb": 1572,
      "erl": 1573,
      "iden": 1574,
      "Ġget": 1575,
      "usp": 1576,
      "ĠTuesday": 1577,
      "dy": 1578,
      "other": 1579,
      "ĠiP": 1580,
      "20": 1581,
      "ĠSte": 1582,
      "ĠLea": 1583,
      "At": 1584,
      "ional": 1585,
      "Ġcut": 1586,
      "Ġyears": 1587,
      "atn": 1588,
      "rov": 1589,
      "dl": 1590,
      "ept": 1591,
      "Ġamp": 1592,
      "Ġshe": 1593,
      "Ġpub": 1594,
      "isn": 1595,
      "ĠLa": 1596,
      "15": 1597,
      "leg": 1598,
      "ato": 1599,
      "rol": 1600,
      "36": 1601,
      "ney": 1602,
      "ads": 1603,
      "Ġopen": 1604,
      "ful": 1605,
      "Ġip": 1606,
      "Ġep": 1607,
      "Ġove": 1608,
      "ĠGoo": 1609,
      "lb": 1610,
      "Ġecon": 1611,
      "Ġain": 1612,
      ";,": 1613,
      "riv": 1614,
      "REF": 1615,
      "ek": 1616,
      "Ġcn": 1617,
      "Ġsr": 1618,
      "Ġelect": 1619,
      "Ġbel": 1620,
      "unch": 1621,
      "Ġtio": 1622,
      "Ġob": 1623,
      "ona": 1624,
      "ods": 1625,
      ":-": 1626,
      "eat": 1627,
      "asp": 1628,
      "rew": 1629,
      "Ġcal": 1630,
      "uy": 1631,
      "Ġjob": 1632,
      "Ġcount": 1633,
      "Ġdeal": 1634,
      "Ġtake": 1635,
      "tes": 1636,
      "reed": 1637,
      "ada": 1638,
      "tor": 1639,
      "ĠMc": 1640,
      "gue": 1641,
      "Ġmar": 1642,
      "Ġris": 1643,
      "ino": 1644,
      "yo": 1645,
      "ink": 1646,
      "Ġrem": 1647,
      "ĠSatur": 1648,
      "eft": 1649,
      "Ġnight": 1650,
      "Ġhit": 1651,
      "Ġthr": 1652,
      "ians": 1653,
      "www": 1654,
      "ency": 1655,
      "Ġele": 1656,
      "raw": 1657,
      "cal": 1658,
      "Ġhat": 1659,
      "Ġihe": 1660,
      "bh": 1661,
      "lit": 1662,
      "Ġoo": 1663,
      "Ġmost": 1664,
      "ait": 1665,
      "irn": 1666,
      "ĠWh": 1667,
      "have": 1668,
      "ĠRo": 1669,
      "ĠWorld": 1670,
      "ocks": 1671,
      "Ġtu": 1672,
      "Ġnow": 1673,
      "uri": 1674,
      "can": 1675,
      "AG": 1676,
      "Ġinv": 1677,
      "Ġoft": 1678,
      "Ġhelp": 1679,
      "Iy": 1680,
      "Ġito": 1681,
      "Ġlif": 1682,
      "Ar": 1683,
      "esi": 1684,
      "Ġlow": 1685,
      "Ġreport": 1686,
      "11": 1687,
      "my": 1688,
      "Ġrl": 1689,
      "ded": 1690,
      "Ġcor": 1691,
      "ĠTu": 1692,
      "Ġagainst": 1693,
      "Ig": 1694,
      "Ġmov": 1695,
      "bel": 1696,
      "Ġry": 1697,
      "lea": 1698,
      "atr": 1699,
      "ami": 1700,
      "Al": 1701,
      "EC": 1702,
      "eto": 1703,
      "rup": 1704,
      "ĠSi": 1705,
      "atc": 1706,
      "Ġcent": 1707,
      "ĠOff": 1708,
      "mak": 1709,
      "last": 1710,
      "fter": 1711,
      "lon": 1712,
      "arget": 1713,
      "ĠSunday": 1714,
      "ology": 1715,
      "),": 1716,
      "-#": 1717,
      "ernet": 1718,
      "ede": 1719,
      "Ġrc": 1720,
      "Ġbuy": 1721,
      "ison": 1722,
      "Ġvict": 1723,
      "ips": 1724,
      "ena": 1725,
      "ĠBa": 1726,
      "usic": 1727,
      "arch": 1728,
      "orts": 1729,
      "enr": 1730,
      "eda": 1731,
      "oln": 1732,
      "vn": 1733,
      "ĠWo": 1734,
      "AM": 1735,
      "IC": 1736,
      "Ġtto": 1737,
      "Ġao": 1738,
      "ĠPC": 1739,
      "Ġrr": 1740,
      "Ġass": 1741,
      "Ġbs": 1742,
      "Ġany": 1743,
      "Ġsit": 1744,
      "ense": 1745,
      "ĠAg": 1746,
      "ml": 1747,
      "Ġsho": 1748,
      "Ġgu": 1749,
      "ĠWeb": 1750,
      "used": 1751,
      "Ġwee": 1752,
      "Ġbid": 1753,
      "bed": 1754,
      "Ġsd": 1755,
      "Ġoh": 1756,
      "esd": 1757,
      "Ġcla": 1758,
      "otn": 1759,
      "Ġsome": 1760,
      ".;": 1761,
      "Ġlas": 1762,
      "aln": 1763,
      "ĠUnited": 1764,
      "oto": 1765,
      "Ġoc": 1766,
      "esr": 1767,
      "Ġmp": 1768,
      "ĠRuss": 1769,
      "Ġaw": 1770,
      "eter": 1771,
      "ĠGo": 1772,
      "esn": 1773,
      "Ġthird": 1774,
      "Im": 1775,
      "Ġriv": 1776,
      "Or": 1777,
      "Inc": 1778,
      "ints": 1779,
      "Ġian": 1780,
      "Ġnear": 1781,
      "Ġthee": 1782,
      "ĠJapan": 1783,
      "lng": 1784,
      "erc": 1785,
      "mit": 1786,
      "ued": 1787,
      "EO": 1788,
      "ĠChina": 1789,
      ").": 1790,
      "ran": 1791,
      "dd": 1792,
      "acc": 1793,
      "Ġ12": 1794,
      "ung": 1795,
      "Ġnl": 1796,
      "Wed": 1797,
      "yi": 1798,
      "Ġdel": 1799,
      "ĠMan": 1800,
      "Ġals": 1801,
      "If": 1802,
      "Ġway": 1803,
      "iln": 1804,
      "reak": 1805,
      "Ġtin": 1806,
      "Ġms": 1807,
      "urr": 1808,
      "etd": 1809,
      "ior": 1810,
      "Ġpay": 1811,
      "ĠEn": 1812,
      "quot": 1813,
      "Reu": 1814,
      "Ġwer": 1815,
      "So": 1816,
      "ards": 1817,
      "lis": 1818,
      "pean": 1819,
      "ĠPak": 1820,
      "rai": 1821,
      "Ġtot": 1822,
      "ĠFed": 1823,
      "arc": 1824,
      "Ġck": 1825,
      "Ġpt": 1826,
      "Ġtoo": 1827,
      "Ġfac": 1828,
      "Ġps": 1829,
      "elop": 1830,
      "ĠEU": 1831,
      "Ġhom": 1832,
      "omy": 1833,
      "Ġuse": 1834,
      "Ġjust": 1835,
      "ASH": 1836,
      "esday": 1837,
      "Ġcha": 1838,
      "ĠLe": 1839,
      "ĠSy": 1840,
      "ouse": 1841,
      "ĠBy": 1842,
      "Ġrh": 1843,
      "istan": 1844,
      "iled": 1845,
      "ĠCr": 1846,
      "ump": 1847,
      "win": 1848,
      "tha": 1849,
      "Ġau": 1850,
      "Ġshow": 1851,
      "Ġithe": 1852,
      "full": 1853,
      "ects": 1854,
      "lar": 1855,
      "onal": 1856,
      "ĠMond": 1857,
      "after": 1858,
      "ding": 1859,
      "Ġist": 1860,
      "Ġther": 1861,
      "ring": 1862,
      "nce": 1863,
      "Ġhim": 1864,
      "reas": 1865,
      "ured": 1866,
      "Ġga": 1867,
      "Ġeb": 1868,
      "ĠAFP": 1869,
      "not": 1870,
      "pan": 1871,
      "Ġthem": 1872,
      "loy": 1873,
      "Ġeas": 1874,
      "hy": 1875,
      "Ġthie": 1876,
      "Ġhead": 1877,
      "tu": 1878,
      "Ġown": 1879,
      "ĠMe": 1880,
      "tee": 1881,
      "ĠThursday": 1882,
      "eak": 1883,
      "ular": 1884,
      "mes": 1885,
      "sb": 1886,
      "Ġsta": 1887,
      "Ġiv": 1888,
      "key": 1889,
      ".&": 1890,
      "tc": 1891,
      "Ġlos": 1892,
      "ero": 1893,
      "Ġinn": 1894,
      "ĠComp": 1895,
      "Ġthro": 1896,
      "Ġsol": 1897,
      "Ġlh": 1898,
      "lead": 1899,
      "Ġke": 1900,
      "ĠFi": 1901,
      "ĠWith": 1902,
      "ator": 1903,
      "iS": 1904,
      "ĠCom": 1905,
      "ages": 1906,
      "BC": 1907,
      "Ġgovern": 1908,
      "iing": 1909,
      "ria": 1910,
      "even": 1911,
      ";...&": 1912,
      "Ġths": 1913,
      "-(": 1914,
      "Ġrele": 1915,
      "Ġled": 1916,
      "Ġhn": 1917,
      "Ġsub": 1918,
      "ounced": 1919,
      "Ġlhe": 1920,
      "Ġine": 1921,
      ";'": 1922,
      "Ġtihe": 1923,
      "Ġtim": 1924,
      "Ġart": 1925,
      "Ġinj": 1926,
      "Mon": 1927,
      "rst": 1928,
      "cto": 1929,
      "ĠSat": 1930,
      "irel": 1931,
      "Ġgrow": 1932,
      "Ġver": 1933,
      "eu": 1934,
      "Ġhol": 1935,
      "Up": 1936,
      "Ġsf": 1937,
      "inst": 1938,
      "Ġnet": 1939,
      "ider": 1940,
      "Ġmake": 1941,
      "uck": 1942,
      "Ġsix": 1943,
      "bor": 1944,
      "tI": 1945,
      "Ġted": 1946,
      "lly": 1947,
      "ship": 1948,
      "Pr": 1949,
      "fic": 1950,
      "nts": 1951,
      "Ġtit": 1952,
      "cho": 1953,
      "ters": 1954,
      "http": 1955,
      "wit": 1956,
      "ĠsI": 1957,
      "isl": 1958,
      "Ġpeople": 1959,
      "otr": 1960,
      "ĠBus": 1961,
      "Ġlarg": 1962,
      "ween": 1963,
      "Ġey": 1964,
      "ĠChe": 1965,
      "ĠDo": 1966,
      "Ġwl": 1967,
      "Ġws": 1968,
      "eta": 1969,
      "ving": 1970,
      "ĠSl": 1971,
      "fd": 1972,
      "vers": 1973,
      "Ġban": 1974,
      "Mic": 1975,
      "Ġmen": 1976,
      "ĠComm": 1977,
      "Ġfs": 1978,
      "Ġpu": 1979,
      "Ġmem": 1980,
      "Ġmillion": 1981,
      "rer": 1982,
      "Ġmob": 1983,
      "ĠTa": 1984,
      "Ġ...": 1985,
      "ĠCar": 1986,
      "Ġsel": 1987,
      "Ġlong": 1988,
      "19": 1989,
      "pre": 1990,
      "Ġpost": 1991,
      "Ġhy": 1992,
      "ĠaI": 1993,
      "ĠPo": 1994,
      "Ġbt": 1995,
      "Ġgroup": 1996,
      "nter": 1997,
      "wor": 1998,
      "IA": 1999,
      "work": 2000,
      "Ġrm": 2001,
      "Ġlf": 2002,
      "Ġyes": 2003,
      "ĠUK": 2004,
      "Ġsecond": 2005,
      "ĠThurs": 2006,
      "ĠYork": 2007,
      "ities": 2008,
      "IL": 2009,
      "ya": 2010,
      "Ġtre": 2011,
      "het": 2012,
      "kes": 2013,
      "wer": 2014,
      "Ġgam": 2015,
      "NG": 2016,
      "round": 2017,
      "ĠAnd": 2018,
      "bas": 2019,
      "Ġtes": 2020,
      "ĠPre": 2021,
      "Ġ15": 2022,
      "Quote": 2023,
      "erry": 2024,
      "ĠWa": 2025,
      "Ġanl": 2026,
      "ĠSan": 2027,
      "ĠNAS": 2028,
      "Ġhome": 2029,
      "Ġdeb": 2030,
      "ĠGre": 2031,
      "ĠHa": 2032,
      "Ġseason": 2033,
      "yn": 2034,
      "inf": 2035,
      "gen": 2036,
      "Ġbank": 2037,
      "vr": 2038,
      "Ġsal": 2039,
      "Ġrea": 2040,
      "Ġsea": 2041,
      "Ġhost": 2042,
      "OND": 2043,
      "Af": 2044,
      "olr": 2045,
      "iag": 2046,
      "Ġext": 2047,
      "Ġwn": 2048,
      "Ġput": 2049,
      "Ġprices": 2050,
      "Ġoper": 2051,
      "aq": 2052,
      "ille": 2053,
      "'ll": 2054,
      "ico": 2055,
      "inr": 2056,
      "ĠDav": 2057,
      "eI": 2058,
      "ĠAll": 2059,
      "oni": 2060,
      "eir": 2061,
      "fur": 2062,
      "Ġdet": 2063,
      "Ġree": 2064,
      "Ġbh": 2065,
      "ota": 2066,
      "ift": 2067,
      "clud": 2068,
      "alk": 2069,
      "ama": 2070,
      "Ġsign": 2071,
      "nds": 2072,
      "ĠCor": 2073,
      "Ġ18": 2074,
      "Ġrev": 2075,
      "ĠReuters": 2076,
      "Ġfn": 2077,
      "estin": 2078,
      "heir": 2079,
      "Ġmer": 2080,
      "ĠAss": 2081,
      "ĠTi": 2082,
      "mpic": 2083,
      "rot": 2084,
      "ago": 2085,
      "ID": 2086,
      "van": 2087,
      "cor": 2088,
      "Ġwr": 2089,
      "Ġhl": 2090,
      "aiy": 2091,
      "hing": 2092,
      "ĠiS": 2093,
      "Ġnum": 2094,
      "adr": 2095,
      "icker": 2096,
      "Ġcall": 2097,
      "OL": 2098,
      "ises": 2099,
      "Ġcomm": 2100,
      "oup": 2101,
      "ĠHo": 2102,
      "Ġsof": 2103,
      "uti": 2104,
      "ĠDel": 2105,
      "ext": 2106,
      "Ġnuc": 2107,
      "oti": 2108,
      "Ġother": 2109,
      "onr": 2110,
      "Ġmilit": 2111,
      "TA": 2112,
      "Ġthet": 2113,
      "ĠAb": 2114,
      "Ġ/": 2115,
      "ara": 2116,
      "eme": 2117,
      "Ġagain": 2118,
      "bers": 2119,
      "uj": 2120,
      "Ġmill": 2121,
      "ĠNov": 2122,
      "ĠSox": 2123,
      "onn": 2124,
      "itr": 2125,
      "ĠLi": 2126,
      "ĠIndia": 2127,
      "kn": 2128,
      "Ġtm": 2129,
      "info": 2130,
      "omic": 2131,
      "cen": 2132,
      "Ġtion": 2133,
      "Ġmonth": 2134,
      "owing": 2135,
      "iw": 2136,
      "inig": 2137,
      "sm": 2138,
      "tle": 2139,
      "ila": 2140,
      "ĠIT": 2141,
      "play": 2142,
      "Ma": 2143,
      "Ġoif": 2144,
      "30": 2145,
      "olt": 2146,
      "'ve": 2147,
      "mar": 2148,
      "esp": 2149,
      "Ġsk": 2150,
      "ross": 2151,
      "ĠFl": 2152,
      "Ġmarket": 2153,
      "bus": 2154,
      "iel": 2155,
      "Ġopp": 2156,
      "Ġff": 2157,
      "Ġlaw": 2158,
      "nday": 2159,
      "vid": 2160,
      "tho": 2161,
      "cb": 2162,
      "Ġblo": 2163,
      "ĠLo": 2164,
      "14": 2165,
      "Iraq": 2166,
      "oli": 2167,
      "ĠGu": 2168,
      "tic": 2169,
      "Ġlr": 2170,
      "irm": 2171,
      "ape": 2172,
      "yl": 2173,
      "Ġons": 2174,
      "inal": 2175,
      "Ġhu": 2176,
      "vl": 2177,
      "reet": 2178,
      "esl": 2179,
      "ĠRa": 2180,
      "Ġiss": 2181,
      "ĠWednes": 2182,
      "edt": 2183,
      "ĠNa": 2184,
      "ĠUs": 2185,
      "uesday": 2186,
      "ments": 2187,
      "ban": 2188,
      "Ġfu": 2189,
      "ode": 2190,
      "inng": 2191,
      "Ġdt": 2192,
      "Ġini": 2193,
      "Ġyea": 2194,
      "nst": 2195,
      "ĠBag": 2196,
      "enl": 2197,
      "ading": 2198,
      "ĠBut": 2199,
      "HE": 2200,
      "Ġever": 2201,
      "Ġhop": 2202,
      "Ġoth": 2203,
      "Ġdn": 2204,
      "Ġmiss": 2205,
      "ĠSud": 2206,
      "ĠIf": 2207,
      "ĠNet": 2208,
      "ĠDa": 2209,
      "idd": 2210,
      "ĠOr": 2211,
      "ĠGaz": 2212,
      "ampion": 2213,
      "Ġtry": 2214,
      "Ġbill": 2215,
      "urd": 2216,
      "osp": 2217,
      "Ġstri": 2218,
      "Ġcu": 2219,
      "Ġeven": 2220,
      "Ġbee": 2221,
      "Ġ14": 2222,
      "Ġstart": 2223,
      "Ġsuc": 2224,
      "Ġ16": 2225,
      "une": 2226,
      "Full": 2227,
      "Ġeff": 2228,
      "Ġ.-": 2229,
      "Ier": 2230,
      "set": 2231,
      "Ġbat": 2232,
      "MS": 2233,
      "vd": 2234,
      "Ġbn": 2235,
      "Ġlc": 2236,
      "ĠWednesday": 2237,
      "Ġ-.": 2238,
      "ollar": 2239,
      "son": 2240,
      "Ġate": 2241,
      "etwork": 2242,
      "alr": 2243,
      "Mo": 2244,
      "Ġsom": 2245,
      "Ġ-'": 2246,
      "acy": 2247,
      "ĠSup": 2248,
      "Ġrat": 2249,
      "Ġoffic": 2250,
      "ores": 2251,
      "ution": 2252,
      "icials": 2253,
      "mr": 2254,
      "Ġmu": 2255,
      "Ġ17": 2256,
      "Ġland": 2257,
      "Le": 2258,
      "Ġtechn": 2259,
      "abl": 2260,
      "Ġcost": 2261,
      "irl": 2262,
      "rie": 2263,
      "osn": 2264,
      "ĠJohn": 2265,
      "Ġsales": 2266,
      "iter": 2267,
      "rou": 2268,
      "Ġvo": 2269,
      "Ai": 2270,
      "Ġtol": 2271,
      "Ġfive": 2272,
      "Ġstar": 2273,
      "aspx": 2274,
      "Ġies": 2275,
      "ench": 2276,
      "Ġhand": 2277,
      "Ġtoi": 2278,
      "lee": 2279,
      "Ġgl": 2280,
      "Ġrecord": 2281,
      "duct": 2282,
      "nk": 2283,
      "Ġoin": 2284,
      "Ġfer": 2285,
      "rab": 2286,
      "ĠOf": 2287,
      "Ġquarter": 2288,
      "vent": 2289,
      "Ġtur": 2290,
      "Ġnews": 2291,
      "bat": 2292,
      "mber": 2293,
      "Ġsy": 2294,
      "Ġlon": 2295,
      "Ip": 2296,
      "LE": 2297,
      "No": 2298,
      "date": 2299,
      "Ġsin": 2300,
      "Ġcamp": 2301,
      "ingt": 2302,
      "Ġki": 2303,
      "ights": 2304,
      "nu": 2305,
      "ired": 2306,
      "owe": 2307,
      "put": 2308,
      "Ġnf": 2309,
      "ustry": 2310,
      "12": 2311,
      "~-": 2312,
      "Ġ30": 2313,
      "rin": 2314,
      "ĠAu": 2315,
      "ĠOpen": 2316,
      "ix": 2317,
      "sec": 2318,
      "ĠiT": 2319,
      "ĠTO": 2320,
      "Ġform": 2321,
      "Ġson": 2322,
      "Ġinvest": 2323,
      "AC": 2324,
      "ĠCi": 2325,
      "eck": 2326,
      "bes": 2327,
      "elf": 2328,
      "udy": 2329,
      "Ġago": 2330,
      "hc": 2331,
      "isit": 2332,
      "Reuter": 2333,
      "wl": 2334,
      "Ġina": 2335,
      "eas": 2336,
      "irg": 2337,
      "ĠHREF": 2338,
      "Ġlor": 2339,
      "ĠwI": 2340,
      "urg": 2341,
      "Soft": 2342,
      "ined": 2343,
      "itc": 2344,
      "SE": 2345,
      "za": 2346,
      "Ġks": 2347,
      "amm": 2348,
      "esh": 2349,
      "ored": 2350,
      "Ġdou": 2351,
      "Ġ13": 2352,
      "AI": 2353,
      "Ġtv": 2354,
      "Ġmade": 2355,
      "uns": 2356,
      "ser": 2357,
      "ility": 2358,
      "Ġiw": 2359,
      "ivers": 2360,
      "Pe": 2361,
      "hu": 2362,
      "Ġtest": 2363,
      "Ġcb": 2364,
      "Ġfar": 2365,
      "Ġfut": 2366,
      "eln": 2367,
      "ĠAi": 2368,
      "iea": 2369,
      "jo": 2370,
      "ply": 2371,
      "Ġthel": 2372,
      "Ġgen": 2373,
      "ĠEd": 2374,
      "ĠIran": 2375,
      "asl": 2376,
      "Ġtht": 2377,
      "ody": 2378,
      "ĠVi": 2379,
      "Ġwhat": 2380,
      "Ex": 2381,
      "pon": 2382,
      "ghan": 2383,
      "Ġunder": 2384,
      "Ġinf": 2385,
      "lec": 2386,
      "ige": 2387,
      "ager": 2388,
      "FL": 2389,
      "To": 2390,
      "Ġaut": 2391,
      "Ġmn": 2392,
      "Ġeg": 2393,
      "ĠNot": 2394,
      "ems": 2395,
      "Ġshar": 2396,
      "ĠBank": 2397,
      "ĠMicros": 2398,
      "Ġrest": 2399,
      "Ġgt": 2400,
      "ĠWar": 2401,
      "down": 2402,
      "sta": 2403,
      "ific": 2404,
      "arket": 2405,
      "nm": 2406,
      "nin": 2407,
      "pec": 2408,
      "Ġdep": 2409,
      "Ġcompan": 2410,
      "Ġess": 2411,
      "ko": 2412,
      "yr": 2413,
      "Ġboo": 2414,
      "Ġloss": 2415,
      "ĠPar": 2416,
      "nti": 2417,
      "Ġkey": 2418,
      "Ġhan": 2419,
      "hei": 2420,
      "ora": 2421,
      "ĠEl": 2422,
      "onl": 2423,
      "aty": 2424,
      "Ġnin": 2425,
      "isco": 2426,
      "than": 2427,
      "ering": 2428,
      "Ġfou": 2429,
      "ilng": 2430,
      "ela": 2431,
      "asi": 2432,
      "asn": 2433,
      "Ġrul": 2434,
      "Ġemp": 2435,
      "Ġnr": 2436,
      "Ġthen": 2437,
      "';": 2438,
      "ping": 2439,
      "aft": 2440,
      "Ġmove": 2441,
      "aso": 2442,
      "pped": 2443,
      "atd": 2444,
      "Ġgi": 2445,
      "ĠWin": 2446,
      "wt": 2447,
      "ened": 2448,
      "ĠAug": 2449,
      "ĠYa": 2450,
      "Ġbomb": 2451,
      "ĠBro": 2452,
      "nf": 2453,
      "Ġold": 2454,
      "tei": 2455,
      "ording": 2456,
      "-:": 2457,
      "attle": 2458,
      "Ies": 2459,
      "Ġnu": 2460,
      "Ġdri": 2461,
      "rof": 2462,
      "Ġtod": 2463,
      "Ġleg": 2464,
      "Ġlthe": 2465,
      "iles": 2466,
      "icl": 2467,
      "ĠIS": 2468,
      "AD": 2469,
      "eca": 2470,
      "ĠMus": 2471,
      "lls": 2472,
      "ject": 2473,
      "Ġsen": 2474,
      "ume": 2475,
      "ills": 2476,
      "ĠPol": 2477,
      "etn": 2478,
      "Ġgov": 2479,
      "ĠOut": 2480,
      "\\\\": 2481,
      "qi": 2482,
      "rf": 2483,
      "ĠWor": 2484,
      "iri": 2485,
      "Ġrf": 2486,
      "orea": 2487,
      "Ġhow": 2488,
      "iei": 2489,
      "rip": 2490,
      "Ġwt": 2491,
      "acl": 2492,
      "nings": 2493,
      "Mi": 2494,
      "inv": 2495,
      "Ġite": 2496,
      "Ġmt": 2497,
      "Ġinl": 2498,
      "ĠAng": 2499,
      "hoo": 2500,
      "ean": 2501,
      "Ġond": 2502,
      ".\"": 2503,
      "ĠSw": 2504,
      "olf": 2505,
      "Ġplans": 2506,
      "Ġlm": 2507,
      "Ġwou": 2508,
      "ĠSn": 2509,
      "ĠDec": 2510,
      "iod": 2511,
      "quick": 2512,
      "Ġsat": 2513,
      "ĠIa": 2514,
      "Ġthc": 2515,
      "olo": 2516,
      "ĠMot": 2517,
      "rim": 2518,
      "edl": 2519,
      "ilg": 2520,
      "ĠGen": 2521,
      "ĠIra": 2522,
      "imed": 2523,
      "YO": 2524,
      "Ġagre": 2525,
      "ĠWal": 2526,
      "Ġcre": 2527,
      "eting": 2528,
      "Ġgiv": 2529,
      "ĠBi": 2530,
      "Ġvic": 2531,
      "har": 2532,
      "ula": 2533,
      "hey": 2534,
      "oci": 2535,
      "ults": 2536,
      "ĠIraqi": 2537,
      "Ġtar": 2538,
      "ĠWest": 2539,
      "ĠDi": 2540,
      "iai": 2541,
      "Ġdays": 2542,
      "Ġros": 2543,
      "ĠTV": 2544,
      "ira": 2545,
      "ĠUni": 2546,
      "-~": 2547,
      "Ġral": 2548,
      "ĠBra": 2549,
      "ying": 2550,
      "oug": 2551,
      "ĠDr": 2552,
      "Ġmajor": 2553,
      "Ġspe": 2554,
      "ĠOrac": 2555,
      "ugg": 2556,
      "Ġclos": 2557,
      "ka": 2558,
      "week": 2559,
      "Ġnto": 2560,
      "akes": 2561,
      "ĠJa": 2562,
      "Ġfinal": 2563,
      "oil": 2564,
      "Ġofi": 2565,
      "Pa": 2566,
      "Ġrb": 2567,
      "ided": 2568,
      "Ġont": 2569,
      "ĠJu": 2570,
      "ife": 2571,
      "Ied": 2572,
      "ham": 2573,
      "Ġtlo": 2574,
      "ideo": 2575,
      "hin": 2576,
      "pol": 2577,
      "Ġsig": 2578,
      "ader": 2579,
      "Ġlook": 2580,
      "04": 2581,
      "Ġran": 2582,
      "Fi": 2583,
      "Ġles": 2584,
      "Ġlar": 2585,
      "Ġdow": 2586,
      "ĠIl": 2587,
      "imp": 2588,
      "Ġpercent": 2589,
      "Ġcc": 2590,
      "Ġjo": 2591,
      "Sa": 2592,
      "Ġiof": 2593,
      "Ġglo": 2594,
      "ĠWind": 2595,
      "Ġlb": 2596,
      "ĠDar": 2597,
      "oney": 2598,
      "Cl": 2599,
      "had": 2600,
      "Ġlto": 2601,
      "Ġref": 2602,
      "ĠStr": 2603,
      "ĠAc": 2604,
      "thi": 2605,
      "Ġvot": 2606,
      "ending": 2607,
      "arte": 2608,
      "Ġwom": 2609,
      "isa": 2610,
      "iger": 2611,
      "Ot": 2612,
      "Ġhr": 2613,
      "etl": 2614,
      "Ġgh": 2615,
      "ĠFrid": 2616,
      "Ġdrug": 2617,
      "Ġlit": 2618,
      "Can": 2619,
      "We": 2620,
      "Ġrhe": 2621,
      "hm": 2622,
      "rap": 2623,
      "rist": 2624,
      "ioi": 2625,
      "Ġafte": 2626,
      "For": 2627,
      "Ġcas": 2628,
      "ĠSep": 2629,
      "ecs": 2630,
      "Ġvers": 2631,
      "que": 2632,
      "Ġdead": 2633,
      "irc": 2634,
      "opl": 2635,
      "Ġ-#": 2636,
      "NE": 2637,
      "ires": 2638,
      "16": 2639,
      "ety": 2640,
      "ĠRu": 2641,
      "Ġdu": 2642,
      "Ġans": 2643,
      "ection": 2644,
      "Ġquo": 2645,
      "RK": 2646,
      "UN": 2647,
      "ites": 2648,
      "lei": 2649,
      "tos": 2650,
      "tm": 2651,
      "Ġsold": 2652,
      "itch": 2653,
      "cted": 2654,
      "Ġtalks": 2655,
      "ials": 2656,
      "Ġkilled": 2657,
      "bro": 2658,
      "ĠlI": 2659,
      "usi": 2660,
      "Ġadv": 2661,
      "Ġmaker": 2662,
      "Ġiis": 2663,
      "raft": 2664,
      "orr": 2665,
      "itg": 2666,
      "ieg": 2667,
      "Ġleast": 2668,
      "Ġalt": 2669,
      "Ġour": 2670,
      "Ġnat": 2671,
      "ĠWASH": 2672,
      "ĠHol": 2673,
      "inux": 2674,
      "Ġore": 2675,
      "Ġleft": 2676,
      "owed": 2677,
      "AF": 2678,
      "ĠtO": 2679,
      "alls": 2680,
      "ĠSch": 2681,
      "Ġani": 2682,
      "ĠDef": 2683,
      "Si": 2684,
      "ithe": 2685,
      "Ġtoe": 2686,
      "ĠFe": 2687,
      "Ġnh": 2688,
      "sive": 2689,
      "lion": 2690,
      "Ġren": 2691,
      "ala": 2692,
      "Ġtlhe": 2693,
      "ends": 2694,
      "Ġadd": 2695,
      "iers": 2696,
      "ĠPer": 2697,
      "Ġul": 2698,
      "unic": 2699,
      "Ġort": 2700,
      "ethe": 2701,
      "ingi": 2702,
      "Ġstat": 2703,
      "Ġtp": 2704,
      "ĠDep": 2705,
      "Ġpric": 2706,
      "Ġfol": 2707,
      "Ġthte": 2708,
      "ĠMay": 2709,
      "umer": 2710,
      "UR": 2711,
      "tal": 2712,
      "bc": 2713,
      "ission": 2714,
      "Ġrin": 2715,
      "ĠTwo": 2716,
      "ught": 2717,
      "Te": 2718,
      "Ġrac": 2719,
      "Ġfre": 2720,
      "Ġdom": 2721,
      "Ġmis": 2722,
      "Ġue": 2723,
      "Ġhel": 2724,
      "Ġyesterday": 2725,
      "Br": 2726,
      "Ġfed": 2727,
      "Ġdea": 2728,
      "ĠNor": 2729,
      "ĠAustral": 2730,
      "ĠiI": 2731,
      "Ġonly": 2732,
      "ĠNE": 2733,
      "sti": 2734,
      "ĠMicrosoft": 2735,
      "mor": 2736,
      "Ġny": 2737,
      "ĠSouth": 2738,
      "add": 2739,
      "cha": 2740,
      "ĠGroup": 2741,
      "ĠThur": 2742,
      "ky": 2743,
      "enti": 2744,
      "ĠRus": 2745,
      "illed": 2746,
      "Ġ25": 2747,
      "ĠState": 2748,
      "nb": 2749,
      "Ġothe": 2750,
      "RAN": 2751,
      "np": 2752,
      "wr": 2753,
      "elo": 2754,
      "Ġtos": 2755,
      "Iv": 2756,
      "md": 2757,
      "Ġlan": 2758,
      "ĠGer": 2759,
      "quote": 2760,
      "Ġspec": 2761,
      "Ġtth": 2762,
      "ĠNorth": 2763,
      "esc": 2764,
      "ĠGa": 2765,
      "ĠIntern": 2766,
      "first": 2767,
      "sy": 2768,
      "uer": 2769,
      "Ġtarget": 2770,
      "Ġunt": 2771,
      "ĠOne": 2772,
      "tro": 2773,
      "ux": 2774,
      "Ġrp": 2775,
      "Ġbillion": 2776,
      "oper": 2777,
      "rica": 2778,
      "Tr": 2779,
      "Ġbeat": 2780,
      "Ġder": 2781,
      "ising": 2782,
      "othe": 2783,
      "tern": 2784,
      "Ad": 2785,
      "Ġtec": 2786,
      "Ġpop": 2787,
      "Ġmat": 2788,
      "ament": 2789,
      "rial": 2790,
      "who": 2791,
      "ĠCe": 2792,
      "ĠDem": 2793,
      "tive": 2794,
      "ource": 2795,
      "Reute": 2796,
      "cle": 2797,
      "ilo": 2798,
      "Ġthle": 2799,
      "ĠBar": 2800,
      "ngs": 2801,
      "rican": 2802,
      "Sl": 2803,
      "hol": 2804,
      "Ġiln": 2805,
      "enal": 2806,
      "Ġfam": 2807,
      "aii": 2808,
      "uI": 2809,
      "ioe": 2810,
      "ĠeI": 2811,
      "Be": 2812,
      "Ġstate": 2813,
      "lies": 2814,
      "unday": 2815,
      "25": 2816,
      "ging": 2817,
      "sI": 2818,
      "arly": 2819,
      "ston": 2820,
      "run": 2821,
      "Ġbil": 2822,
      "sf": 2823,
      "igi": 2824,
      "ĠOp": 2825,
      "hern": 2826,
      "ress": 2827,
      "Ġaud": 2828,
      "ĠIP": 2829,
      "ola": 2830,
      "Ġfirm": 2831,
      "met": 2832,
      "into": 2833,
      "Ġien": 2834,
      "ĠCha": 2835,
      "cut": 2836,
      "Ġlet": 2837,
      "ides": 2838,
      "Ġline": 2839,
      "ĠBost": 2840,
      "hit": 2841,
      "Ġtih": 2842,
      "ano": 2843,
      "rio": 2844,
      "asd": 2845,
      "iron": 2846,
      "Ġys": 2847,
      "ĠNews": 2848,
      "Ġonl": 2849,
      "rain": 2850,
      "their": 2851,
      "yt": 2852,
      "ĠoI": 2853,
      "Ġcust": 2854,
      "iting": 2855,
      "aff": 2856,
      "Ġlike": 2857,
      "Ġsell": 2858,
      "ĠfI": 2859,
      "Ġreb": 2860,
      "Ġprov": 2861,
      ":.": 2862,
      "Ġcos": 2863,
      "Ġpass": 2864,
      "Ġcoach": 2865,
      "car": 2866,
      "col": 2867,
      "Ġcity": 2868,
      "Ġloc": 2869,
      "Ġthes": 2870,
      "Ġ21": 2871,
      "Ġlik": 2872,
      ",;": 2873,
      "edr": 2874,
      "atin": 2875,
      "Ġ..": 2876,
      "obs": 2877,
      "VD": 2878,
      "hea": 2879,
      "exp": 2880,
      "tio": 2881,
      "vic": 2882,
      "lli": 2883,
      "Ġprot": 2884,
      "gram": 2885,
      "BS": 2886,
      "Ġire": 2887,
      "Ġcam": 2888,
      "idi": 2889,
      "ox": 2890,
      "Ġomp": 2891,
      "Ġfound": 2892,
      "otl": 2893,
      "Ġyest": 2894,
      "look": 2895,
      "Ġchief": 2896,
      "SP": 2897,
      "lem": 2898,
      "Ġitn": 2899,
      "udge": 2900,
      "Ġprof": 2901,
      "Ġ'-": 2902,
      "ĠAfter": 2903,
      "elp": 2904,
      "urit": 2905,
      "ĠMac": 2906,
      "rest": 2907,
      "sed": 2908,
      "ĠBla": 2909,
      "Ġhist": 2910,
      "emp": 2911,
      "Ġface": 2912,
      "ĠSm": 2913,
      "dh": 2914,
      "lad": 2915,
      "icn": 2916,
      "ĠTue": 2917,
      "lex": 2918,
      "ĠFri": 2919,
      "fort": 2920,
      "Ġdiv": 2921,
      "ĠBri": 2922,
      "eed": 2923,
      "Ġsystem": 2924,
      "Ġeve": 2925,
      "Ġmany": 2926,
      "bet": 2927,
      "Ġfoc": 2928,
      "Ġpn": 2929,
      "oma": 2930,
      "Ġva": 2931,
      "Ġdon": 2932,
      "Ġtof": 2933,
      "Ġkil": 2934,
      "~.": 2935,
      "ĠBig": 2936,
      "Ġheld": 2937,
      "Ġ2005": 2938,
      "ĠShar": 2939,
      ",\"": 2940,
      "nv": 2941,
      "oer": 2942,
      "ĠiM": 2943,
      "Ġrepor": 2944,
      "Ġvs": 2945,
      "Amer": 2946,
      "De": 2947,
      "isg": 2948,
      "iev": 2949,
      "ctor": 2950,
      "ios": 2951,
      "tw": 2952,
      "13": 2953,
      "ĠtS": 2954,
      "Ġduring": 2955,
      "Ca": 2956,
      "TE": 2957,
      "Ġdl": 2958,
      "ĠMil": 2959,
      "owl": 2960,
      "ĠLOND": 2961,
      "Ġearly": 2962,
      "ja": 2963,
      "eco": 2964,
      "adian": 2965,
      "Pl": 2966,
      "dav": 2967,
      "vy": 2968,
      "this": 2969,
      "ĠInter": 2970,
      ")--": 2971,
      "Iu": 2972,
      "Os": 2973,
      "tim": 2974,
      "Ġwea": 2975,
      "Ġpast": 2976,
      "Ġhar": 2977,
      "arges": 2978,
      "edn": 2979,
      "rts": 2980,
      "erg": 2981,
      "Ġior": 2982,
      "Ġinte": 2983,
      "ĠIsl": 2984,
      "ĠPi": 2985,
      "lier": 2986,
      "plan": 2987,
      "hdad": 2988,
      "17": 2989,
      "Corp": 2990,
      "more": 2991,
      "oon": 2992,
      "Ġato": 2993,
      "Ġlp": 2994,
      "Ġhold": 2995,
      "ĠChin": 2996,
      "Ġacqu": 2997,
      "Ġrom": 2998,
      "Ġein": 2999,
      "Ġdro": 3000,
      "Ġtrad": 3001,
      "ming": 3002,
      "ule": 3003,
      "Ġhum": 3004,
      "kees": 3005,
      "Ġfell": 3006,
      "Ġpower": 3007,
      "ases": 3008,
      "ĠAM": 3009,
      "Ġfore": 3010,
      "ended": 3011,
      "Ian": 3012,
      "Ol": 3013,
      "Ġvictory": 3014,
      "Ist": 3015,
      "Ġrad": 3016,
      "Ġlate": 3017,
      "ĠTur": 3018,
      "ubs": 3019,
      ".\\": 3020,
      "Ġinst": 3021,
      "apt": 3022,
      "Ss": 3023,
      "ĠiB": 3024,
      "intg": 3025,
      "iry": 3026,
      "Ġisn": 3027,
      "ĠSta": 3028,
      "eer": 3029,
      "ners": 3030,
      "Ġsts": 3031,
      "Ġpat": 3032,
      "Ġhot": 3033,
      "iff": 3034,
      "Ġshare": 3035,
      "aer": 3036,
      "Ġround": 3037,
      "isp": 3038,
      "ĠCalif": 3039,
      "iig": 3040,
      "uce": 3041,
      "ingl": 3042,
      "ĠAp": 3043,
      "inlg": 3044,
      "je": 3045,
      "Ġten": 3046,
      "Ġsusp": 3047,
      "ative": 3048,
      "Ġcel": 3049,
      "alth": 3050,
      "ĠUnit": 3051,
      "ĠPrime": 3052,
      "Ne": 3053,
      "des": 3054,
      "Ġlw": 3055,
      "utt": 3056,
      "PC": 3057,
      "Ġequ": 3058,
      "alo": 3059,
      "iae": 3060,
      "aed": 3061,
      "invest": 3062,
      "hee": 3063,
      "ieh": 3064,
      "Ġble": 3065,
      "ĠApple": 3066,
      "den": 3067,
      "org": 3068,
      "Ġcf": 3069,
      "Ġethe": 3070,
      "Ġmet": 3071,
      "ĠCu": 3072,
      "amed": 3073,
      "lled": 3074,
      "ĠHur": 3075,
      "cti": 3076,
      "Ġbeing": 3077,
      "90": 3078,
      "most": 3079,
      "Ġnes": 3080,
      "Ġben": 3081,
      "avy": 3082,
      "IM": 3083,
      "mail": 3084,
      "val": 3085,
      "Ġeat": 3086,
      "Ġnon": 3087,
      "reg": 3088,
      "ĠTim": 3089,
      "Ġofl": 3090,
      "ĠRet": 3091,
      "Ġ24": 3092,
      "Ġoon": 3093,
      "Ġstill": 3094,
      "time": 3095,
      "itng": 3096,
      "Ġfail": 3097,
      "Ġbv": 3098,
      "Ġpers": 3099,
      "Ġmod": 3100,
      "ublic": 3101,
      "Ġtax": 3102,
      "ĠGoogle": 3103,
      "Ġmain": 3104,
      "Ġmuch": 3105,
      "Monday": 3106,
      "based": 3107,
      "nI": 3108,
      "ses": 3109,
      "zer": 3110,
      "Ġsince": 3111,
      "Ġrg": 3112,
      "atic": 3113,
      "ĠlS": 3114,
      "ĠTex": 3115,
      "Ġgold": 3116,
      "east": 3117,
      "lim": 3118,
      "Ġeto": 3119,
      "iso": 3120,
      "ĠFin": 3121,
      "ĠSaturday": 3122,
      "kt": 3123,
      "anr": 3124,
      "bur": 3125,
      "ĠiC": 3126,
      "Ġeu": 3127,
      "ĠHam": 3128,
      "been": 3129,
      "Ġage": 3130,
      "Ġple": 3131,
      "aci": 3132,
      "lll": 3133,
      "ĠEu": 3134,
      "ĠHi": 3135,
      "ipp": 3136,
      "Ġconf": 3137,
      "rupt": 3138,
      "Bl": 3139,
      "Ġformer": 3140,
      "law": 3141,
      "Ġsem": 3142,
      "Ġsha": 3143,
      "ĠServ": 3144,
      "asy": 3145,
      "Ph": 3146,
      "stocks": 3147,
      "Ġden": 3148,
      "ĠSAN": 3149,
      "Ġgiant": 3150,
      "ĠRi": 3151,
      "ĠOl": 3152,
      "Ġstor": 3153,
      "fy": 3154,
      "Ġcur": 3155,
      "Ġbar": 3156,
      "lock": 3157,
      "Ġaga": 3158,
      "ĠInte": 3159,
      "tel": 3160,
      "ĠSen": 3161,
      "ĠWill": 3162,
      "ĠWash": 3163,
      "Ġyo": 3164,
      "ĠEar": 3165,
      "EF": 3166,
      "-)": 3167,
      ":'": 3168,
      "Ġcri": 3169,
      "Ġber": 3170,
      "ĠIns": 3171,
      "ĠPat": 3172,
      "very": 3173,
      "ient": 3174,
      "ĠiA": 3175,
      "Ġron": 3176,
      "ĠIts": 3177,
      "ĠRec": 3178,
      "Ġ,-": 3179,
      "Ġprofit": 3180,
      "Ġoffer": 3181,
      "Ġattack": 3182,
      "Ġrof": 3183,
      "Ġnb": 3184,
      "Ġbom": 3185,
      "Ġdata": 3186,
      "ĠFa": 3187,
      "Ġtan": 3188,
      "Ġost": 3189,
      "Ġfoll": 3190,
      "ĠRy": 3191,
      "Ġtte": 3192,
      "Ġtea": 3193,
      "Ġaro": 3194,
      "Ġsv": 3195,
      "ared": 3196,
      "iem": 3197,
      "log": 3198,
      "ĠStates": 3199,
      "Ġstock": 3200,
      "hold": 3201,
      "esa": 3202,
      "Ġial": 3203,
      "Ġfig": 3204,
      "Ġfall": 3205,
      "ĠSP": 3206,
      "aker": 3207,
      "Ġnex": 3208,
      "ĠrI": 3209,
      "inge": 3210,
      "Ġgs": 3211,
      "ounce": 3212,
      "CP": 3213,
      "pn": 3214,
      "sday": 3215,
      "ĠIv": 3216,
      "llion": 3217,
      "ĠIntel": 3218,
      "ĠNASA": 3219,
      "bit": 3220,
      "lg": 3221,
      "omer": 3222,
      "cre": 3223,
      "ness": 3224,
      "ten": 3225,
      "Ġsus": 3226,
      "Ġsev": 3227,
      "Ġdig": 3228,
      "ĠMu": 3229,
      "Ġolf": 3230,
      "INGTON": 3231,
      "dat": 3232,
      "erve": 3233,
      "Ġope": 3234,
      "ĠCal": 3235,
      "ĠOct": 3236,
      "NA": 3237,
      "Ġak": 3238,
      "Ġcot": 3239,
      "Ġdire": 3240,
      "tof": 3241,
      "apan": 3242,
      "ties": 3243,
      "tract": 3244,
      ".:": 3245,
      "oes": 3246,
      "Ġath": 3247,
      "Ġias": 3248,
      "Ġlay": 3249,
      "itor": 3250,
      "Ġfree": 3251,
      "ĠTro": 3252,
      "aps": 3253,
      "Ġprice": 3254,
      ".~": 3255,
      "pri": 3256,
      "Ġwhi": 3257,
      "oms": 3258,
      "Pro": 3259,
      "less": 3260,
      "two": 3261,
      "Ġcourt": 3262,
      "ĠIm": 3263,
      "osi": 3264,
      "Ġexpl": 3265,
      "Pres": 3266,
      "chn": 3267,
      "Ġstra": 3268,
      "Ġteo": 3269,
      "held": 3270,
      "Ġlis": 3271,
      "Ġhard": 3272,
      "ington": 3273,
      "aces": 3274,
      "ĠMicro": 3275,
      "Ġsan": 3276,
      "Ġsent": 3277,
      "Ġrk": 3278,
      "Ġ-(": 3279,
      "Ġ100": 3280,
      "Ġwhile": 3281,
      ",~": 3282,
      "Ġcen": 3283,
      "Ġpor": 3284,
      "ĠId": 3285,
      "oud": 3286,
      "ĠWall": 3287,
      "nge": 3288,
      "tan": 3289,
      "Ġlof": 3290,
      "alks": 3291,
      "lie": 3292,
      "Ġase": 3293,
      "ono": 3294,
      "Ġnor": 3295,
      "ĠThu": 3296,
      "OO": 3297,
      "dow": 3298,
      "part": 3299,
      "zed": 3300,
      "Ġtee": 3301,
      "Ġdid": 3302,
      "rib": 3303,
      "Euro": 3304,
      "vis": 3305,
      "wan": 3306,
      "Ġlu": 3307,
      "Ġnce": 3308,
      "ĠIo": 3309,
      "ĠFlor": 3310,
      "Fo": 3311,
      "Ġsum": 3312,
      "Ġnal": 3313,
      "ĠOver": 3314,
      "Ġhea": 3315,
      "ews": 3316,
      "about": 3317,
      "EM": 3318,
      "Gr": 3319,
      "Ġcle": 3320,
      "Ib": 3321,
      "Mar": 3322,
      "Ġice": 3323,
      "Ġehe": 3324,
      "ilc": 3325,
      "Ġdue": 3326,
      "icy": 3327,
      "ĠBas": 3328,
      "imb": 3329,
      "ineg": 3330,
      "IP": 3331,
      "Ġrose": 3332,
      "Ġcy": 3333,
      "eles": 3334,
      "ĠCity": 3335,
      "omers": 3336,
      "El": 3337,
      "En": 3338,
      "Ġnthe": 3339,
      "eted": 3340,
      "nat": 3341,
      "Ġars": 3342,
      "Ġrthe": 3343,
      "Ġfight": 3344,
      "NEW": 3345,
      "urday": 3346,
      "ĠPlay": 3347,
      "ĠUP": 3348,
      "ĠGaza": 3349,
      "Ti": 3350,
      "Ġsou": 3351,
      "nder": 3352,
      "lip": 3353,
      "umb": 3354,
      "Ġmanag": 3355,
      "fh": 3356,
      "mil": 3357,
      "Ġtat": 3358,
      "isd": 3359,
      "Ġtoa": 3360,
      "ecr": 3361,
      "ĠEur": 3362,
      "Ġbeg": 3363,
      "Ġphone": 3364,
      "La": 3365,
      "ĠIc": 3366,
      "ĠIi": 3367,
      "ĠBel": 3368,
      "Ġud": 3369,
      "ĠFall": 3370,
      "quarter": 3371,
      "ĠChi": 3372,
      "game": 3373,
      "Ġace": 3374,
      "ĠOlymp": 3375,
      "cial": 3376,
      "pu": 3377,
      "Ġali": 3378,
      "Ġses": 3379,
      "Ġhal": 3380,
      "Ġoni": 3381,
      "Ġnation": 3382,
      "ĠID": 3383,
      "ĠOh": 3384,
      "Ġtehe": 3385,
      "Ġju": 3386,
      "ĠPhil": 3387,
      "HL": 3388,
      "Ġhalf": 3389,
      "Ġml": 3390,
      "ecu": 3391,
      "ioa": 3392,
      "lty": 3393,
      "bin": 3394,
      "iit": 3395,
      "Ġemb": 3396,
      "Ġsett": 3397,
      "ĠhI": 3398,
      "Ġtook": 3399,
      "ĠCEO": 3400,
      "Ġgn": 3401,
      "ĠUt": 3402,
      "Ġeng": 3403,
      "ĠEurope": 3404,
      "Wo": 3405,
      "ĠIN": 3406,
      "Ġyour": 3407,
      "ĠJoh": 3408,
      "Ġbeca": 3409,
      "99": 3410,
      "hon": 3411,
      "Ġlev": 3412,
      "ONT": 3413,
      "igned": 3414,
      "rld": 3415,
      "Ġters": 3416,
      "ators": 3417,
      "Ġell": 3418,
      "Ġbre": 3419,
      "ĠSet": 3420,
      "Ġard": 3421,
      ")'": 3422,
      "RO": 3423,
      "Ġsoc": 3424,
      "Ġhd": 3425,
      "Ġmid": 3426,
      "ĠCent": 3427,
      "Ġgre": 3428,
      "ĠBay": 3429,
      "vey": 3430,
      "Ġleader": 3431,
      "Ġnig": 3432,
      "ĠSha": 3433,
      "ĠLab": 3434,
      "ived": 3435,
      "Ġfoot": 3436,
      "Ġfirs": 3437,
      "ĠReut": 3438,
      "Ġotf": 3439,
      "ĠIsrael": 3440,
      "Ce": 3441,
      "Ġflo": 3442,
      "Ġght": 3443,
      "rae": 3444,
      "Ġbefore": 3445,
      "Ġere": 3446,
      "Ġexecut": 3447,
      "ĠInternet": 3448,
      "cos": 3449,
      "len": 3450,
      "ticker": 3451,
      "Ġsid": 3452,
      "Ġclo": 3453,
      "itd": 3454,
      "ĠSony": 3455,
      "aper": 3456,
      "cI": 3457,
      "mis": 3458,
      "pres": 3459,
      "rth": 3460,
      "sw": 3461,
      "vh": 3462,
      "Ġald": 3463,
      "Ġrto": 3464,
      "Ġdol": 3465,
      "ĠMor": 3466,
      "chi": 3467,
      "bar": 3468,
      "sted": 3469,
      "ĠTha": 3470,
      "Ġrv": 3471,
      "Ġbea": 3472,
      "Ġchip": 3473,
      ",:": 3474,
      "He": 3475,
      "hal": 3476,
      "yer": 3477,
      "Ġfew": 3478,
      "Ġhos": 3479,
      "Ġyet": 3480,
      "Ġord": 3481,
      "nit": 3482,
      "Ġlist": 3483,
      "aced": 3484,
      "ĠNi": 3485,
      "UL": 3486,
      "Ġfund": 3487,
      "Ġgot": 3488,
      "Ġ#-": 3489,
      "\"-": 3490,
      "HEN": 3491,
      "nic": 3492,
      "nto": 3493,
      "ather": 3494,
      "Ġead": 3495,
      "uto": 3496,
      "Pal": 3497,
      "Su": 3498,
      "Ġrst": 3499,
      "ofi": 3500,
      "istr": 3501,
      "osts": 3502,
      "Con": 3503,
      "inter": 3504,
      "Ġats": 3505,
      "Ġmusic": 3506,
      "ĠTl": 3507,
      "ĠTw": 3508,
      "ĠCH": 3509,
      "ĠPresident": 3510,
      "ole": 3511,
      "sth": 3512,
      "thr": 3513,
      "tea": 3514,
      "Ġcontin": 3515,
      "Ġmeet": 3516,
      "Ġused": 3517,
      "Ġ50": 3518,
      "ways": 3519,
      "ests": 3520,
      "rei": 3521,
      "cast": 3522,
      "mat": 3523,
      "aring": 3524,
      "Ġdd": 3525,
      "Ġgive": 3526,
      "ado": 3527,
      "Ġug": 3528,
      "uni": 3529,
      "ireless": 3530,
      "GH": 3531,
      "Ġpas": 3532,
      "Et": 3533,
      "Ġahe": 3534,
      "bb": 3535,
      "fc": 3536,
      "low": 3537,
      "Ġmos": 3538,
      "Ġsoftware": 3539,
      "Ġive": 3540,
      "Ġlab": 3541,
      "ember": 3542,
      "ĠProf": 3543,
      "chool": 3544,
      "MC": 3545,
      "Wi": 3546,
      "hI": 3547,
      "zz": 3548,
      "Ġeon": 3549,
      "ĠArm": 3550,
      "ĠYO": 3551,
      "SA": 3552,
      "een": 3553,
      "nte": 3554,
      "irng": 3555,
      "ĠDis": 3556,
      "vin": 3557,
      "Ġave": 3558,
      "Ġsearch": 3559,
      "orks": 3560,
      "ĠWedn": 3561,
      "Ba": 3562,
      "Li": 3563,
      "ram": 3564,
      "Ġail": 3565,
      "etro": 3566,
      "Ġthere": 3567,
      "ĠHou": 3568,
      "ĠBritish": 3569,
      "cri": 3570,
      "gre": 3571,
      "ĠnI": 3572,
      "ĠArs": 3573,
      "ĠMos": 3574,
      "ible": 3575,
      "Ġviol": 3576,
      "bil": 3577,
      "cat": 3578,
      "ees": 3579,
      "Ġtse": 3580,
      "itic": 3581,
      "Ġhere": 3582,
      "inga": 3583,
      "mas": 3584,
      "Ġise": 3585,
      "anies": 3586,
      "Ġnp": 3587,
      "elec": 3588,
      "ingh": 3589,
      "Ġproduc": 3590,
      "ize": 3591,
      "Ġiit": 3592,
      "Ġcd": 3593,
      "Ġcit": 3594,
      "Ġner": 3595,
      "reuters": 3596,
      "ĠAst": 3597,
      "ĠDev": 3598,
      "Ġseas": 3599,
      "cts": 3600,
      "Ġpot": 3601,
      "Ġcountry": 3602,
      "One": 3603,
      "eS": 3604,
      "eday": 3605,
      "Ġinclud": 3606,
      "aey": 3607,
      "ĠRussia": 3608,
      "Ġirn": 3609,
      "osed": 3610,
      "EI": 3611,
      "Ġ00": 3612,
      "Ġaim": 3613,
      "Ġiat": 3614,
      "Ġsecurity": 3615,
      "iot": 3616,
      "oro": 3617,
      "Ġcour": 3618,
      "sk": 3619,
      "Ġsed": 3620,
      "irus": 3621,
      "Ġkeep": 3622,
      "under": 3623,
      "zil": 3624,
      "Ġbest": 3625,
      "Ġthl": 3626,
      "Ġunc": 3627,
      "eff": 3628,
      "ompany": 3629,
      "Min": 3630,
      "ael": 3631,
      "band": 3632,
      "temp": 3633,
      "vert": 3634,
      "Ġdisc": 3635,
      "2004": 3636,
      "CC": 3637,
      "hic": 3638,
      "rday": 3639,
      "itio": 3640,
      "ĠeS": 3641,
      "ĠOcto": 3642,
      "ĠHu": 3643,
      "emen": 3644,
      "ipl": 3645,
      "ĠPress": 3646,
      "hor": 3647,
      "tar": 3648,
      "were": 3649,
      "ĠrS": 3650,
      "Ġmb": 3651,
      "press": 3652,
      "Am": 3653,
      "Ġsim": 3654,
      "itle": 3655,
      "151": 3656,
      "cel": 3657,
      "gra": 3658,
      "Ġcome": 3659,
      "Cr": 3660,
      "uot": 3661,
      "inh": 3662,
      "Ġless": 3663,
      "ĠIh": 3664,
      "ĠYan": 3665,
      "-\"": 3666,
      "FT": 3667,
      "RA": 3668,
      "Res": 3669,
      "ĠcI": 3670,
      "Ġbac": 3671,
      "Ġport": 3672,
      "tod": 3673,
      "ĠJan": 3674,
      "Ġbusiness": 3675,
      "Ġhur": 3676,
      "ĠShe": 3677,
      "Ġinr": 3678,
      "Ġofa": 3679,
      "econ": 3680,
      "ĠLead": 3681,
      "aster": 3682,
      "NY": 3683,
      "amb": 3684,
      "Ġ27": 3685,
      "Ġsch": 3686,
      "Ġdat": 3687,
      "Ġust": 3688,
      "ĠHow": 3689,
      "Ġabo": 3690,
      "CA": 3691,
      "aes": 3692,
      "Ġlic": 3693,
      "iton": 3694,
      "ubl": 3695,
      ",\\": 3696,
      "World": 3697,
      "Ġdur": 3698,
      "ĠSays": 3699,
      "Ġthea": 3700,
      "ĠIe": 3701,
      "ĠLinux": 3702,
      "05": 3703,
      "vet": 3704,
      "ĠSea": 3705,
      "ĠAus": 3706,
      "udi": 3707,
      "Ġneed": 3708,
      "')": 3709,
      "rch": 3710,
      "Ġrow": 3711,
      "Ġfoi": 3712,
      "ĠIB": 3713,
      "ĠGame": 3714,
      "CIS": 3715,
      "Jo": 3716,
      "Ġsear": 3717,
      "hest": 3718,
      "alia": 3719,
      "18": 3720,
      "dis": 3721,
      "nan": 3722,
      "rove": 3723,
      "ĠTop": 3724,
      "Ġrou": 3725,
      "Ġcop": 3726,
      "Ġfur": 3727,
      "Ġpur": 3728,
      "ĠSs": 3729,
      "ĠMore": 3730,
      "Ġgames": 3731,
      "ades": 3732,
      "Ġstand": 3733,
      "Ġ23": 3734,
      "ĠExp": 3735,
      "Ci": 3736,
      "bon": 3737,
      "ken": 3738,
      "Ġsep": 3739,
      "Ġright": 3740,
      "Ġbf": 3741,
      "Ġment": 3742,
      "ĠAri": 3743,
      "ecast": 3744,
      "Ġgain": 3745,
      "ieve": 3746,
      "iste": 3747,
      "IE": 3748,
      "Us": 3749,
      "Ġtold": 3750,
      "ĠKerry": 3751,
      "nis": 3752,
      "tra": 3753,
      "Ġoll": 3754,
      "Ġrth": 3755,
      "aled": 3756,
      "list": 3757,
      "Ġnm": 3758,
      "rod": 3759,
      "ĠMed": 3760,
      "ima": 3761,
      "Ġagai": 3762,
      "Ġabou": 3763,
      "Friday": 3764,
      "MW": 3765,
      "UK": 3766,
      "ĠaS": 3767,
      "Ġait": 3768,
      "Ġlost": 3769,
      "Ġeir": 3770,
      "Ġdee": 3771,
      "ĠRob": 3772,
      "ĠKe": 3773,
      "obile": 3774,
      "CH": 3775,
      "Web": 3776,
      "kl": 3777,
      "Ġahead": 3778,
      "Ġrise": 3779,
      "Ġtem": 3780,
      "Ġsing": 3781,
      "Ġean": 3782,
      "Ġeth": 3783,
      "elc": 3784,
      "asr": 3785,
      "ĠNFL": 3786,
      "ĠJust": 3787,
      "esterday": 3788,
      "Ġjobs": 3789,
      "wil": 3790,
      "Ġfire": 3791,
      "Ġwell": 3792,
      "rep": 3793,
      "ĠTho": 3794,
      "ĠuS": 3795,
      "ential": 3796,
      "Ġgood": 3797,
      "Ġrival": 3798,
      "tf": 3799,
      "Ġide": 3800,
      "Ġfra": 3801,
      "rough": 3802,
      "ĠLos": 3803,
      "Ġpeop": 3804,
      "Ve": 3805,
      "bhe": 3806,
      "mir": 3807,
      "Ġces": 3808,
      "ĠeB": 3809,
      "asa": 3810,
      "ĠTra": 3811,
      "ĠNow": 3812,
      "ĠHar": 3813,
      "rices": 3814,
      "big": 3815,
      "stor": 3816,
      "roe": 3817,
      "ĠTs": 3818,
      "ĠMer": 3819,
      "eee": 3820,
      "Ġpress": 3821,
      "Ġ40": 3822,
      ":,": 3823,
      "Do": 3824,
      "KYO": 3825,
      "Lo": 3826,
      "aign": 3827,
      "def": 3828,
      "ĠAtt": 3829,
      "omi": 3830,
      "Ġchi": 3831,
      "world": 3832,
      "ĠPac": 3833,
      "osr": 3834,
      "Ġven": 3835,
      "ances": 3836,
      "ĠSudan": 3837,
      "bec": 3838,
      "lle": 3839,
      "tur": 3840,
      "tie": 3841,
      "Ġsout": 3842,
      "athe": 3843,
      "ĠChamp": 3844,
      "Ġgover": 3845,
      "point": 3846,
      "Ġstrong": 3847,
      "100": 3848,
      "Oi": 3849,
      "Po": 3850,
      "Ps": 3851,
      "lal": 3852,
      "lst": 3853,
      "mu": 3854,
      "Ġmus": 3855,
      "iog": 3856,
      "Tuesday": 3857,
      "Ġned": 3858,
      "Ġnts": 3859,
      "Ġhc": 3860,
      "ĠAL": 3861,
      "ĠPM": 3862,
      "ĠON": 3863,
      "lines": 3864,
      "40": 3865,
      "500": 3866,
      "Ġoef": 3867,
      "ĠMS": 3868,
      "rael": 3869,
      "Ġdevelop": 3870,
      "-&": 3871,
      "las": 3872,
      "Ġting": 3873,
      "ening": 3874,
      "Ġrol": 3875,
      "Ġrate": 3876,
      "Ġpan": 3877,
      "Ġval": 3878,
      "Ġspace": 3879,
      "Ġofficial": 3880,
      "ĠXP": 3881,
      "Ġsnd": 3882,
      "Ġsday": 3883,
      "Ġsei": 3884,
      "Ġloo": 3885,
      "Ġnst": 3886,
      "ĠSout": 3887,
      "Ġens": 3888,
      "ancial": 3889,
      "Ġseven": 3890,
      "onds": 3891,
      "Ġboth": 3892,
      "Ġpil": 3893,
      "rev": 3894,
      "Ġthae": 3895,
      "ĠEa": 3896,
      "TS": 3897,
      "pla": 3898,
      "Ġaway": 3899,
      "Ġrie": 3900,
      "Ġweb": 3901,
      "ĠWas": 3902,
      "Ġreac": 3903,
      "lif": 3904,
      "Ġity": 3905,
      "peed": 3906,
      "Ġlargest": 3907,
      "'#": 3908,
      "Ġoof": 3909,
      "Ġlot": 3910,
      "Ġfind": 3911,
      "Ġmy": 3912,
      "ĠKo": 3913,
      "orted": 3914,
      "Ge": 3915,
      "ju": 3916,
      "lS": 3917,
      "Ġcase": 3918,
      "Ġnw": 3919,
      "aded": 3920,
      "ffer": 3921,
      "cm": 3922,
      "post": 3923,
      "Ġ*": 3924,
      "Ġfull": 3925,
      "ĠWil": 3926,
      "ĠGro": 3927,
      "esti": 3928,
      "cou": 3929,
      "nia": 3930,
      "ĠiD": 3931,
      "Ġcat": 3932,
      "Ġcro": 3933,
      "icks": 3934,
      "ĠSur": 3935,
      "Ġtoh": 3936,
      "ague": 3937,
      "got": 3938,
      "los": 3939,
      "vice": 3940,
      "Ġsale": 3941,
      "Ġfot": 3942,
      "ĠCong": 3943,
      "iona": 3944,
      "lti": 3945,
      "80": 3946,
      "ben": 3947,
      "high": 3948,
      "lia": 3949,
      "Ġpen": 3950,
      "ĠLou": 3951,
      "ĠNove": 3952,
      "TI": 3953,
      "iA": 3954,
      "Ġrit": 3955,
      "Ġeof": 3956,
      "tht": 3957,
      "Ġ(-": 3958,
      "eai": 3959,
      "Ġbeh": 3960,
      "Ġ22": 3961,
      "ittle": 3962,
      "ĠPeople": 3963,
      "Ġcho": 3964,
      "Ġinthe": 3965,
      "aged": 3966,
      "Ġcond": 3967,
      "ĠLeague": 3968,
      "kin": 3969,
      "ĠmI": 3970,
      "veral": 3971,
      "Ġtrhe": 3972,
      "Ġtnhe": 3973,
      "cf": 3974,
      "enb": 3975,
      "utes": 3976,
      "ĠGold": 3977,
      "ias": 3978,
      "tbe": 3979,
      "Ġ$": 3980,
      "Ġcrit": 3981,
      "Ġbal": 3982,
      "Ġwir": 3983,
      "Ġmas": 3984,
      "Ġgas": 3985,
      "unn": 3986,
      "aking": 3987,
      "iang": 3988,
      "rafat": 3989,
      "Ġsor": 3990,
      "Ġfit": 3991,
      "eci": 3992,
      "ione": 3993,
      "vei": 3994,
      "GA": 3995,
      "bm": 3996,
      "bout": 3997,
      "Ġais": 3998,
      "aro": 3999,
      "Ġincl": 4000,
      "ĠCou": 4001,
      "Ġuni": 4002,
      "Ġonf": 4003,
      "ieo": 4004,
      "Ġsthe": 4005,
      "ffic": 4006,
      "cient": 4007,
      "Air": 4008,
      "bI": 4009,
      "Ġrace": 4010,
      "Ġlef": 4011,
      "Ġnee": 4012,
      "Ġdf": 4013,
      "ĠAnt": 4014,
      "tse": 4015,
      "Ġvis": 4016,
      "cont": 4017,
      ";..": 4018,
      "Ġsav": 4019,
      "Ġofthe": 4020,
      "Ġthse": 4021,
      "ĠOi": 4022,
      "Ġchamp": 4023,
      "ized": 4024,
      "uthor": 4025,
      "YORK": 4026,
      "ax": 4027,
      "Ġtas": 4028,
      "Ġek": 4029,
      "Ġdist": 4030,
      "ĠBan": 4031,
      "toi": 4032,
      "osoft": 4033,
      "ĠStat": 4034,
      "ĠAfghan": 4035,
      "ATE": 4036,
      "aS": 4037,
      "Ġtno": 4038,
      "ĠnS": 4039,
      "ĠSr": 4040,
      "ĠIM": 4041,
      "alled": 4042,
      "ĠYo": 4043,
      "uv": 4044,
      "Ġcand": 4045,
      "Ġlim": 4046,
      "ĠTok": 4047,
      "oly": 4048,
      "eeks": 4049,
      "cept": 4050,
      "ĠAmeric": 4051,
      "DAD": 4052,
      "II": 4053,
      "Lea": 4054,
      "Ġcer": 4055,
      "alian": 4056,
      "Ġhin": 4057,
      "Ġthne": 4058,
      "ought": 4059,
      "illa": 4060,
      "hout": 4061,
      "Ġshould": 4062,
      "Ġusers": 4063,
      "Ġeal": 4064,
      "econd": 4065,
      "they": 4066,
      "dc": 4067,
      "hie": 4068,
      "vc": 4069,
      "Ġect": 4070,
      "ĠSept": 4071,
      "utin": 4072,
      "ĠMal": 4073,
      "igs": 4074,
      "ails": 4075,
      "ktop": 4076,
      "non": 4077,
      "~,": 4078,
      "Ġdie": 4079,
      "Ġonn": 4080,
      "ĠGi": 4081,
      "ralia": 4082,
      "':": 4083,
      "60": 4084,
      "qt": 4085,
      "ĠlA": 4086,
      "iga": 4087,
      "ĠUnion": 4088,
      "ĠEuropean": 4089,
      ".)": 4090,
      "NN": 4091,
      "mark": 4092,
      "tS": 4093,
      "Ġtg": 4094,
      "Ġox": 4095,
      "eno": 4096,
      "ĠTbe": 4097,
      "Ġsti": 4098,
      "Ġern": 4099,
      "Ġtso": 4100,
      "24": 4101,
      "Ro": 4102,
      "hb": 4103,
      "uar": 4104,
      "wing": 4105,
      "Ġiy": 4106,
      "ĠMark": 4107,
      "rss": 4108,
      "which": 4109,
      "Ġweeks": 4110,
      "cap": 4111,
      "din": 4112,
      "just": 4113,
      "Ġ---": 4114,
      "icr": 4115,
      "isr": 4116,
      "ĠFir": 4117,
      "ogy": 4118,
      "Ġlaws": 4119,
      "ruct": 4120,
      "Ġsupp": 4121,
      "21": 4122,
      "Its": 4123,
      "isng": 4124,
      "lian": 4125,
      "iants": 4126,
      "ĠYou": 4127,
      "Ġtrade": 4128,
      "Bo": 4129,
      "Es": 4130,
      "rad": 4131,
      "sit": 4132,
      "Ġ-,": 4133,
      "ura": 4134,
      "igns": 4135,
      "ify": 4136,
      "ained": 4137,
      "hael": 4138,
      "Ġstocks": 4139,
      "ĠStocks": 4140,
      "Ġalso": 4141,
      "Col": 4142,
      "gers": 4143,
      "Ġiand": 4144,
      "Ġbit": 4145,
      "Ġvote": 4146,
      "ĠGam": 4147,
      "Ġshares": 4148,
      "Ġlaunch": 4149,
      "Ġservice": 4150,
      "hem": 4151,
      "onc": 4152,
      "Ġmad": 4153,
      "osh": 4154,
      "Ġclose": 4155,
      "ĠAmerican": 4156,
      "Ġlth": 4157,
      "idt": 4158,
      "ĠHP": 4159,
      "nei": 4160,
      "lss": 4161,
      "anta": 4162,
      "Ill": 4163,
      "Oly": 4164,
      "bing": 4165,
      "kers": 4166,
      "Ġror": 4167,
      "Ġeen": 4168,
      "Ġanti": 4169,
      "Aust": 4170,
      "Ial": 4171,
      "Ġrai": 4172,
      "Ġum": 4173,
      "rive": 4174,
      "Ġati": 4175,
      "ugs": 4176,
      "ours": 4177,
      "icket": 4178,
      "Ġbetween": 4179,
      "jec": 4180,
      "Ġsia": 4181,
      "Ġets": 4182,
      "Ġwant": 4183,
      "Ġpow": 4184,
      "ĠSE": 4185,
      "ntr": 4186,
      "ĠEurop": 4187,
      "LA": 4188,
      "wed": 4189,
      "Ġwat": 4190,
      "Ġthn": 4191,
      "ently": 4192,
      "uses": 4193,
      "ĠDol": 4194,
      "Ġane": 4195,
      "ĠKorea": 4196,
      "Ġshot": 4197,
      "Iin": 4198,
      "Ra": 4199,
      "Ġsite": 4200,
      "Ġile": 4201,
      "enge": 4202,
      "Ġring": 4203,
      "Ġfal": 4204,
      "ĠSal": 4205,
      "ĠtheI": 4206,
      "Ġathe": 4207,
      "Ġ28": 4208,
      "Ġpublic": 4209,
      "Ġreported": 4210,
      "ĠLONDON": 4211,
      "bac": 4212,
      "cing": 4213,
      "Ġcare": 4214,
      "Ġlower": 4215,
      "Ġbot": 4216,
      "Ġhf": 4217,
      "utch": 4218,
      "Ġofn": 4219,
      "Ġgra": 4220,
      "ĠEast": 4221,
      "6666": 4222,
      "uet": 4223,
      "ĠNBA": 4224,
      "ĠDes": 4225,
      "ĠEgy": 4226,
      "ursd": 4227,
      "Ġ90": 4228,
      "field": 4229,
      "Ġstep": 4230,
      "Ġthrough": 4231,
      "Ins": 4232,
      "OM": 4233,
      "Pri": 4234,
      "mic": 4235,
      "yea": 4236,
      "ref": 4237,
      "aye": 4238,
      "rted": 4239,
      "hae": 4240,
      "Ġannounced": 4241,
      "hot": 4242,
      "zi": 4243,
      "Ġsil": 4244,
      "Ġbes": 4245,
      "reo": 4246,
      "ĠCons": 4247,
      "Ġofr": 4248,
      "sib": 4249,
      "shi": 4250,
      "ictory": 4251,
      "Ġdesp": 4252,
      "ĠOracle": 4253,
      "Mart": 4254,
      "cot": 4255,
      "eet": 4256,
      "ĠSou": 4257,
      "Ġofe": 4258,
      "omin": 4259,
      "ĠBill": 4260,
      "ĠLin": 4261,
      "ivi": 4262,
      "month": 4263,
      "'(": 4264,
      "Cup": 4265,
      "tri": 4266,
      "vit": 4267,
      "west": 4268,
      "Ġturn": 4269,
      "Ġ(.": 4270,
      "ĠLtd": 4271,
      "next": 4272,
      "Ġtshe": 4273,
      "Ġua": 4274,
      "ersi": 4275,
      "Ġana": 4276,
      "anda": 4277,
      "OU": 4278,
      "ining": 4279,
      "Ġnk": 4280,
      "ĠdI": 4281,
      "ĠCle": 4282,
      "ĠGerm": 4283,
      "Ġhes": 4284,
      "emb": 4285,
      "Ġpeace": 4286,
      "bled": 4287,
      "Ġmonths": 4288,
      "Er": 4289,
      "Eng": 4290,
      "Ll": 4291,
      "Ġaind": 4292,
      "ĠMy": 4293,
      "Ġanid": 4294,
      "ĠThis": 4295,
      "Ġsuch": 4296,
      "Tues": 4297,
      "may": 4298,
      "xe": 4299,
      "zon": 4300,
      "Ġtech": 4301,
      "Ġog": 4302,
      "ĠAnn": 4303,
      "oter": 4304,
      "oted": 4305,
      "Ġune": 4306,
      "ĠElect": 4307,
      "Ġrepo": 4308,
      "ĠKen": 4309,
      "Ġdemand": 4310,
      "Com": 4311,
      "Ġtis": 4312,
      "stt": 4313,
      "Ġwhere": 4314,
      "Ġhor": 4315,
      "Ġmai": 4316,
      "Ġterror": 4317,
      "Ġlatest": 4318,
      "ED": 4319,
      "tions": 4320,
      "Ġtch": 4321,
      "inrg": 4322,
      "Ġsyst": 4323,
      "orge": 4324,
      "Ġpull": 4325,
      "ĠFra": 4326,
      "qui": 4327,
      "Ġjoin": 4328,
      "Ġagreed": 4329,
      "Ġcapt": 4330,
      "mal": 4331,
      "ĠIthe": 4332,
      "adl": 4333,
      "Ġanother": 4334,
      "lter": 4335,
      "uled": 4336,
      "oftware": 4337,
      "Ġrece": 4338,
      "Ġgovernment": 4339,
      "Ġgrowth": 4340,
      "estinian": 4341,
      "cas": 4342,
      "cons": 4343,
      "Ġoy": 4344,
      "Ġcell": 4345,
      "Ġbreak": 4346,
      "Ġhie": 4347,
      "utr": 4348,
      "oting": 4349,
      "Ġthreat": 4350,
      "Ġui": 4351,
      "rier": 4352,
      "Ġvol": 4353,
      "beat": 4354,
      "Ġ26": 4355,
      "Ġprom": 4356,
      "Ġcharg": 4357,
      "Ik": 4358,
      "TV": 4359,
      "hig": 4360,
      "hav": 4361,
      "lel": 4362,
      "nor": 4363,
      "Ġach": 4364,
      "Ġric": 4365,
      "ĠpI": 4366,
      "isb": 4367,
      "open": 4368,
      "ifi": 4369,
      "Ġhon": 4370,
      "ĠAtl": 4371,
      "ocr": 4372,
      "Ġretail": 4373,
      "Ġpolice": 4374,
      "Ed": 4375,
      "ray": 4376,
      "atu": 4377,
      "ĠOnl": 4378,
      "nesd": 4379,
      "ĠTuesd": 4380,
      "kee": 4381,
      "rly": 4382,
      "vie": 4383,
      "Ġoan": 4384,
      "Ġdc": 4385,
      "ĠSol": 4386,
      "ĠAF": 4387,
      "ĠHigh": 4388,
      "Ġbuild": 4389,
      "Ġsla": 4390,
      "Ġok": 4391,
      "Ġlg": 4392,
      "Ġofs": 4393,
      "ĠMart": 4394,
      "ford": 4395,
      "ebr": 4396,
      "insg": 4397,
      "Ġappro": 4398,
      "App": 4399,
      "fed": 4400,
      "Ġtsh": 4401,
      "este": 4402,
      "Ġrig": 4403,
      "ĠbI": 4404,
      "ĠAme": 4405,
      "nde": 4406,
      "ido": 4407,
      "ioin": 4408,
      "Ġtitle": 4409,
      "AK": 4410,
      "hp": 4411,
      "help": 4412,
      "alyst": 4413,
      "Ġbad": 4414,
      "ilon": 4415,
      "Ġmal": 4416,
      "Ġtour": 4417,
      "ĠCourt": 4418,
      "oman": 4419,
      "ĠPow": 4420,
      "rian": 4421,
      "news": 4422,
      "Ġorf": 4423,
      "Ġack": 4424,
      "AB": 4425,
      "Ls": 4426,
      "Ri": 4427,
      "oit": 4428,
      "sin": 4429,
      "whe": 4430,
      "Ġsli": 4431,
      "Ġoun": 4432,
      "ĠiIn": 4433,
      "Ġnte": 4434,
      "Ġnetw": 4435,
      "ready": 4436,
      "lta": 4437,
      "aine": 4438,
      "ĠVir": 4439,
      "\".": 4440,
      "Sports": 4441,
      "ched": 4442,
      "iay": 4443,
      "uis": 4444,
      "wide": 4445,
      "Ġame": 4446,
      "ilr": 4447,
      "ĠGlo": 4448,
      "ĠEr": 4449,
      "ĠHew": 4450,
      "illing": 4451,
      "Ġpresident": 4452,
      "Go": 4453,
      "Ġaq": 4454,
      "Ġmm": 4455,
      "Ġmaj": 4456,
      "Ġslow": 4457,
      "ĠOlympic": 4458,
      "Ġhigher": 4459,
      "ein": 4460,
      "vol": 4461,
      "Ġnof": 4462,
      "stan": 4463,
      "eland": 4464,
      "Ġino": 4465,
      "ĠAI": 4466,
      "too": 4467,
      "ĠUk": 4468,
      "ival": 4469,
      "ulat": 4470,
      "Pi": 4471,
      "Ġtic": 4472,
      "Ġtarg": 4473,
      "Ġfd": 4474,
      "Ġfast": 4475,
      "acle": 4476,
      "ĠRad": 4477,
      "Ġ29": 4478,
      "hre": 4479,
      "Ġions": 4480,
      "amo": 4481,
      "ioc": 4482,
      "dey": 4483,
      "bg": 4484,
      "Ġnorth": 4485,
      "Ġwid": 4486,
      "lew": 4487,
      "Ġstt": 4488,
      "opp": 4489,
      "mpany": 4490,
      "ais": 4491,
      "iic": 4492,
      "Ġight": 4493,
      "Ġbetw": 4494,
      "iees": 4495,
      "tial": 4496,
      "Ġquar": 4497,
      "Brit": 4498,
      "uat": 4499,
      "uls": 4500,
      "Ġrer": 4501,
      "alm": 4502,
      "ĠTai": 4503,
      "Ġthir": 4504,
      "Ġuc": 4505,
      "ĠRel": 4506,
      "lla": 4507,
      "ĠQuote": 4508,
      "don": 4509,
      "hle": 4510,
      "ĠAcc": 4511,
      "eei": 4512,
      "ĠLib": 4513,
      "Ġation": 4514,
      "Ġpoints": 4515,
      "gg": 4516,
      "hf": 4517,
      "Ġfter": 4518,
      "Ġdif": 4519,
      "ells": 4520,
      "Ġster": 4521,
      "ĠKar": 4522,
      "Ġspac": 4523,
      "Ġcompa": 4524,
      "Ġsecur": 4525,
      "oed": 4526,
      "vor": 4527,
      "ĠYOR": 4528,
      "comm": 4529,
      "actor": 4530,
      "AGH": 4531,
      "Cs": 4532,
      "lth": 4533,
      "oen": 4534,
      "inte": 4535,
      "Ġsun": 4536,
      "Ġwih": 4537,
      "ĠTHE": 4538,
      "enter": 4539,
      "team": 4540,
      "ĠDVD": 4541,
      "Ġreve": 4542,
      "lab": 4543,
      "ĠFrench": 4544,
      "Ġtahe": 4545,
      "HENS": 4546,
      "CE": 4547,
      "LAN": 4548,
      "cet": 4549,
      "Ġier": 4550,
      "ĠSA": 4551,
      "ĠinI": 4552,
      "aying": 4553,
      "ĠTor": 4554,
      "htt": 4555,
      "Ġshort": 4556,
      "argest": 4557,
      "rowth": 4558,
      "ĠMinister": 4559,
      "tember": 4560,
      "Ġmobile": 4561,
      "):": 4562,
      "bre": 4563,
      "lts": 4564,
      "ĠsS": 4565,
      "Ġors": 4566,
      "Ġrw": 4567,
      "Ġnth": 4568,
      "ilty": 4569,
      "Ġmight": 4570,
      "aday": 4571,
      "Ġ.#": 4572,
      "Ġonline": 4573,
      "nthe": 4574,
      "004": 4575,
      "ertain": 4576,
      "Ġclaim": 4577,
      "Goo": 4578,
      "aut": 4579,
      "cit": 4580,
      "crs": 4581,
      "iis": 4582,
      "rter": 4583,
      "Ġoln": 4584,
      "ĠIin": 4585,
      "ĠAthe": 4586,
      "erse": 4587,
      "iving": 4588,
      "wood": 4589,
      "prise": 4590,
      "Ġouts": 4591,
      "Ġtao": 4592,
      "Ġlife": 4593,
      "Red": 4594,
      "fro": 4595,
      "iar": 4596,
      "Ġeco": 4597,
      "Ġnea": 4598,
      "Ġmot": 4599,
      "ĠIb": 4600,
      "ĠCit": 4601,
      "lling": 4602,
      "Ġstud": 4603,
      "resh": 4604,
      "ĠMicr": 4605,
      "Na": 4606,
      "now": 4607,
      "pany": 4608,
      "ĠsP": 4609,
      "Ġsco": 4610,
      "Ġrob": 4611,
      "Ġfun": 4612,
      "Ġwel": 4613,
      "Ġdra": 4614,
      "ĠSpr": 4615,
      "oty": 4616,
      "Ġ'#": 4617,
      "ĠRev": 4618,
      "Ġalle": 4619,
      "ieng": 4620,
      "ĠBoston": 4621,
      "ND": 4622,
      "Rep": 4623,
      "Tu": 4624,
      "dec": 4625,
      "sv": 4626,
      "xi": 4627,
      "Ġsas": 4628,
      "Ġsth": 4629,
      "Ġlec": 4630,
      "Ġfans": 4631,
      "iong": 4632,
      "ĠDon": 4633,
      "ĠOP": 4634,
      "sei": 4635,
      "rty": 4636,
      "arty": 4637,
      "ĠAmerica": 4638,
      "ĠiPod": 4639,
      "CS": 4640,
      "MP": 4641,
      "aon": 4642,
      "aet": 4643,
      "nth": 4644,
      "uff": 4645,
      "erb": 4646,
      "eso": 4647,
      "Ġrock": 4648,
      "ĠlB": 4649,
      "Ġfri": 4650,
      "Ġexpe": 4651,
      "Ġtalk": 4652,
      "HI": 4653,
      "lers": 4654,
      "nel": 4655,
      "rce": 4656,
      "inet": 4657,
      "Ġseek": 4658,
      "itan": 4659,
      "Ġbc": 4660,
      "Ġmr": 4661,
      "Ġtou": 4662,
      "Ġona": 4663,
      "ĠLond": 4664,
      "Ġhed": 4665,
      "rsday": 4666,
      "nson": 4667,
      "uding": 4668,
      "aste": 4669,
      "okes": 4670,
      "ported": 4671,
      "Me": 4672,
      "oid": 4673,
      "~'": 4674,
      "Ġcli": 4675,
      "ĠSI": 4676,
      "ream": 4677,
      "lev": 4678,
      "ĠNat": 4679,
      "ĠRod": 4680,
      "ofit": 4681,
      "..&": 4682,
      "Ġunit": 4683,
      "ricane": 4684,
      "35": 4685,
      "gb": 4686,
      "Ġ.'": 4687,
      "iah": 4688,
      "ĠJe": 4689,
      "aturday": 4690,
      "how": 4691,
      "sup": 4692,
      "Ġsot": 4693,
      "Ġlv": 4694,
      "Ġtouch": 4695,
      "ĠCap": 4696,
      "adt": 4697,
      "lld": 4698,
      "change": 4699,
      "imes": 4700,
      "ĠVer": 4701,
      "ĠWedne": 4702,
      "Ġincre": 4703,
      "adium": 4704,
      "Ġoto": 4705,
      "Ġrop": 4706,
      "Ġler": 4707,
      "Ġded": 4708,
      "Ġding": 4709,
      "ĠCt": 4710,
      "quo": 4711,
      "ivil": 4712,
      "ĠFranc": 4713,
      "Ġpoint": 4714,
      "ountry": 4715,
      "Ġscr": 4716,
      "ĠShi": 4717,
      "reen": 4718,
      "omen": 4719,
      "using": 4720,
      "Ġitt": 4721,
      "sible": 4722,
      "Ġship": 4723,
      "bv": 4724,
      "four": 4725,
      "ĠFRAN": 4726,
      "iox": 4727,
      "quar": 4728,
      "ĠIndian": 4729,
      "'~": 4730,
      "OP": 4731,
      "gain": 4732,
      "mI": 4733,
      "zen": 4734,
      "Ġwan": 4735,
      "Ġdoc": 4736,
      "ecurity": 4737,
      "ĠNetw": 4738,
      "usl": 4739,
      "Ġano": 4740,
      "lik": 4741,
      "Ġunve": 4742,
      "ĠSpace": 4743,
      "ecutive": 4744,
      "Ġnumber": 4745,
      "75": 4746,
      "cnt": 4747,
      "dI": 4748,
      "lhe": 4749,
      "miss": 4750,
      "see": 4751,
      "ĠtP": 4752,
      "ĠlP": 4753,
      "Ġnv": 4754,
      "Ġmes": 4755,
      "Ġmess": 4756,
      "ĠMt": 4757,
      "ĠMich": 4758,
      "igt": 4759,
      "amic": 4760,
      "lah": 4761,
      "pd": 4762,
      "eric": 4763,
      "edo": 4764,
      "Ġfiv": 4765,
      "Ġbur": 4766,
      "Ġmatch": 4767,
      "idl": 4768,
      "ĠFal": 4769,
      "Ġandi": 4770,
      "Ġreach": 4771,
      "loo": 4772,
      "ipe": 4773,
      "Ġ60": 4774,
      "Ġexpect": 4775,
      "ystems": 4776,
      "ET": 4777,
      "ST": 4778,
      "iug": 4779,
      "Ġfel": 4780,
      "Ġpush": 4781,
      "iding": 4782,
      "ried": 4783,
      "Ġvideo": 4784,
      "upt": 4785,
      "Ġtbat": 4786,
      "dem": 4787,
      "lot": 4788,
      "qn": 4789,
      "uan": 4790,
      "arv": 4791,
      "Ġpir": 4792,
      "isis": 4793,
      "Ġtow": 4794,
      "erss": 4795,
      "Ġreal": 4796,
      "Ġiti": 4797,
      "ova": 4798,
      "Ġwhic": 4799,
      "Ae": 4800,
      "CI": 4801,
      "dev": 4802,
      "nch": 4803,
      "rte": 4804,
      "ergy": 4805,
      "Ġote": 4806,
      "Ġrse": 4807,
      "Ġlie": 4808,
      "ĠNok": 4809,
      "ĠDow": 4810,
      "unes": 4811,
      "ously": 4812,
      "=\"-": 4813,
      "Ġtne": 4814,
      "onf": 4815,
      "Ġils": 4816,
      "Ġemer": 4817,
      "Ġnigh": 4818,
      "read": 4819,
      "Ġub": 4820,
      "rav": 4821,
      "imi": 4822,
      "---": 4823,
      "Ġexper": 4824,
      "ĠReal": 4825,
      "maker": 4826,
      "Lt": 4827,
      "RI": 4828,
      "Ġale": 4829,
      "icon": 4830,
      "oles": 4831,
      "lthe": 4832,
      "ĠVo": 4833,
      "Ġappe": 4834,
      "years": 4835,
      "apped": 4836,
      "Ġfourth": 4837,
      "ĠEngland": 4838,
      "29": 4839,
      "lte": 4840,
      "ĠtA": 4841,
      "Ġdollar": 4842,
      "roi": 4843,
      "ĠBt": 4844,
      "nted": 4845,
      "daq": 4846,
      "Ġnuclear": 4847,
      "rS": 4848,
      "Ġifor": 4849,
      "Ġnit": 4850,
      "Ġwins": 4851,
      "roduc": 4852,
      "ĠTest": 4853,
      "ĠPay": 4854,
      "Ġuo": 4855,
      "eea": 4856,
      "ĠLaw": 4857,
      "Ġreturn": 4858,
      "Wa": 4859,
      "bab": 4860,
      "uing": 4861,
      "wI": 4862,
      "ym": 4863,
      "ĠtC": 4864,
      "Ġrot": 4865,
      "Ġrap": 4866,
      "ĠMI": 4867,
      "Ġuf": 4868,
      "Ġconc": 4869,
      "Ġannou": 4870,
      "Ġpriv": 4871,
      "CBS": 4872,
      "Ha": 4873,
      "Mond": 4874,
      "NT": 4875,
      "rge": 4876,
      "Ġiet": 4877,
      "Ġfos": 4878,
      "Ġbis": 4879,
      "asc": 4880,
      "nda": 4881,
      "Ġfort": 4882,
      "ĠJob": 4883,
      "Ġprodu": 4884,
      "Ġchang": 4885,
      "ĠDeal": 4886,
      "bf": 4887,
      "inag": 4888,
      "arts": 4889,
      "alle": 4890,
      "ĠTech": 4891,
      "ĠCn": 4892,
      "ĠCs": 4893,
      "ĠPost": 4894,
      "llt": 4895,
      "iab": 4896,
      "season": 4897,
      "oda": 4898,
      "Ġtrans": 4899,
      "Ġsupport": 4900,
      "iP": 4901,
      "xed": 4902,
      "ĠtD": 4903,
      "Ġside": 4904,
      "Ġlts": 4905,
      "etit": 4906,
      "iaa": 4907,
      "Ġprod": 4908,
      "Iing": 4909,
      "hand": 4910,
      "Ġuters": 4911,
      "Ġoaf": 4912,
      "Ġrre": 4913,
      "Ġhae": 4914,
      "ĠII": 4915,
      "ĠTn": 4916,
      "rike": 4917,
      "Ġforce": 4918,
      "Ġorn": 4919,
      "ĠReu": 4920,
      "anced": 4921,
      "MB": 4922,
      "Mc": 4923,
      "Ta": 4924,
      "WA": 4925,
      "Ġome": 4926,
      "ĠiO": 4927,
      "Ġdin": 4928,
      "icit": 4929,
      "Ġmd": 4930,
      "aco": 4931,
      "ĠOs": 4932,
      "Ġya": 4933,
      "Ġcontr": 4934,
      "eball": 4935,
      "ervice": 4936,
      "Fu": 4937,
      "jaf": 4938,
      "pons": 4939,
      "Ġaad": 4940,
      "Ġsie": 4941,
      "Ġime": 4942,
      "Ġcame": 4943,
      "Ġfile": 4944,
      "iling": 4945,
      "Ġdam": 4946,
      "ĠAra": 4947,
      "ĠTb": 4948,
      "ĠthIe": 4949,
      "oue": 4950,
      "ĠBer": 4951,
      "llo": 4952,
      "imin": 4953,
      "hoe": 4954,
      "Ġsaf": 4955,
      "Ġorder": 4956,
      "Ġpeo": 4957,
      "ĠtIhe": 4958,
      "enior": 4959,
      "Ġaon": 4960,
      "Ġeut": 4961,
      "ĠIto": 4962,
      "ente": 4963,
      "Ġ#.": 4964,
      "ĠEnd": 4965,
      "lae": 4966,
      "aint": 4967,
      "Ġlaun": 4968,
      "Ġplayer": 4969,
      "pect": 4970,
      "sur": 4971,
      "uin": 4972,
      "Ġtir": 4973,
      "Ġfuel": 4974,
      "Ġwb": 4975,
      "Ġdrop": 4976,
      "Ġinves": 4977,
      "ĠNA": 4978,
      "ĠFre": 4979,
      "Ġvt": 4980,
      "aek": 4981,
      "Ġretur": 4982,
      "Pt": 4983,
      "Ġade": 4984,
      "Ġsle": 4985,
      "Ġcash": 4986,
      "itical": 4987,
      "isk": 4988,
      "ĠSb": 4989,
      "ĠTel": 4990,
      "ĠMs": 4991,
      "ĠPs": 4992,
      "ested": 4993,
      "Ġqua": 4994,
      "Ġamid": 4995,
      "ĠRussian": 4996,
      "BI": 4997,
      "Ts": 4998,
      "cord": 4999,
      "mh": 5000,
      "rid": 5001,
      "Ġsar": 5002,
      "Ġras": 5003,
      "arb": 5004,
      "eded": 5005,
      "Ġtheo": 5006,
      "Ġinfl": 5007,
      "ĠTen": 5008,
      "ĠGl": 5009,
      "ioo": 5010,
      "Thursday": 5011,
      "AGO": 5012,
      "&-": 5013,
      "Ds": 5014,
      "FONT": 5015,
      "Ġnan": 5016,
      "ĠAv": 5017,
      "lde": 5018,
      "Ġreven": 5019,
      "Ġspo": 5020,
      "Ġknow": 5021,
      "Ġboost": 5022,
      "del": 5023,
      "tat": 5024,
      "would": 5025,
      "when": 5026,
      "Ġtet": 5027,
      "Ġaand": 5028,
      "Ġsame": 5029,
      "ĠeA": 5030,
      "Ġbarr": 5031,
      "ĠTy": 5032,
      "ista": 5033,
      "Dr": 5034,
      "Irs": 5035,
      "hh": 5036,
      "ihe": 5037,
      "won": 5038,
      "ĠiW": 5039,
      "ĠlC": 5040,
      "Ġpra": 5041,
      "reut": 5042,
      "reme": 5043,
      "ĠCy": 5044,
      "ĠWr": 5045,
      "ĠHig": 5046,
      "liy": 5047,
      "Ġbef": 5048,
      "Ġquest": 5049,
      "ender": 5050,
      "ĠChic": 5051,
      "Ġcomputer": 5052,
      "awi": 5053,
      "Ġ199": 5054,
      "United": 5055,
      "Ġfc": 5056,
      "Ġfav": 5057,
      "Ġball": 5058,
      "Ġannd": 5059,
      "against": 5060,
      "like": 5061,
      "host": 5062,
      "ĠChief": 5063,
      "Ġ35": 5064,
      "Ġsoon": 5065,
      "gress": 5066,
      "Ho": 5067,
      "Net": 5068,
      "Oe": 5069,
      "hg": 5070,
      "hil": 5071,
      "Ġoen": 5072,
      "ayed": 5073,
      "teh": 5074,
      "teo": 5075,
      "nta": 5076,
      "ĠKa": 5077,
      "ava": 5078,
      "Ġ80": 5079,
      "reds": 5080,
      "Bu": 5081,
      "cla": 5082,
      "Ġaof": 5083,
      "Ġrts": 5084,
      "Ġroc": 5085,
      "atel": 5086,
      "Ġfan": 5087,
      "Ġdy": 5088,
      "otball": 5089,
      "igr": 5090,
      "ieon": 5091,
      "iop": 5092,
      "oduc": 5093,
      "Ġdeath": 5094,
      "Ġlaunc": 5095,
      "'&": 5096,
      "lk": 5097,
      "ask": 5098,
      "vee": 5099,
      "aga": 5100,
      "ified": 5101,
      "Ġplace": 5102,
      "Ct": 5103,
      "Fl": 5104,
      "Iw": 5105,
      "Of": 5106,
      "fil": 5107,
      "oS": 5108,
      "py": 5109,
      "Ġwound": 5110,
      "ĠCub": 5111,
      "omes": 5112,
      "Ġ('": 5113,
      "ande": 5114,
      "oost": 5115,
      "Ġexpected": 5116,
      "Ut": 5117,
      "cro": 5118,
      "vil": 5119,
      "ativ": 5120,
      "Ġeight": 5121,
      "ĠPan": 5122,
      "tow": 5123,
      "osa": 5124,
      "ĠOS": 5125,
      "Quot": 5126,
      "ĠIsraeli": 5127,
      "night": 5128,
      "rle": 5129,
      "sion": 5130,
      "inm": 5131,
      "Ġlre": 5132,
      "Ġmust": 5133,
      "ĠSil": 5134,
      "ĠSoc": 5135,
      "adn": 5136,
      "Ġ.(": 5137,
      "Ġong": 5138,
      "cher": 5139,
      "qua": 5140,
      "tron": 5141,
      "Ġbiggest": 5142,
      "-/": 5143,
      "sing": 5144,
      "try": 5145,
      "you": 5146,
      "Ġsug": 5147,
      "enst": 5148,
      "edd": 5149,
      "Ġdied": 5150,
      "ĠMr": 5151,
      "abi": 5152,
      "tier": 5153,
      "oved": 5154,
      "iba": 5155,
      "ension": 5156,
      "Ġclub": 5157,
      "Ġrecent": 5158,
      "ĠAsia": 5159,
      "ĠThursd": 5160,
      "fat": 5161,
      "erat": 5162,
      "Ġsour": 5163,
      "anes": 5164,
      "ingr": 5165,
      "uty": 5166,
      "Ġthhe": 5167,
      "ecti": 5168,
      "ĠWit": 5169,
      "ĠWhen": 5170,
      "ĠNort": 5171,
      "Ġyi": 5172,
      "lain": 5173,
      "iven": 5174,
      "ifth": 5175,
      "Ġotn": 5176,
      "News": 5177,
      "fon": 5178,
      "gro": 5179,
      "mai": 5180,
      "ĠtW": 5181,
      "Ġose": 5182,
      "ĠImp": 5183,
      "ĠCA": 5184,
      "ĠReb": 5185,
      "Ġhen": 5186,
      "ĠChar": 5187,
      "rse": 5188,
      "erts": 5189,
      "ĠiF": 5190,
      "Ġbd": 5191,
      "Ġhits": 5192,
      "etion": 5193,
      "ĠPt": 5194,
      "oub": 5195,
      "Ġves": 5196,
      "ĠKi": 5197,
      "Ġnearly": 5198,
      ",/": 5199,
      "Gen": 5200,
      "SH": 5201,
      "stem": 5202,
      "Ġpoll": 5203,
      "Ġdoll": 5204,
      "ĠtoI": 5205,
      "ĠBack": 5206,
      "Ġ''": 5207,
      "avs": 5208,
      "ĠYuk": 5209,
      "Ġofficials": 5210,
      "order": 5211,
      "Ġscor": 5212,
      "Ġtroops": 5213,
      "Sn": 5214,
      "TH": 5215,
      "Ġfh": 5216,
      "Ġnter": 5217,
      "toe": 5218,
      "ĠEs": 5219,
      "bei": 5220,
      "phy": 5221,
      "ĠDarfur": 5222,
      "ĠTexas": 5223,
      "cond": 5224,
      "fI": 5225,
      "tv": 5226,
      "Ġiar": 5227,
      "Ġlear": 5228,
      "ecord": 5229,
      "ĠDell": 5230,
      "Ġbegin": 5231,
      "ssi": 5232,
      "people": 5233,
      "Ġtrial": 5234,
      "Ġsmall": 5235,
      ".(": 5236,
      "DATE": 5237,
      "Ei": 5238,
      "Sr": 5239,
      "York": 5240,
      "pho": 5241,
      "inian": 5242,
      "erst": 5243,
      "Ġohe": 5244,
      "Ġlle": 5245,
      "Ġnine": 5246,
      "Ġpoi": 5247,
      "Ġhai": 5248,
      "Ġtohe": 5249,
      "nded": 5250,
      "ĠTechn": 5251,
      "ioh": 5252,
      "abs": 5253,
      "tih": 5254,
      "Ġarm": 5255,
      "ector": 5256,
      "=\"#": 5257,
      "Ġcosts": 5258,
      "ĠAMD": 5259,
      "49": 5260,
      "pot": 5261,
      "ĠiR": 5262,
      "Ġlia": 5263,
      "irr": 5264,
      "Ġuot": 5265,
      "ĠHal": 5266,
      "Ġchar": 5267,
      "rich": 5268,
      "action": 5269,
      "icted": 5270,
      "etting": 5271,
      "Ġstop": 5272,
      "ufact": 5273,
      "22": 5274,
      "Man": 5275,
      "Vi": 5276,
      "hts": 5277,
      "zai": 5278,
      "ĠtB": 5279,
      "Ġaround": 5280,
      "Ġcuts": 5281,
      "nding": 5282,
      "ĠCb": 5283,
      "iring": 5284,
      "ofl": 5285,
      "Ġvisit": 5286,
      "unity": 5287,
      "ags": 5288,
      "ctions": 5289,
      "udg": 5290,
      "forts": 5291,
      "deal": 5292,
      "Ġ31": 5293,
      "Ġfron": 5294,
      "ASA": 5295,
      "company": 5296,
      "Ġcalled": 5297,
      "EA": 5298,
      "cia": 5299,
      "oal": 5300,
      "wd": 5301,
      "zo": 5302,
      "Ġtst": 5303,
      "ĠaP": 5304,
      "ĠiL": 5305,
      "Ġdia": 5306,
      "ĠIrai": 5307,
      "idence": 5308,
      "ĠCont": 5309,
      "ĠthI": 5310,
      "acs": 5311,
      "ltt": 5312,
      "load": 5313,
      "Ġspa": 5314,
      "tles": 5315,
      "Ġfoir": 5316,
      "Ġregion": 5317,
      "nen": 5318,
      "tre": 5319,
      "yd": 5320,
      "Ġlen": 5321,
      "Ġfon": 5322,
      "ĠSee": 5323,
      "road": 5324,
      "ecl": 5325,
      "ĠBs": 5326,
      "ĠFire": 5327,
      "iment": 5328,
      "uclear": 5329,
      "ogle": 5330,
      "Ġgoal": 5331,
      "vernment": 5332,
      "gam": 5333,
      "nse": 5334,
      "Ġtah": 5335,
      "atI": 5336,
      "ĠeC": 5337,
      "Ġnel": 5338,
      "Ġbon": 5339,
      "Ġbor": 5340,
      "ĠIA": 5341,
      "ĠTie": 5342,
      "ĠMex": 5343,
      "Ġgun": 5344,
      "ĠNetwork": 5345,
      "vered": 5346,
      "aind": 5347,
      "nced": 5348,
      "Ġinsur": 5349,
      "Ġbroad": 5350,
      "Sc": 5351,
      "aP": 5352,
      "ium": 5353,
      "kr": 5354,
      "long": 5355,
      "ĠrA": 5356,
      "Ġbie": 5357,
      "ache": 5358,
      "cep": 5359,
      "Ġchild": 5360,
      "Ġiuot": 5361,
      "bid": 5362,
      "cv": 5363,
      "vI": 5364,
      "ĠtT": 5365,
      "eries": 5366,
      "Ġclear": 5367,
      "Ġbir": 5368,
      "Ġwib": 5369,
      "Ġuld": 5370,
      "ĠOt": 5371,
      "ocrat": 5372,
      "Ġseries": 5373,
      "Ġsst": 5374,
      "Ġrle": 5375,
      "Ġrte": 5376,
      "ĠlT": 5377,
      "ĠIvan": 5378,
      "irman": 5379,
      "Ġthoe": 5380,
      "Ġgets": 5381,
      "lds": 5382,
      "opt": 5383,
      "eij": 5384,
      "Ġquart": 5385,
      "Ġgove": 5386,
      "rosof": 5387,
      "ĠBaghdad": 5388,
      "Ġbecause": 5389,
      "CISCO": 5390,
      "inp": 5391,
      "Ġich": 5392,
      "Ġigh": 5393,
      "stit": 5394,
      "Ġinve": 5395,
      "Ġtob": 5396,
      "ĠAth": 5397,
      "ecte": 5398,
      "ĠBur": 5399,
      "lso": 5400,
      "uman": 5401,
      "China": 5402,
      "Oil": 5403,
      "fol": 5404,
      "rar": 5405,
      "yes": 5406,
      "sthe": 5407,
      "Ġprs": 5408,
      "Ġhh": 5409,
      "real": 5410,
      "ĠLow": 5411,
      "lday": 5412,
      "aks": 5413,
      "Ġaff": 5414,
      "Nov": 5415,
      "Sto": 5416,
      "ches": 5417,
      "Ġlarge": 5418,
      "Ġfoo": 5419,
      "Ġeed": 5420,
      "Ġnar": 5421,
      "Ġname": 5422,
      "Ġwii": 5423,
      "Ġdh": 5424,
      "etrs": 5425,
      "Ġmag": 5426,
      "Ġmult": 5427,
      "ĠSay": 5428,
      "elrs": 5429,
      "ĠIhe": 5430,
      "ĠAe": 5431,
      "ĠBAGH": 5432,
      "ĠHouse": 5433,
      "rnet": 5434,
      "Ġneg": 5435,
      "Ġenter": 5436,
      "Ġplayers": 5437,
      "kei": 5438,
      "mos": 5439,
      "sid": 5440,
      "ĠtIo": 5441,
      "Ġick": 5442,
      "Ġeuro": 5443,
      "otion": 5444,
      "Ġgave": 5445,
      "amen": 5446,
      "Ġatn": 5447,
      "umm": 5448,
      "ttle": 5449,
      "Ġ49": 5450,
      "ference": 5451,
      "ĠWindows": 5452,
      "Off": 5453,
      "mc": 5454,
      "Ġsend": 5455,
      "ĠoS": 5456,
      "Ġnhe": 5457,
      "Ġwal": 5458,
      "ĠSaf": 5459,
      "ĠMl": 5460,
      "ĠBen": 5461,
      "ĠBob": 5462,
      "ĠGra": 5463,
      "ĠHen": 5464,
      "logy": 5465,
      "nsi": 5466,
      "ĠBlack": 5467,
      "investor": 5468,
      "By": 5469,
      "Bush": 5470,
      "Ġcto": 5471,
      "Ġbol": 5472,
      "stra": 5473,
      "Ġpus": 5474,
      "erson": 5475,
      "ĠFrom": 5476,
      "ulf": 5477,
      "ĠVal": 5478,
      "place": 5479,
      "tled": 5480,
      "Ġboard": 5481,
      "enger": 5482,
      "Ġaccord": 5483,
      "Ġmedia": 5484,
      "ĠPaul": 5485,
      "28": 5486,
      "dia": 5487,
      "tis": 5488,
      "ĠsA": 5489,
      "Ġeer": 5490,
      "Ġeet": 5491,
      "Ġning": 5492,
      "lege": 5493,
      "Ġhet": 5494,
      "ema": 5495,
      "ncl": 5496,
      "eps": 5497,
      "ustr": 5498,
      "ornia": 5499,
      "Ġindustry": 5500,
      "firm": 5501,
      "kins": 5502,
      "lto": 5503,
      "nment": 5504,
      "pes": 5505,
      "stro": 5506,
      "iler": 5507,
      "ĠTer": 5508,
      "oming": 5509,
      "ĠMid": 5510,
      "Ġanc": 5511,
      "Ġforces": 5512,
      "iva": 5513,
      "plac": 5514,
      "prices": 5515,
      "ĠFrance": 5516,
      "ption": 5517,
      "Ġ2006": 5518,
      "Ġannounc": 5519,
      "ĠStock": 5520,
      "Bus": 5521,
      "Car": 5522,
      "Ith": 5523,
      "cur": 5524,
      "ood": 5525,
      "uz": 5526,
      "ĠtM": 5527,
      "Ġpp": 5528,
      "ĠTri": 5529,
      "ĠCla": 5530,
      "Ġgol": 5531,
      "ĠPark": 5532,
      "ĠBA": 5533,
      "Ġonr": 5534,
      "Ġ'.": 5535,
      "ĠDeb": 5536,
      "lied": 5537,
      "early": 5538,
      "umers": 5539,
      "ooks": 5540,
      "ĠSpain": 5541,
      "Sox": 5542,
      "Ġmilitary": 5543,
      "27": 5544,
      "Russ": 5545,
      "Wh": 5546,
      "tto": 5547,
      "ensive": 5548,
      "Ġeit": 5549,
      "Ġbra": 5550,
      "asb": 5551,
      "ĠIon": 5552,
      "Ġger": 5553,
      "ĠDu": 5554,
      "Ġvid": 5555,
      "ĠHel": 5556,
      "Ġatd": 5557,
      "Ġrei": 5558,
      "lob": 5559,
      "Ġkee": 5560,
      "ules": 5561,
      "avi": 5562,
      "Ġproduct": 5563,
      "Ġcoa": 5564,
      "ĠBuy": 5565,
      "Di": 5566,
      "Ġiot": 5567,
      "Ġnev": 5568,
      "Ġwd": 5569,
      "ĠSales": 5570,
      "ĠArafat": 5571,
      "ĠPlan": 5572,
      "estor": 5573,
      "unced": 5574,
      "Ġarch": 5575,
      "acked": 5576,
      "Ġsex": 5577,
      "Ġoffi": 5578,
      "Ġtelev": 5579,
      "Ġelection": 5580,
      "ruptcy": 5581,
      "Da": 5582,
      "SI": 5583,
      "tick": 5584,
      "wee": 5585,
      "Ġtand": 5586,
      "Ġsg": 5587,
      "ished": 5588,
      "ĠSon": 5589,
      "ĠNation": 5590,
      "ĠNHL": 5591,
      "Ġkidn": 5592,
      "Japan": 5593,
      "Om": 5594,
      "aig": 5595,
      "come": 5596,
      "ĠoF": 5597,
      "Ġiro": 5598,
      "Ġiun": 5599,
      "Ġcm": 5600,
      "Ġcus": 5601,
      "Ġcard": 5602,
      "Ġbin": 5603,
      "ĠCam": 5604,
      "ĠNext": 5605,
      "eae": 5606,
      "box": 5607,
      "Ġyeste": 5608,
      "Ġxt": 5609,
      "Ġaan": 5610,
      "enh": 5611,
      "aris": 5612,
      "Ġthec": 5613,
      "ĠTom": 5614,
      "ecur": 5615,
      "three": 5616,
      "ĠRoy": 5617,
      "Ġpolic": 5618,
      "FullQuote": 5619,
      "ĠArmy": 5620,
      "Op": 5621,
      "RM": 5622,
      "erday": 5623,
      "ories": 5624,
      "Ġrout": 5625,
      "Ġtom": 5626,
      "ĠMn": 5627,
      "iont": 5628,
      "ĠBoe": 5629,
      "tss": 5630,
      "Ġstro": 5631,
      "ĠVe": 5632,
      "Ġchampion": 5633,
      "Ġallow": 5634,
      "And": 5635,
      "Ee": 5636,
      "Rs": 5637,
      "bis": 5638,
      "cp": 5639,
      "jn": 5640,
      "ras": 5641,
      "rate": 5642,
      "xpl": 5643,
      "inves": 5644,
      "Ġsys": 5645,
      "Ġfhe": 5646,
      "Ġeach": 5647,
      "Ġweak": 5648,
      "ilm": 5649,
      "Ġinit": 5650,
      "rees": 5651,
      "ĠIC": 5652,
      "ĠAft": 5653,
      "ĠTI": 5654,
      "Ġofo": 5655,
      "rik": 5656,
      "ĠDan": 5657,
      "unk": 5658,
      "Ġish": 5659,
      "nss": 5660,
      "rti": 5661,
      "Ġworl": 5662,
      "Ġglobal": 5663,
      "51": 5664,
      "70": 5665,
      "EU": 5666,
      "dan": 5667,
      "Ġsam": 5668,
      "Ġoit": 5669,
      "Ġik": 5670,
      "Ġfat": 5671,
      "Ġeis": 5672,
      "Ġhia": 5673,
      "rey": 5674,
      "ĠEag": 5675,
      "oping": 5676,
      "ibs": 5677,
      "anger": 5678,
      "iIng": 5679,
      "ĠMinist": 5680,
      "ĠGerman": 5681,
      "Ag": 5682,
      "Ste": 5683,
      "px": 5684,
      "Ġling": 5685,
      "Ġpit": 5686,
      "ĠST": 5687,
      "Ġthev": 5688,
      "ĠCI": 5689,
      "ĠPla": 5690,
      "tsr": 5691,
      "Ġonce": 5692,
      "ofn": 5693,
      "ĠLy": 5694,
      "aire": 5695,
      "Ġene": 5696,
      "Ġident": 5697,
      "Ġintern": 5698,
      "ĠWednesd": 5699,
      "cte": 5700,
      "nig": 5701,
      "arry": 5702,
      "Ġlst": 5703,
      "Ġfina": 5704,
      "ĠeM": 5705,
      "Ġnis": 5706,
      "Ġmilli": 5707,
      "acr": 5708,
      "Ġgy": 5709,
      "agu": 5710,
      "ivo": 5711,
      "asser": 5712,
      "mance": 5713,
      "Ġfuture": 5714,
      "Fed": 5715,
      "LO": 5716,
      "db": 5717,
      "dm": 5718,
      "Ġays": 5719,
      "Ġcurr": 5720,
      "Ġnam": 5721,
      "Ġbla": 5722,
      "ndi": 5723,
      "lef": 5724,
      "ĠMiss": 5725,
      "ĠFirst": 5726,
      "ĠDay": 5727,
      "ĠDown": 5728,
      "Ġands": 5729,
      "aist": 5730,
      "Ġking": 5731,
      "rta": 5732,
      "aves": 5733,
      "ailed": 5734,
      "offic": 5735,
      "Ġmedal": 5736,
      "gc": 5737,
      "ois": 5738,
      "Ġied": 5739,
      "ĠCard": 5740,
      "Ġ.,": 5741,
      "osl": 5742,
      "ĠWilli": 5743,
      "ĠGet": 5744,
      "aging": 5745,
      "term": 5746,
      "loye": 5747,
      "Ġpropos": 5748,
      "Ġosf": 5749,
      "final": 5750,
      "ĠYahoo": 5751,
      "With": 5752,
      "oan": 5753,
      "rig": 5754,
      "view": 5755,
      "inj": 5756,
      "ĠaC": 5757,
      "Ġrch": 5758,
      "aters": 5759,
      "Ġcem": 5760,
      "ĠlM": 5761,
      "Ġlog": 5762,
      "Ġpal": 5763,
      "olic": 5764,
      "ĠMob": 5765,
      "ĠFla": 5766,
      "Ġheir": 5767,
      "asts": 5768,
      "Ġbring": 5769,
      "aot": 5770,
      "ders": 5771,
      "oir": 5772,
      "yle": 5773,
      "Ġawa": 5774,
      "Ġiel": 5775,
      "Ġlel": 5776,
      "Ġbattle": 5777,
      "Ġdm": 5778,
      "ĠSoft": 5779,
      "aby": 5780,
      "Ġproble": 5781,
      "ende": 5782,
      "Ġagree": 5783,
      "ttp": 5784,
      "Ġperc": 5785,
      "Ġ70": 5786,
      "say": 5787,
      "tit": 5788,
      "Ġtai": 5789,
      "onth": 5790,
      "ĠiH": 5791,
      "Ġeld": 5792,
      "ĠSing": 5793,
      "ĠAN": 5794,
      "ĠAut": 5795,
      "aders": 5796,
      "Ġ#'": 5797,
      "ĠUi": 5798,
      "ĠDen": 5799,
      "Ġandl": 5800,
      "Ġreports": 5801,
      "ifor": 5802,
      "ession": 5803,
      "ĠVa": 5804,
      "overs": 5805,
      "Ġshut": 5806,
      "Ġusing": 5807,
      "ĠAfg": 5808,
      "PA": 5809,
      "gI": 5810,
      "hst": 5811,
      "oing": 5812,
      "test": 5813,
      "zy": 5814,
      "Ġslt": 5815,
      "Ġpho": 5816,
      "ĠofI": 5817,
      "thei": 5818,
      "Ġissu": 5819,
      "aza": 5820,
      "vestor": 5821,
      "Ġparty": 5822,
      "Bi": 5823,
      "Ea": 5824,
      "pir": 5825,
      "tst": 5826,
      "yers": 5827,
      "Ġsis": 5828,
      "esb": 5829,
      "Ġirs": 5830,
      "ords": 5831,
      "Ġlil": 5832,
      "itv": 5833,
      "itz": 5834,
      "Ġfis": 5835,
      "Ġmont": 5836,
      "ĠIR": 5837,
      "ĠTour": 5838,
      "Ġgreat": 5839,
      "tsi": 5840,
      "ioon": 5841,
      "ncy": 5842,
      "ĠStreet": 5843,
      "Ġcompanies": 5844,
      "Ġhuman": 5845,
      "Ga": 5846,
      "Ġari": 5847,
      "erf": 5848,
      "itive": 5849,
      "Ġpet": 5850,
      "Ġhou": 5851,
      "eless": 5852,
      "ĠCut": 5853,
      "ĠHot": 5854,
      "then": 5855,
      "again": 5856,
      "uble": 5857,
      "ibn": 5858,
      "Ġfior": 5859,
      "Ġevery": 5860,
      ",&": 5861,
      "-\\$": 5862,
      "Ap": 5863,
      "Sun": 5864,
      "ril": 5865,
      "Ġsqu": 5866,
      "Ġoss": 5867,
      "Ġcv": 5868,
      "Ġnds": 5869,
      "Ġthed": 5870,
      "Ġthd": 5871,
      "Ġuns": 5872,
      "eem": 5873,
      "oca": 5874,
      "umber": 5875,
      "55": 5876,
      ":/": 5877,
      "DS": 5878,
      "rds": 5879,
      "tg": 5880,
      "Ġties": 5881,
      "Ġavo": 5882,
      "Ġous": 5883,
      "onto": 5884,
      "Ġdv": 5885,
      "ecd": 5886,
      "olve": 5887,
      "ĠMad": 5888,
      "ander": 5889,
      "lap": 5890,
      "iana": 5891,
      "ĠThey": 5892,
      "Ġpred": 5893,
      "ĠThat": 5894,
      "endo": 5895,
      "error": 5896,
      "Ġeconomy": 5897,
      "Ġreleased": 5898,
      "quickinfo": 5899,
      "Ġwomen": 5900,
      "him": 5901,
      "oad": 5902,
      "pI": 5903,
      "uu": 5904,
      "inals": 5905,
      "Ġign": 5906,
      "Ġnday": 5907,
      "illl": 5908,
      "ĠSam": 5909,
      "eled": 5910,
      "ĠTime": 5911,
      "ĠPack": 5912,
      "Ġvio": 5913,
      "cei": 5914,
      "ĠGree": 5915,
      "ctory": 5916,
      "Ġagains": 5917,
      "pris": 5918,
      "phone": 5919,
      "move": 5920,
      "Ġended": 5921,
      "iddle": 5922,
      "Ni": 5923,
      "js": 5924,
      "ĠoP": 5925,
      "Ġlee": 5926,
      "Ġnati": 5927,
      "Ġpd": 5928,
      "Ġhb": 5929,
      "icip": 5930,
      "ĠArab": 5931,
      "ĠTal": 5932,
      "ĠCas": 5933,
      "ĠPit": 5934,
      "raeli": 5935,
      "Ġatnd": 5936,
      "Ġrequ": 5937,
      "earc": 5938,
      "gton": 5939,
      "Ġagr": 5940,
      "Ġtlh": 5941,
      "-\\": 5942,
      "Comm": 5943,
      "far": 5944,
      "hur": 5945,
      "job": 5946,
      "lw": 5947,
      "oar": 5948,
      "Ġoat": 5949,
      "Ġilt": 5950,
      "Ġees": 5951,
      "ĠIre": 5952,
      "ayer": 5953,
      "Ġure": 5954,
      "ĠOK": 5955,
      "andi": 5956,
      "Ġata": 5957,
      "quart": 5958,
      "Ġbei": 5959,
      "eii": 5960,
      "Ġprocess": 5961,
      "Ġfield": 5962,
      "Ġcoun": 5963,
      "ĠReport": 5964,
      "Wednesday": 5965,
      "Ire": 5966,
      "fm": 5967,
      "gd": 5968,
      "nam": 5969,
      "uary": 5970,
      "ually": 5971,
      "wart": 5972,
      "inI": 5973,
      "inue": 5974,
      "Ġori": 5975,
      "Ġboy": 5976,
      "Ġdb": 5977,
      "Ġdor": 5978,
      "ĠPen": 5979,
      "Ġ(\\$": 5980,
      "Ġanld": 5981,
      "Ġrebel": 5982,
      "opes": 5983,
      "lov": 5984,
      "Ġenv": 5985,
      "iii": 5986,
      "Ġarr": 5987,
      "Ġ2001": 5988,
      "ĠProfit": 5989,
      "ATO": 5990,
      "Ġtakes": 5991,
      "fte": 5992,
      "oday": 5993,
      "tO": 5994,
      "Ġtia": 5995,
      "Ġeor": 5996,
      "Ġbod": 5997,
      "Ġhhe": 5998,
      "asing": 5999,
      "acts": 6000,
      "acqu": 6001,
      "Ġgian": 6002,
      "ieb": 6003,
      "Ġ'(": 6004,
      "osd": 6005,
      "Ġandt": 6006,
      "Ġyen": 6007,
      "loc": 6008,
      "sss": 6009,
      "Ġjus": 6010,
      "ĠReuter": 6011,
      "strong": 6012,
      "ĠPakistan": 6013,
      ".#": 6014,
      "could": 6015,
      "df": 6016,
      "eis": 6017,
      "iou": 6018,
      "Ġinh": 6019,
      "ersl": 6020,
      "imate": 6021,
      "ups": 6022,
      "cked": 6023,
      "ĠPalest": 6024,
      "Ġactiv": 6025,
      "Ġhopes": 6026,
      "UT": 6027,
      "eid": 6028,
      "ĠiN": 6029,
      "Ġfof": 6030,
      "Ġfear": 6031,
      "Ġels": 6032,
      "Ġeast": 6033,
      "Ġwatch": 6034,
      "Ġpea": 6035,
      "Ġhope": 6036,
      "icat": 6037,
      "ĠSEC": 6038,
      "ashed": 6039,
      "ĠIan": 6040,
      "ĠOk": 6041,
      "Ġasd": 6042,
      "oek": 6043,
      "Ġservic": 6044,
      "ĠCanad": 6045,
      "ĠDavid": 6046,
      "Ġlegal": 6047,
      "FO": 6048,
      "dent": 6049,
      "iol": 6050,
      "oor": 6051,
      "sS": 6052,
      "Ġix": 6053,
      "Ġcra": 6054,
      "Ġlnd": 6055,
      "Ġetr": 6056,
      "Ġbri": 6057,
      "ingto": 6058,
      "Ġthef": 6059,
      "Ġtoc": 6060,
      "utl": 6061,
      "utu": 6062,
      "ĠOc": 6063,
      "anding": 6064,
      "Ġjum": 6065,
      "ĠShares": 6066,
      "adrid": 6067,
      "Ġfederal": 6068,
      "All": 6069,
      "LIN": 6070,
      "eve": 6071,
      "euters": 6072,
      "hers": 6073,
      "iO": 6074,
      "oot": 6075,
      "sen": 6076,
      "ĠsC": 6077,
      "Ġmic": 6078,
      "elv": 6079,
      "ĠMas": 6080,
      "oso": 6081,
      "ĠRock": 6082,
      "days": 6083,
      "Ġarn": 6084,
      "fox": 6085,
      "Ġattacks": 6086,
      "ALL": 6087,
      "Ass": 6088,
      "LC": 6089,
      "cee": 6090,
      "rto": 6091,
      "tot": 6092,
      "uS": 6093,
      "Ġcks": 6094,
      "ĠeT": 6095,
      "Ġeli": 6096,
      "Ġeuters": 6097,
      "Ġwest": 6098,
      "Ġdre": 6099,
      "roug": 6100,
      "neg": 6101,
      "ĠThi": 6102,
      "Ġwitb": 6103,
      "legal": 6104,
      "26": 6105,
      "Mac": 6106,
      "hia": 6107,
      "Ġtco": 6108,
      "Ġrand": 6109,
      "Ġnse": 6110,
      "Ġpac": 6111,
      "Ġhut": 6112,
      "ĠSin": 6113,
      "ĠSome": 6114,
      "ĠBR": 6115,
      "iey": 6116,
      "Ġrej": 6117,
      "six": 6118,
      "pping": 6119,
      "Ġsize": 6120,
      "Ġamong": 6121,
      "aIl": 6122,
      "Ice": 6123,
      "Sof": 6124,
      "bee": 6125,
      "Ġaat": 6126,
      "ĠoIf": 6127,
      "ĠrC": 6128,
      "Ġdir": 6129,
      "elnt": 6130,
      "thre": 6131,
      "ribut": 6132,
      "Ġstre": 6133,
      "unl": 6134,
      "ĠJon": 6135,
      "Ġbefor": 6136,
      "ebs": 6137,
      "Ġable": 6138,
      "aily": 6139,
      "Ġgoing": 6140,
      "wards": 6141,
      "Fa": 6142,
      "Ile": 6143,
      "dad": 6144,
      "fb": 6145,
      "ike": 6146,
      "mem": 6147,
      "nar": 6148,
      "nee": 6149,
      "rug": 6150,
      "uits": 6151,
      "Ġtil": 6152,
      "inve": 6153,
      "Ġsand": 6154,
      "anch": 6155,
      "orer": 6156,
      "Ġrld": 6157,
      "Ġcof": 6158,
      "etary": 6159,
      "ĠIof": 6160,
      "ĠArt": 6161,
      "ĠManc": 6162,
      "ouch": 6163,
      "ĠWork": 6164,
      "ĠFer": 6165,
      "Ġfori": 6166,
      "Ġita": 6167,
      "iance": 6168,
      "Ġwithd": 6169,
      "Dav": 6170,
      "War": 6171,
      "det": 6172,
      "ĠcO": 6173,
      "Ġett": 6174,
      "stock": 6175,
      "Ġham": 6176,
      "ĠCisco": 6177,
      "ĠMat": 6178,
      "ĠPet": 6179,
      "Ġang": 6180,
      "ĠGames": 6181,
      "Ġforr": 6182,
      "unit": 6183,
      "ivs": 6184,
      "Ġseen": 6185,
      "Ġ2003": 6186,
      "ĠMonda": 6187,
      "45": 6188,
      "Dow": 6189,
      "IBM": 6190,
      "Ja": 6191,
      "cli": 6192,
      "Ġtnd": 6193,
      "Ġocc": 6194,
      "Ġcru": 6195,
      "ingn": 6196,
      "ĠAre": 6197,
      "ĠTre": 6198,
      "thc": 6199,
      "ntry": 6200,
      "ioan": 6201,
      "Ġatl": 6202,
      "ĠKore": 6203,
      "Ġera": 6204,
      "Ġprop": 6205,
      "Ġunion": 6206,
      "Ġ900": 6207,
      "ĠResearch": 6208,
      "ĠSeries": 6209,
      "Gu": 6210,
      "pace": 6211,
      "Ġsion": 6212,
      "ĠrP": 6213,
      "Ġech": 6214,
      "Ġwent": 6215,
      "assi": 6216,
      "urch": 6217,
      "ĠMont": 6218,
      "acti": 6219,
      "ĠRog": 6220,
      "imat": 6221,
      "ĠHR": 6222,
      "sem": 6223,
      "Ġhee": 6224,
      "aik": 6225,
      "Ġaccording": 6226,
      "\",": 6227,
      "bp": 6228,
      "hv": 6229,
      "sel": 6230,
      "stl": 6231,
      "Ġhv": 6232,
      "Ġhip": 6233,
      "Ġmc": 6234,
      "ĠArg": 6235,
      "ĠCos": 6236,
      "otf": 6237,
      "oment": 6238,
      "ĠMars": 6239,
      "amt": 6240,
      "ĠLO": 6241,
      "bey": 6242,
      "ĠKor": 6243,
      "eph": 6244,
      "oves": 6245,
      "Ġconv": 6246,
      "Ġarmy": 6247,
      "Ġalnd": 6248,
      "iby": 6249,
      "Ġwiith": 6250,
      "ounds": 6251,
      "23": 6252,
      "FI": 6253,
      "bot": 6254,
      "eon": 6255,
      "sai": 6256,
      "Ġ!": 6257,
      "Ġaver": 6258,
      "uted": 6259,
      "ĠAh": 6260,
      "ĠAbu": 6261,
      "idr": 6262,
      "omo": 6263,
      "ĠPu": 6264,
      "ĠBI": 6265,
      "vea": 6266,
      "ĠNik": 6267,
      "Ġread": 6268,
      "lav": 6269,
      "Ġoffe": 6270,
      "ĠIndi": 6271,
      "Ġleaders": 6272,
      "Ġrelease": 6273,
      "bea": 6274,
      "iT": 6275,
      "lA": 6276,
      "nS": 6277,
      "soft": 6278,
      "Ġibs": 6279,
      "Ġlli": 6280,
      "Ġlib": 6281,
      "ĠnA": 6282,
      "Ġnnd": 6283,
      "Ġwis": 6284,
      "Ġdraw": 6285,
      "icide": 6286,
      "ĠTony": 6287,
      "otes": 6288,
      "acing": 6289,
      "ĠBn": 6290,
      "imm": 6291,
      "ĠHold": 6292,
      "search": 6293,
      "Ġbegan": 6294,
      "ums": 6295,
      "Ġprogram": 6296,
      "Ġorgan": 6297,
      "Ġadm": 6298,
      "erty": 6299,
      "Ġbetter": 6300,
      "Ġstrike": 6301,
      "ĠAustralia": 6302,
      "BO": 6303,
      "Ite": 6304,
      "NS": 6305,
      "Ret": 6306,
      "gal": 6307,
      "serv": 6308,
      "erp": 6309,
      "eny": 6310,
      "Ġfb": 6311,
      "Ġeand": 6312,
      "Ġnas": 6313,
      "ĠIp": 6314,
      "Ġthin": 6315,
      "olv": 6316,
      "Ġank": 6317,
      "Ġanot": 6318,
      "ĠOw": 6319,
      "ĠGM": 6320,
      "Ġisi": 6321,
      "Ġsched": 6322,
      "Ġsuff": 6323,
      "Ġantd": 6324,
      "Ine": 6325,
      "cus": 6326,
      "tak": 6327,
      "uir": 6328,
      "Ġaend": 6329,
      "Ġsre": 6330,
      "Ġsut": 6331,
      "Ġrain": 6332,
      "arth": 6333,
      "ĠlO": 6334,
      "Ġlig": 6335,
      "ĠAG": 6336,
      "ĠCO": 6337,
      "oui": 6338,
      "ĠBos": 6339,
      "tsh": 6340,
      "Ġult": 6341,
      "ĠDod": 6342,
      "iast": 6343,
      "ĠLong": 6344,
      "Ġstudy": 6345,
      "Ġexec": 6346,
      "afe": 6347,
      "rgan": 6348,
      "Ġcoul": 6349,
      "ĠDrug": 6350,
      "ĠBlair": 6351,
      "hree": 6352,
      "uly": 6353,
      "ĠtL": 6354,
      "Ġfly": 6355,
      "roc": 6356,
      "utive": 6357,
      "ĠAct": 6358,
      "ĠTOR": 6359,
      "oses": 6360,
      "Ġasi": 6361,
      "esses": 6362,
      "ĠSpa": 6363,
      "ĠAfgh": 6364,
      "Ġremain": 6365,
      "ĠFlorida": 6366,
      "Cent": 6367,
      "Ior": 6368,
      "LS": 6369,
      "Wor": 6370,
      "bank": 6371,
      "dal": 6372,
      "fes": 6373,
      "iec": 6374,
      "inog": 6375,
      "onday": 6376,
      "ĠiE": 6377,
      "Ġiits": 6378,
      "Ġrce": 6379,
      "Ġfto": 6380,
      "Ġnei": 6381,
      "Ġnetwork": 6382,
      "ural": 6383,
      "ĠCel": 6384,
      "ached": 6385,
      "ouble": 6386,
      "ĠBal": 6387,
      "ĠBry": 6388,
      "ĠNL": 6389,
      "ĠNt": 6390,
      "ĠFour": 6391,
      "Ġvir": 6392,
      "img": 6393,
      "Ġ,'": 6394,
      "eport": 6395,
      "bles": 6396,
      "percent": 6397,
      "buy": 6398,
      "ĠGoog": 6399,
      "ĠAugust": 6400,
      "Nt": 6401,
      "Vo": 6402,
      "mf": 6403,
      "sea": 6404,
      "Ġ?": 6405,
      "onv": 6406,
      "Ġrne": 6407,
      "Ġlal": 6408,
      "Ġbatt": 6409,
      "Ġpack": 6410,
      "ĠSit": 6411,
      "ĠSci": 6412,
      "Ġtheh": 6413,
      "rodu": 6414,
      "ĠAOL": 6415,
      "igl": 6416,
      "ĠRea": 6417,
      "ĠJones": 6418,
      "Ġchan": 6419,
      "Ġchange": 6420,
      "endi": 6421,
      "Ġarea": 6422,
      "Ġroad": 6423,
      "ĠForm": 6424,
      "Bt": 6425,
      "Ya": 6426,
      "iC": 6427,
      "rne": 6428,
      "Ġliv": 6429,
      "Ġmass": 6430,
      "Ġmoney": 6431,
      "rag": 6432,
      "iive": 6433,
      "Ġdisp": 6434,
      "Ġexpec": 6435,
      "Ġmaking": 6436,
      "ujah": 6437,
      "Ġdrive": 6438,
      "ĠEarth": 6439,
      "86": 6440,
      "jt": 6441,
      "well": 6442,
      "inz": 6443,
      "Ġaes": 6444,
      "Ġary": 6445,
      "Ġauthor": 6446,
      "atest": 6447,
      "Ġwed": 6448,
      "Ġwth": 6449,
      "Ġdriv": 6450,
      "Ġtown": 6451,
      "reu": 6452,
      "ĠTig": 6453,
      "ĠPn": 6454,
      "ĠPort": 6455,
      "ĠNational": 6456,
      "ĠRise": 6457,
      "owa": 6458,
      "owi": 6459,
      "rsi": 6460,
      "Ġenc": 6461,
      "assy": 6462,
      "porate": 6463,
      "ĠSecurity": 6464,
      "ĠFeder": 6465,
      "Ġsuccess": 6466,
      "Cor": 6467,
      "GE": 6468,
      "PS": 6469,
      "Tt": 6470,
      "Ul": 6471,
      "lish": 6472,
      "Ġsir": 6473,
      "Ġcrow": 6474,
      "itions": 6475,
      "Ġtool": 6476,
      "olut": 6477,
      "igan": 6478,
      "rage": 6479,
      "ĠEt": 6480,
      "Ġforc": 6481,
      "rying": 6482,
      "Ġprovid": 6483,
      "Ity": 6484,
      "Ġ64": 6485,
      "ĠAsian": 6486,
      "ĠFormer": 6487,
      "Ġavail": 6488,
      "ĠCanada": 6489,
      "ĠTOKYO": 6490,
      "Ġsettle": 6491,
      "ĠMSN": 6492,
      "Sunday": 6493,
      "Ver": 6494,
      "hard": 6495,
      "rank": 6496,
      "inIg": 6497,
      "Ġaas": 6498,
      "Ġios": 6499,
      "ĠrO": 6500,
      "ĠTt": 6501,
      "ĠPor": 6502,
      "iek": 6503,
      "thing": 6504,
      "ĠFord": 6505,
      "Ġvl": 6506,
      "Ġvery": 6507,
      "ĠHit": 6508,
      "una": 6509,
      "agement": 6510,
      "oded": 6511,
      "upp": 6512,
      "Ġleas": 6513,
      "ĠPeop": 6514,
      "ELES": 6515,
      "Update": 6516,
      "HP": 6517,
      "IO": 6518,
      "Pak": 6519,
      "bill": 6520,
      "hte": 6521,
      "Ġaen": 6522,
      "erI": 6523,
      "anti": 6524,
      "Ġlight": 6525,
      "Ġpc": 6526,
      "Ġmort": 6527,
      "roy": 6528,
      "rope": 6529,
      "rect": 6530,
      "ĠANG": 6531,
      "acn": 6532,
      "amn": 6533,
      "ntt": 6534,
      "ĠDie": 6535,
      "ioen": 6536,
      "liv": 6537,
      "abo": 6538,
      "efe": 6539,
      "eba": 6540,
      "unds": 6541,
      "Ġrole": 6542,
      "Ġxp": 6543,
      "Ġlikely": 6544,
      "eut": 6545,
      "xes": 6546,
      "Ġtei": 6547,
      "inch": 6548,
      "ĠaM": 6549,
      "Ġaet": 6550,
      "ĠrT": 6551,
      "Ġrid": 6552,
      "Ġrov": 6553,
      "ĠlW": 6554,
      "Ġtheb": 6555,
      "irk": 6556,
      "adv": 6557,
      "ĠDiv": 6558,
      "imo": 6559,
      "Ġstay": 6560,
      "lted": 6561,
      "Ġhei": 6562,
      "Ġert": 6563,
      "Ġshi": 6564,
      "ĠThree": 6565,
      "cker": 6566,
      "ralian": 6567,
      "awa": 6568,
      "ĠPresid": 6569,
      "ĠBlue": 6570,
      "ĠMotor": 6571,
      "ĠDepart": 6572,
      "400": 6573,
      "Ac": 6574,
      "bw": 6575,
      "dv": 6576,
      "group": 6577,
      "rw": 6578,
      "Ġslo": 6579,
      "Ġics": 6580,
      "ority": 6581,
      "Ġrates": 6582,
      "ĠeP": 6583,
      "Ġwha": 6584,
      "Ġhir": 6585,
      "Ġhle": 6586,
      "ĠMill": 6587,
      "amil": 6588,
      "ĠFore": 6589,
      "Ġanda": 6590,
      "ĠEv": 6591,
      "Ġash": 6592,
      "live": 6593,
      "force": 6594,
      "iial": 6595,
      "ially": 6596,
      "Ġreco": 6597,
      "ettle": 6598,
      "Ġearn": 6599,
      "idential": 6600,
      "Ġelec": 6601,
      "ĠWhite": 6602,
      "But": 6603,
      "Bay": 6604,
      "Che": 6605,
      "CAR": 6606,
      "face": 6607,
      "nas": 6608,
      "pac": 6609,
      "tch": 6610,
      "Ġseri": 6611,
      "ĠiG": 6612,
      "aten": 6613,
      "Ġwoul": 6614,
      "Ġhil": 6615,
      "Ġmea": 6616,
      "ĠSearch": 6617,
      "rose": 6618,
      "reb": 6619,
      "Ġono": 6620,
      "third": 6621,
      "ĠWel": 6622,
      "rime": 6623,
      "ceed": 6624,
      "ĠLt": 6625,
      "Ġstore": 6626,
      "aving": 6627,
      "Ġscient": 6628,
      "Ġservices": 6629,
      "Ġsoftw": 6630,
      "ĠTokyo": 6631,
      "DON": 6632,
      "Ly": 6633,
      "hut": 6634,
      "ool": 6635,
      "rhe": 6636,
      "sor": 6637,
      "tol": 6638,
      "zuel": 6639,
      "Ġake": 6640,
      "erk": 6641,
      "Ġwf": 6642,
      "Ġpick": 6643,
      "idg": 6644,
      "ĠMP": 6645,
      "igit": 6646,
      "iov": 6647,
      "Ġstake": 6648,
      "anded": 6649,
      "Ġattemp": 6650,
      "vere": 6651,
      "Ġasn": 6652,
      "odi": 6653,
      "loe": 6654,
      "ationa": 6655,
      "Ġchall": 6656,
      "Ġ;/": 6657,
      "Ġrisk": 6658,
      "ĠEgypt": 6659,
      "cow": 6660,
      "fre": 6661,
      "lse": 6662,
      "mill": 6663,
      "qa": 6664,
      "Ġschool": 6665,
      "atie": 6666,
      "Ġeam": 6667,
      "Ġbb": 6668,
      "Ġpitch": 6669,
      "Ġhm": 6670,
      "Ġhre": 6671,
      "issi": 6672,
      "etic": 6673,
      "ĠTec": 6674,
      "Ġgia": 6675,
      "ĠPut": 6676,
      "ĠPos": 6677,
      "ourn": 6678,
      "outs": 6679,
      "Ġagency": 6680,
      "clos": 6681,
      "Ġcomput": 6682,
      "atien": 6683,
      "wser": 6684,
      "Quo": 6685,
      "anium": 6686,
      "ĠSecret": 6687,
      "ĠPakist": 6688,
      "65": 6689,
      "LI": 6690,
      "VER": 6691,
      "fac": 6692,
      "hou": 6693,
      "iny": 6694,
      "erns": 6695,
      "ĠsT": 6696,
      "Ġsac": 6697,
      "Ġict": 6698,
      "ĠrM": 6699,
      "ĠlD": 6700,
      "itie": 6701,
      "Ġwrit": 6702,
      "Ġhosp": 6703,
      "Ġmur": 6704,
      "ĠBomb": 6705,
      "ĠWins": 6706,
      "ĠHas": 6707,
      "Ġready": 6708,
      "need": 6709,
      "Ġprog": 6710,
      "Ġwithout": 6711,
      "Ġearnings": 6712,
      "Ġappear": 6713,
      "ĠGrand": 6714,
      "Ġmarke": 6715,
      "ĠSatu": 6716,
      "ĠOctober": 6717,
      "Ful": 6718,
      "San": 6719,
      "fan": 6720,
      "gainst": 6721,
      "hom": 6722,
      "million": 6723,
      "Ġfla": 6724,
      "alc": 6725,
      "Ġnie": 6726,
      "Ġhund": 6727,
      "ĠIll": 6728,
      "urer": 6729,
      "ĠBlu": 6730,
      "ĠFI": 6731,
      "rif": 6732,
      "near": 6733,
      "lsi": 6734,
      "Ġprogr": 6735,
      "ĠInto": 6736,
      "ĠFrida": 6737,
      "Ġresults": 6738,
      "ORE": 6739,
      "xpected": 6740,
      "Ġeconom": 6741,
      "Ft": 6742,
      "GM": 6743,
      "iil": 6744,
      "ĠaT": 6745,
      "orf": 6746,
      "star": 6747,
      "Ġwants": 6748,
      "isI": 6749,
      "eling": 6750,
      "rown": 6751,
      "ĠCat": 6752,
      "ĠPart": 6753,
      "ĠWay": 6754,
      "ĠHis": 6755,
      "illy": 6756,
      "lobal": 6757,
      "efs": 6758,
      "Ġpros": 6759,
      "aeh": 6760,
      "ebt": 6761,
      "Ġspot": 6762,
      "ĠIsr": 6763,
      "prov": 6764,
      "Ġftor": 6765,
      "Ġpresid": 6766,
      "Ġyesterd": 6767,
      "Aa": 6768,
      "aud": 6769,
      "lil": 6770,
      "rry": 6771,
      "ĠaA": 6772,
      "Ġsource": 6773,
      "Ġiut": 6774,
      "Ġibe": 6775,
      "ĠnC": 6776,
      "ayers": 6777,
      "ĠHus": 6778,
      "ĠLOS": 6779,
      "Ġbey": 6780,
      "rges": 6781,
      "Ġsaying": 6782,
      "Ġkilling": 6783,
      "opean": 6784,
      "fullquote": 6785,
      "Ġwlth": 6786,
      "Bag": 6787,
      "\\-": 6788,
      "eit": 6789,
      "fire": 6790,
      "half": 6791,
      "ji": 6792,
      "pit": 6793,
      "she": 6794,
      "Ġads": 6795,
      "Ġoar": 6796,
      "Ġiol": 6797,
      "Ġcod": 6798,
      "ĠlN": 6799,
      "Ġlock": 6800,
      "Ġfai": 6801,
      "Ġpes": 6802,
      "Ġpll": 6803,
      "iced": 6804,
      "roo": 6805,
      "ĠHat": 6806,
      "uced": 6807,
      "ĠYank": 6808,
      "Ġaln": 6809,
      "Ġdoes": 6810,
      "ĠMiami": 6811,
      "ĠBritain": 6812,
      "ilitary": 6813,
      "Out": 6814,
      "Ue": 6815,
      "VI": 6816,
      "mont": 6817,
      "wat": 6818,
      "Ġ=": 6819,
      "Ġaction": 6820,
      "Ġsic": 6821,
      "Ġrus": 6822,
      "Ġroll": 6823,
      "Ġpel": 6824,
      "Ġmee": 6825,
      "tock": 6826,
      "ĠRee": 6827,
      "ĠĠĠĠ": 6828,
      "Ġsail": 6829,
      "ĠFran": 6830,
      "ĠMike": 6831,
      "Ġwarned": 6832,
      "Ġregul": 6833,
      "ĠYankees": 6834,
      "47": 6835,
      "Iat": 6836,
      "Iit": 6837,
      "PM": 6838,
      "cst": 6839,
      "hir": 6840,
      "sho": 6841,
      "env": 6842,
      "adel": 6843,
      "ĠBowl": 6844,
      "iav": 6845,
      "ĠOv": 6846,
      "imn": 6847,
      "ĠEnt": 6848,
      "ĠHea": 6849,
      "ltd": 6850,
      "ockey": 6851,
      "Ġarrest": 6852,
      "ĠYor": 6853,
      "ĠYear": 6854,
      "Ġjudge": 6855,
      "afte": 6856,
      "Ġspam": 6857,
      "dsy": 6858,
      "ault": 6859,
      "ealth": 6860,
      "Ġcalls": 6861,
      "espite": 6862,
      "'\"": 6863,
      "hib": 6864,
      "iof": 6865,
      "lio": 6866,
      "sol": 6867,
      "vices": 6868,
      "Ġcin": 6869,
      "Ġlose": 6870,
      "Ġpio": 6871,
      "Ġhus": 6872,
      "urc": 6873,
      "otb": 6874,
      "ented": 6875,
      "ĠRs": 6876,
      "iaon": 6877,
      "chang": 6878,
      "thee": 6879,
      "appe": 6880,
      "ateg": 6881,
      "Ġresearch": 6882,
      "Ġcrude": 6883,
      "Ġovers": 6884,
      "Ġmakes": 6885,
      "cerns": 6886,
      "01": 6887,
      "Ien": 6888,
      "Iar": 6889,
      "Uni": 6890,
      "hng": 6891,
      "iie": 6892,
      "lid": 6893,
      "pass": 6894,
      "eres": 6895,
      "Ġole": 6896,
      "Ġrday": 6897,
      "Ġlion": 6898,
      "Ġbto": 6899,
      "Ġprt": 6900,
      "Ġinb": 6901,
      "idel": 6902,
      "ĠCot": 6903,
      "ĠCounc": 6904,
      "ĠMO": 6905,
      "ĠMem": 6906,
      "ĠNY": 6907,
      "iain": 6908,
      "ĠOak": 6909,
      "ltl": 6910,
      "Ġheart": 6911,
      "eman": 6912,
      "ctors": 6913,
      "Ġisl": 6914,
      "lsh": 6915,
      "Ġker": 6916,
      "abil": 6917,
      "udan": 6918,
      "Ġwhil": 6919,
      "Ġould": 6920,
      "Ġphon": 6921,
      "Frid": 6922,
      "Ġcapital": 6923,
      "ĠGreen": 6924,
      "Ġoppos": 6925,
      "Ġversion": 6926,
      "Iay": 6927,
      "TT": 6928,
      "eam": 6929,
      "Ġtae": 6930,
      "Ġsad": 6931,
      "Ġfie": 6932,
      "ingo": 6933,
      "Ġtoll": 6934,
      "omn": 6935,
      "ĠEm": 6936,
      "epe": 6937,
      "Ġesday": 6938,
      "rda": 6939,
      "Ġsecon": 6940,
      "Ġmeas": 6941,
      "board": 6942,
      "ĠAdv": 6943,
      "ĠAssoc": 6944,
      "ĠLouis": 6945,
      "AH": 6946,
      "Ab": 6947,
      "Fe": 6948,
      "fal": 6949,
      "hw": 6950,
      "jury": 6951,
      "pers": 6952,
      "tet": 6953,
      "uil": 6954,
      "Ġsnt": 6955,
      "Ġrar": 6956,
      "edit": 6957,
      "Ġcanc": 6958,
      "ĠlH": 6959,
      "Ġfact": 6960,
      "Ġete": 6961,
      "Ġnch": 6962,
      "Ġwes": 6963,
      "ecn": 6964,
      "ĠReds": 6965,
      "ĠDam": 6966,
      "Ġview": 6967,
      "ĠGat": 6968,
      "loa": 6969,
      "uln": 6970,
      "ucts": 6971,
      "Ġsees": 6972,
      "Ġacross": 6973,
      "indows": 6974,
      "Ġpercen": 6975,
      "ience": 6976,
      "ĠExpl": 6977,
      "Ġindust": 6978,
      "Ġeek": 6979,
      "Ġsurv": 6980,
      "Ġruns": 6981,
      "Ġtaking": 6982,
      "Ġsoftwar": 6983,
      "DAY": 6984,
      "ĠATHENS": 6985,
      "41": 6986,
      ";;": 6987,
      "Bs": 6988,
      "Cu": 6989,
      "git": 6990,
      "Ġtac": 6991,
      "Ġtack": 6992,
      "Ġries": 6993,
      "Ġlla": 6994,
      "Ġeil": 6995,
      "aling": 6996,
      "Ġband": 6997,
      "Ġwild": 6998,
      "icle": 6999,
      "elect": 7000,
      "ĠCra": 7001,
      "Ġofd": 7002,
      "ecom": 7003,
      "Ġgains": 7004,
      "ĠNev": 7005,
      "Ġande": 7006,
      "Ġvan": 7007,
      "vera": 7008,
      "ĠKill": 7009,
      "uds": 7010,
      "Ġjump": 7011,
      "Ġlau": 7012,
      "Ġcompet": 7013,
      "nron": 7014,
      "Ġworkers": 7015,
      "Ġfiled": 7016,
      "ĠFederal": 7017,
      "ĠMicrosof": 7018,
      "Open": 7019,
      "aan": 7020,
      "bia": 7021,
      "jur": 7022,
      "kill": 7023,
      "ĠaB": 7024,
      "Ġaimed": 7025,
      "Ġsets": 7026,
      "anks": 7027,
      "orte": 7028,
      "Ġcoi": 7029,
      "Ġntr": 7030,
      "Ġbase": 7031,
      "Ġpace": 7032,
      "ĠSem": 7033,
      "ĠIne": 7034,
      "ayi": 7035,
      "leo": 7036,
      "ĠWhe": 7037,
      "ĠWes": 7038,
      "Ġanno": 7039,
      "ĠHost": 7040,
      "ĠLon": 7041,
      "sey": 7042,
      "anted": 7043,
      "Ġscored": 7044,
      "Ġshowed": 7045,
      "Ġposted": 7046,
      "ĠDavis": 7047,
      ".--": 7048,
      "FA": 7049,
      "nng": 7050,
      "uge": 7051,
      "ĠtH": 7052,
      "Ġtvo": 7053,
      "Ġaed": 7054,
      "Ġfea": 7055,
      "Ġease": 7056,
      "etor": 7057,
      "roa": 7058,
      "leas": 7059,
      "otor": 7060,
      "Ġthh": 7061,
      "Ġges": 7062,
      "tso": 7063,
      "igital": 7064,
      "iean": 7065,
      "ĠNati": 7066,
      "ĠRam": 7067,
      "iap": 7068,
      "ĠGov": 7069,
      "ĠExt": 7070,
      "lii": 7071,
      "Ġitr": 7072,
      "Ġsaw": 7073,
      "elling": 7074,
      "rned": 7075,
      "ĠReute": 7076,
      "ishing": 7077,
      "ĠAfrica": 7078,
      "Ġbecome": 7079,
      "ĠTrade": 7080,
      "Ġfollow": 7081,
      "ĠAthens": 7082,
      "Ke": 7083,
      "Qa": 7084,
      "Ser": 7085,
      "aim": 7086,
      "wid": 7087,
      "inb": 7088,
      "Ġspl": 7089,
      "Ġobs": 7090,
      "Ġihn": 7091,
      "Ġnre": 7092,
      "Ġbody": 7093,
      "stoc": 7094,
      "Ġpb": 7095,
      "Ġped": 7096,
      "Ġdhe": 7097,
      "Ġdest": 7098,
      "isf": 7099,
      "ĠSus": 7100,
      "utn": 7101,
      "ĠCen": 7102,
      "ĠPir": 7103,
      "ĠBat": 7104,
      "ĠNiger": 7105,
      "ĠHome": 7106,
      "ĠLu": 7107,
      "ĠVI": 7108,
      "uster": 7109,
      "nese": 7110,
      "Ġevent": 7111,
      "Ġdefe": 7112,
      "ACE": 7113,
      "Au": 7114,
      "DI": 7115,
      "Pack": 7116,
      "Rus": 7117,
      "Sec": 7118,
      "pet": 7119,
      "inat": 7120,
      "Ġsouth": 7121,
      "ĠiJ": 7122,
      "Ġlte": 7123,
      "Ġlfor": 7124,
      "Ġlittle": 7125,
      "Ġbased": 7126,
      "urned": 7127,
      "otd": 7128,
      "ĠDet": 7129,
      "cem": 7130,
      "Ġhealth": 7131,
      "odd": 7132,
      "loi": 7133,
      "ĠKash": 7134,
      "efi": 7135,
      "ucl": 7136,
      "Ġteams": 7137,
      "shar": 7138,
      "ernment": 7139,
      "roso": 7140,
      "Ġ500": 7141,
      "ĠItaly": 7142,
      "ĠTeam": 7143,
      "COW": 7144,
      "Ġgrou": 7145,
      "Hi": 7146,
      "hop": 7147,
      "jay": 7148,
      "vp": 7149,
      "Ġtbo": 7150,
      "inee": 7151,
      "Ġsue": 7152,
      "Ġrank": 7153,
      "Ġefor": 7154,
      "Ġhto": 7155,
      "ilan": 7156,
      "ĠIE": 7157,
      "ĠAma": 7158,
      "ĠMen": 7159,
      "thl": 7160,
      "ĠWhat": 7161,
      "ĠFt": 7162,
      "ĠUl": 7163,
      "Ġandn": 7164,
      "Ġvas": 7165,
      "andal": 7166,
      "aies": 7167,
      "Ġitl": 7168,
      "lsea": 7169,
      "Ġkid": 7170,
      "abt": 7171,
      "Ġarg": 7172,
      "ffe": 7173,
      "daay": 7174,
      "Ġ400": 7175,
      "Ġterm": 7176,
      "diay": 7177,
      "Ġmanager": 7178,
      "BER": 7179,
      "Va": 7180,
      "Ws": 7181,
      "bly": 7182,
      "nea": 7183,
      "qs": 7184,
      "ensi": 7185,
      "Ġnen": 7186,
      "olution": 7187,
      "aca": 7188,
      "ership": 7189,
      "Ġaned": 7190,
      "Ġyards": 7191,
      "seas": 7192,
      "aip": 7193,
      "lost": 7194,
      "ither": 7195,
      "Ġorld": 7196,
      "Ġcharges": 7197,
      "Ġese": 7198,
      "Ġfood": 7199,
      "ĠUnivers": 7200,
      "Ġmeeting": 7201,
      "Ġflor": 7202,
      "record": 7203,
      "TC": 7204,
      "jan": 7205,
      "nec": 7206,
      "sat": 7207,
      "Ġtions": 7208,
      "Ġabe": 7209,
      "hester": 7210,
      "Ġrip": 7211,
      "Ġful": 7212,
      "Ġeig": 7213,
      "Ġblast": 7214,
      "Ġdan": 7215,
      "Ġmach": 7216,
      "ĠSor": 7217,
      "ĠSir": 7218,
      "Ġintr": 7219,
      "Ġincr": 7220,
      "ĠMini": 7221,
      "Ġonc": 7222,
      "ĠRos": 7223,
      "ntl": 7224,
      "iao": 7225,
      "ĠEi": 7226,
      "Ġstu": 7227,
      "Ġasl": 7228,
      "ovn": 7229,
      "Ġplat": 7230,
      "plans": 7231,
      "ĠCoast": 7232,
      "Ġperce": 7233,
      "India": 7234,
      "Jap": 7235,
      "Ui": 7236,
      "iion": 7237,
      "lO": 7238,
      "oat": 7239,
      "Ġtab": 7240,
      "Ġlad": 7241,
      "Ġeigh": 7242,
      "alys": 7243,
      "Ġnec": 7244,
      "stat": 7245,
      "state": 7246,
      "Ġpf": 7247,
      "Ġdidn": 7248,
      "Ġinform": 7249,
      "Ġthous": 7250,
      "entt": 7251,
      "nty": 7252,
      "ĠLast": 7253,
      "nger": 7254,
      "Ġtrack": 7255,
      "Ġpeopl": 7256,
      "Iran": 7257,
      "Ġphones": 7258,
      "uja": 7259,
      "31": 7260,
      "Iss": 7261,
      "aen": 7262,
      "fie": 7263,
      "nie": 7264,
      "uen": 7265,
      "init": 7266,
      "ĠoE": 7267,
      "oned": 7268,
      "Ġrally": 7269,
      "Ġhts": 7270,
      "Ġmir": 7271,
      "ĠSv": 7272,
      "uture": 7273,
      "idge": 7274,
      "ando": 7275,
      "Ġheat": 7276,
      "iple": 7277,
      "ably": 7278,
      "tihe": 7279,
      "omputer": 7280,
      "iber": 7281,
      "sterday": 7282,
      "Ġdebt": 7283,
      "Group": 7284,
      "Sep": 7285,
      "dog": 7286,
      "Ġtun": 7287,
      "Ġtla": 7288,
      "Ġaer": 7289,
      "aron": 7290,
      "itish": 7291,
      "start": 7292,
      "rofit": 7293,
      "Ġtoward": 7294,
      "idate": 7295,
      "Ġthose": 7296,
      "ĠMet": 7297,
      "acu": 7298,
      "ĠPI": 7299,
      "iep": 7300,
      "osion": 7301,
      "ĠFu": 7302,
      "ltr": 7303,
      "ĠJoe": 7304,
      "lood": 7305,
      "Ġshop": 7306,
      "Ġork": 7307,
      "Ġfinanc": 7308,
      "itting": 7309,
      "Ġtaken": 7310,
      "Ġrule": 7311,
      "Ġtechnology": 7312,
      "46": 7313,
      "95": 7314,
      "pea": 7315,
      "tthe": 7316,
      "Ġced": 7317,
      "Ġcreat": 7318,
      "Ġlly": 7319,
      "itb": 7320,
      "Ġpul": 7321,
      "Ġhous": 7322,
      "Ġofh": 7323,
      "oters": 7324,
      "olm": 7325,
      "ĠPAR": 7326,
      "ĠWl": 7327,
      "ĠNO": 7328,
      "ĠNob": 7329,
      "Ġvie": 7330,
      "nex": 7331,
      "Ġask": 7332,
      "akers": 7333,
      "Ġseve": 7334,
      "ampa": 7335,
      "coming": 7336,
      "blic": 7337,
      "Ġuser": 7338,
      "elease": 7339,
      "ennis": 7340,
      "ĠSecur": 7341,
      "Ġhelped": 7342,
      "ĠCHIC": 7343,
      "John": 7344,
      "Ġfraud": 7345,
      "Aug": 7346,
      "Iet": 7347,
      "Rt": 7348,
      "Str": 7349,
      "bie": 7350,
      "cw": 7351,
      "gat": 7352,
      "nw": 7353,
      "nle": 7354,
      "pay": 7355,
      "sal": 7356,
      "var": 7357,
      "Ġound": 7358,
      "anv": 7359,
      "Ġfm": 7360,
      "Ġfee": 7361,
      "Ġpm": 7362,
      "Ġhour": 7363,
      "ether": 7364,
      "asse": 7365,
      "urns": 7366,
      "aches": 7367,
      "ntern": 7368,
      "ĠEc": 7369,
      "ellite": 7370,
      "rict": 7371,
      "Ġengine": 7372,
      "&.": 7373,
      "Ive": 7374,
      "MA": 7375,
      "Win": 7376,
      "dle": 7377,
      "rre": 7378,
      "rity": 7379,
      "yI": 7380,
      "zes": 7381,
      "Ġoust": 7382,
      "Ġock": 7383,
      "itary": 7384,
      "Ġbed": 7385,
      "Ġbird": 7386,
      "Ġwae": 7387,
      "ication": 7388,
      "ĠSk": 7389,
      "ĠMae": 7390,
      "ĠBre": 7391,
      "ĠBid": 7392,
      "tocks": 7393,
      "ention": 7394,
      "Ġvin": 7395,
      "Ġvill": 7396,
      "Ġsave": 7397,
      "ooe": 7398,
      "haw": 7399,
      "Ġteh": 7400,
      "Ġcontract": 7401,
      "Ġexe": 7402,
      "Ġjud": 7403,
      "coa": 7404,
      "Ġapplic": 7405,
      "Don": 7406,
      "Wn": 7407,
      "fel": 7408,
      "pc": 7409,
      "pic": 7410,
      "sof": 7411,
      "ĠtG": 7412,
      "Ġtfor": 7413,
      "Ġtep": 7414,
      "iner": 7415,
      "ĠoIn": 7416,
      "Ġiil": 7417,
      "Ġief": 7418,
      "Ġrigh": 7419,
      "ature": 7420,
      "Ġcab": 7421,
      "Ġlac": 7422,
      "Ġlob": 7423,
      "stn": 7424,
      "ĠFar": 7425,
      "rii": 7426,
      "Ġvith": 7427,
      "chan": 7428,
      "eag": 7429,
      "Ġatr": 7430,
      "tere": 7431,
      "enda": 7432,
      "Ġrais": 7433,
      "Ġaccess": 7434,
      "Inter": 7435,
      "ITY": 7436,
      "Ġsigned": 7437,
      "Ġissue": 7438,
      ";:": 7439,
      "CL": 7440,
      "Eu": 7441,
      "Oo": 7442,
      "Ru": 7443,
      "Tl": 7444,
      "brs": 7445,
      "pat": 7446,
      "zs": 7447,
      "inia": 7448,
      "ĠaL": 7449,
      "Ġoro": 7450,
      "Ġots": 7451,
      "ener": 7452,
      "Ġcir": 7453,
      "Ġdei": 7454,
      "icb": 7455,
      "Ġmh": 7456,
      "olu": 7457,
      "ĠMel": 7458,
      "ĠBil": 7459,
      "ĠBeij": 7460,
      "ĠWs": 7461,
      "ĠWir": 7462,
      "ĠWorl": 7463,
      "ĠEcon": 7464,
      "nev": 7465,
      "odn": 7466,
      "Ġwhy": 7467,
      "offs": 7468,
      "firmed": 7469,
      "minist": 7470,
      "Ġfocus": 7471,
      "ĠLondon": 7472,
      "Nas": 7473,
      "jects": 7474,
      "kto": 7475,
      "rent": 7476,
      "what": 7477,
      "Ġax": 7478,
      "Ġael": 7479,
      "Ġili": 7480,
      "orv": 7481,
      "enes": 7482,
      "Ġfolr": 7483,
      "ĠeW": 7484,
      "Ġboss": 7485,
      "Ġwc": 7486,
      "ĠSel": 7487,
      "urth": 7488,
      "ĠCli": 7489,
      "Ġthou": 7490,
      "olice": 7491,
      "ĠMd": 7492,
      "Ġ,.": 7493,
      "ĠHRE": 7494,
      "agre": 7495,
      "terday": 7496,
      "Ġasa": 7497,
      "aken": 7498,
      "odr": 7499,
      "umn": 7500,
      "evi": 7501,
      "ĠInf": 7502,
      "rnment": 7503,
      "ONTO": 7504,
      "prof": 7505,
      "Ġincreas": 7506,
      "ĠUpdate": 7507,
      "ĠPCs": 7508,
      "Ġreleas": 7509,
      "Ġblock": 7510,
      "48": 7511,
      "count": 7512,
      "oint": 7513,
      "wal": 7514,
      "Ġara": 7515,
      "Ġsio": 7516,
      "Ġoup": 7517,
      "ante": 7518,
      "orb": 7519,
      "Ġcoc": 7520,
      "Ġcov": 7521,
      "Ġeq": 7522,
      "Ġhack": 7523,
      "Ġmf": 7524,
      "ĠSho": 7525,
      "ĠAo": 7526,
      "ĠTH": 7527,
      "ĠTreas": 7528,
      "ĠMusic": 7529,
      "Ġuh": 7530,
      "thd": 7531,
      "ĠDS": 7532,
      "ĠOra": 7533,
      "iost": 7534,
      "eap": 7535,
      "Ġforecast": 7536,
      "ctic": 7537,
      "Ġket": 7538,
      "ĠKy": 7539,
      "dead": 7540,
      "lna": 7541,
      "rowing": 7542,
      "Ġlocal": 7543,
      "ĠRyder": 7544,
      "alysts": 7545,
      "Dec": 7546,
      "GTON": 7547,
      "Oh": 7548,
      "fall": 7549,
      "mid": 7550,
      "mart": 7551,
      "many": 7552,
      "nre": 7553,
      "tec": 7554,
      "von": 7555,
      "erh": 7556,
      "Ġott": 7557,
      "Ġirt": 7558,
      "oring": 7559,
      "Ġela": 7560,
      "ĠnP": 7561,
      "Ġbte": 7562,
      "Ġhls": 7563,
      "ilf": 7564,
      "ilar": 7565,
      "ĠSans": 7566,
      "rob": 7567,
      "urv": 7568,
      "ĠPale": 7569,
      "ĠBang": 7570,
      "ĠonI": 7571,
      "ĠNig": 7572,
      "ĠFil": 7573,
      "ĠData": 7574,
      "Ġvn": 7575,
      "ceh": 7576,
      "ĠGar": 7577,
      "Ġhey": 7578,
      "verd": 7579,
      "Ġasked": 7580,
      "ifo": 7581,
      "ifs": 7582,
      "evs": 7583,
      "ĠStre": 7584,
      "Ġalmost": 7585,
      "Ġsci": 7586,
      "States": 7587,
      "ĠZeal": 7588,
      "Ġweekend": 7589,
      "Intern": 7590,
      "Ġbehind": 7591,
      "Ġdespite": 7592,
      "Od": 7593,
      "cra": 7594,
      "uon": 7595,
      "uction": 7596,
      "ĠsM": 7597,
      "Ġcoll": 7598,
      "Ġlai": 7599,
      "Ġlive": 7600,
      "Ġflr": 7601,
      "Ġhap": 7602,
      "icd": 7603,
      "icia": 7604,
      "omet": 7605,
      "ioni": 7606,
      "ĠPower": 7607,
      "ĠBet": 7608,
      "ĠNI": 7609,
      "ĠOpe": 7610,
      "cea": 7611,
      "them": 7612,
      "Ġhear": 7613,
      "ĠVik": 7614,
      "ĠStar": 7615,
      "Ġspr": 7616,
      "ences": 7617,
      "untry": 7618,
      "while": 7619,
      "2005": 7620,
      "ĠDelta": 7621,
      "Ou": 7622,
      "Rel": 7623,
      "Sy": 7624,
      "bad": 7625,
      "sP": 7626,
      "Ġtight": 7627,
      "Ġaj": 7628,
      "Ġlol": 7629,
      "ĠIss": 7630,
      "uta": 7631,
      "uting": 7632,
      "Ġthb": 7633,
      "achi": 7634,
      "thie": 7635,
      "Ġvent": 7636,
      "ĠOo": 7637,
      "ĠHI": 7638,
      "Ġheavy": 7639,
      "emy": 7640,
      "ĠKer": 7641,
      "ucks": 7642,
      "Ġprison": 7643,
      "Ġqualif": 7644,
      "ĠInvest": 7645,
      "major": 7646,
      "phia": 7647,
      "Ġbusin": 7648,
      "ĠBrazil": 7649,
      "06": 7650,
      "54": 7651,
      "Ao": 7652,
      "cke": 7653,
      "rns": 7654,
      "Ġtap": 7655,
      "ĠiU": 7656,
      "Ġfv": 7657,
      "Ġwen": 7658,
      "Ġhands": 7659,
      "icts": 7660,
      "oust": 7661,
      "ĠWho": 7662,
      "ĠDutch": 7663,
      "ĠOu": 7664,
      "ching": 7665,
      "ĠKu": 7666,
      "uggl": 7667,
      "trad": 7668,
      "Ġexc": 7669,
      "Ġdeat": 7670,
      "ahl": 7671,
      "ongs": 7672,
      "Ġseco": 7673,
      "ĠQa": 7674,
      "Ġincluding": 7675,
      "ioxx": 7676,
      "aing": 7677,
      "mov": 7678,
      "pin": 7679,
      "san": 7680,
      "til": 7681,
      "Ġalo": 7682,
      "ĠsO": 7683,
      "eder": 7684,
      "itis": 7685,
      "Ġfas": 7686,
      "Ġnti": 7687,
      "Ġmol": 7688,
      "ĠCour": 7689,
      "iral": 7690,
      "Ġthai": 7691,
      "ĠMast": 7692,
      "today": 7693,
      "ĠNets": 7694,
      "ĠUr": 7695,
      "Ġvh": 7696,
      "Ġ,#": 7697,
      "Ġstan": 7698,
      "ĠThr": 7699,
      "raqi": 7700,
      "Ġeffort": 7701,
      "ĠSix": 7702,
      "ONDON": 7703,
      "ĠJuly": 7704,
      "ĠProfile": 7705,
      "cin": 7706,
      "make": 7707,
      "nol": 7708,
      "obe": 7709,
      "pb": 7710,
      "pm": 7711,
      "tain": 7712,
      "Ġaie": 7713,
      "Ġool": 7714,
      "alv": 7715,
      "Ġtoda": 7716,
      "ĠCro": 7717,
      "Ġgai": 7718,
      "ĠRen": 7719,
      "usiness": 7720,
      "iaf": 7721,
      "Ġandr": 7722,
      "ooi": 7723,
      "cover": 7724,
      "Ġnever": 7725,
      "Ġrecor": 7726,
      "Ġosn": 7727,
      "Ġleading": 7728,
      "Ġknown": 7729,
      "ĠUPDATE": 7730,
      "AU": 7731,
      "Dep": 7732,
      "trs": 7733,
      "Ġaig": 7734,
      "Ġcia": 7735,
      "Ġcout": 7736,
      "Ġlav": 7737,
      "Ġfthe": 7738,
      "Ġftr": 7739,
      "ĠnT": 7740,
      "Ġwre": 7741,
      "Ġwai": 7742,
      "iland": 7743,
      "Ġdthe": 7744,
      "icke": 7745,
      "elli": 7746,
      "ĠIO": 7747,
      "ĠIta": 7748,
      "urce": 7749,
      "otm": 7750,
      "ĠRich": 7751,
      "ofs": 7752,
      "ĠHy": 7753,
      "Ġforl": 7754,
      "lys": 7755,
      "Ġeri": 7756,
      "ĠThre": 7757,
      "Ġcham": 7758,
      "Ġarri": 7759,
      "ĠStor": 7760,
      "nning": 7761,
      "Ġflu": 7762,
      "Ġworth": 7763,
      "Ġtrying": 7764,
      "ĠWASHINGTON": 7765,
      "Ġuntil": 7766,
      "85": 7767,
      "Dar": 7768,
      "Fri": 7769,
      "West": 7770,
      "ahe": 7771,
      "cam": 7772,
      "lre": 7773,
      "Ġ[": 7774,
      "Ġtrs": 7775,
      "Ġtreat": 7776,
      "inon": 7777,
      "eris": 7778,
      "Ġiec": 7779,
      "anis": 7780,
      "orit": 7781,
      "Ġrro": 7782,
      "Ġress": 7783,
      "atte": 7784,
      "Ġfle": 7785,
      "Ġbout": 7786,
      "icans": 7787,
      "ĠSum": 7788,
      "ĠAB": 7789,
      "ĠTit": 7790,
      "Ġull": 7791,
      "Ġonal": 7792,
      "osing": 7793,
      "ĠGiants": 7794,
      "ĠHous": 7795,
      "laim": 7796,
      "sses": 7797,
      "Ġprob": 7798,
      "Ġtrh": 7799,
      "ĠUnite": 7800,
      "NYSE": 7801,
      "AA": 7802,
      "Ay": 7803,
      "GO": 7804,
      "Korea": 7805,
      "Ms": 7806,
      "cie": 7807,
      "mod": 7808,
      "oom": 7809,
      "Ġtern": 7810,
      "Ġotr": 7811,
      "Ġild": 7812,
      "Ġird": 7813,
      "anb": 7814,
      "itu": 7815,
      "Ġeel": 7816,
      "Ġbook": 7817,
      "Ġwher": 7818,
      "ĠSie": 7819,
      "ĠSear": 7820,
      "elin": 7821,
      "ĠAli": 7822,
      "Ġthab": 7823,
      "ĠMass": 7824,
      "ofe": 7825,
      "ĠDea": 7826,
      "Ġvirus": 7827,
      "ĠEle": 7828,
      "iob": 7829,
      "ĠLeb": 7830,
      "Ġfora": 7831,
      "ngt": 7832,
      "ument": 7833,
      "Ġenergy": 7834,
      "ovs": 7835,
      "Ġcharge": 7836,
      "Ina": 7837,
      "price": 7838,
      "Ġ41": 7839,
      "Ġ45": 7840,
      "pool": 7841,
      "Ġraq": 7842,
      "enced": 7843,
      "rget": 7844,
      "ĠIndones": 7845,
      "ĠTuesda": 7846,
      "Ġdouble": 7847,
      "Ġhistory": 7848,
      "\"'": 7849,
      "OK": 7850,
      "cost": 7851,
      "vm": 7852,
      "yard": 7853,
      "Ġaot": 7854,
      "Ġsse": 7855,
      "Ġsul": 7856,
      "ĠrB": 7857,
      "atb": 7858,
      "Ġlls": 7859,
      "Ġfears": 7860,
      "Ġnand": 7861,
      "Ġhun": 7862,
      "elan": 7863,
      "ĠAid": 7864,
      "ĠTalks": 7865,
      "url": 7866,
      "Ġthu": 7867,
      "ionship": 7868,
      "aden": 7869,
      "ĠPutin": 7870,
      "tsl": 7871,
      "Ġues": 7872,
      "igg": 7873,
      "ĠWt": 7874,
      "ĠNl": 7875,
      "ĠvI": 7876,
      "Ġvice": 7877,
      "ĠGs": 7878,
      "Ġatta": 7879,
      "nsd": 7880,
      "atei": 7881,
      "mpt": 7882,
      "Ġprobe": 7883,
      "ibl": 7884,
      "conf": 7885,
      "ronic": 7886,
      "Ġblow": 7887,
      "Ġgener": 7888,
      "ĠNokia": 7889,
      ".,-": 7890,
      "North": 7891,
      "PH": 7892,
      "power": 7893,
      "orc": 7894,
      "atm": 7895,
      "Ġcll": 7896,
      "ĠlG": 7897,
      "Ġeac": 7898,
      "Ġeye": 7899,
      "ĠnM": 7900,
      "Ġbhat": 7901,
      "Ġdent": 7902,
      "roll": 7903,
      "ĠgI": 7904,
      "oum": 7905,
      "ĠBom": 7906,
      "Ġanr": 7907,
      "ĠGover": 7908,
      "ĠJets": 7909,
      "lsd": 7910,
      "tii": 7911,
      "Ġpract": 7912,
      "Ġarnd": 7913,
      "Ġacco": 7914,
      "Ġpeac": 7915,
      "going": 7916,
      "ength": 7917,
      "Ġrunning": 7918,
      "rival": 7919,
      "Ġclaims": 7920,
      "ĠBrown": 7921,
      ":;": 7922,
      "Dem": 7923,
      "Fall": 7924,
      "Not": 7925,
      "aie": 7926,
      "cis": 7927,
      "gun": 7928,
      "gage": 7929,
      "hrs": 7930,
      "ohn": 7931,
      "pite": 7932,
      "tng": 7933,
      "vat": 7934,
      "Ġica": 7935,
      "Ġcivil": 7936,
      "Ġlio": 7937,
      "Ġlse": 7938,
      "Ġfotr": 7939,
      "ĠeL": 7940,
      "Ġeur": 7941,
      "Ġwind": 7942,
      "etes": 7943,
      "Ġgan": 7944,
      "Ġuss": 7945,
      "thers": 7946,
      "ĠNear": 7947,
      "rah": 7948,
      "imir": 7949,
      "quest": 7950,
      "tered": 7951,
      "nsh": 7952,
      "essi": 7953,
      "oco": 7954,
      "ulation": 7955,
      "ĠKaz": 7956,
      "Ġshou": 7957,
      "shot": 7958,
      "rese": 7959,
      "Ġfired": 7960,
      "ulls": 7961,
      "produc": 7962,
      "ization": 7963,
      "Thurs": 7964,
      "Ġannounce": 7965,
      "Ġmembers": 7966,
      "EIJ": 7967,
      "ĠGermany": 7968,
      "ĠOnline": 7969,
      "\"\\": 7970,
      "38": 7971,
      "43": 7972,
      "AZ": 7973,
      "Dn": 7974,
      "Ihe": 7975,
      "Isl": 7976,
      "Ld": 7977,
      "aal": 7978,
      "aay": 7979,
      "dit": 7980,
      "ever": 7981,
      "oce": 7982,
      "rthe": 7983,
      "enit": 7984,
      "Ġeaid": 7985,
      "sters": 7986,
      "stri": 7987,
      "Ġhours": 7988,
      "Ġmut": 7989,
      "ĠSd": 7990,
      "ĠSut": 7991,
      "ĠIw": 7992,
      "ĠIy": 7993,
      "ĠIth": 7994,
      "ĠAlex": 7995,
      "ĠMets": 7996,
      "aml": 7997,
      "ĠRon": 7998,
      "nting": 7999,
      "ĠDs": 8000,
      "Ġvia": 8001,
      "imer": 8002,
      "lyi": 8003,
      "agh": 8004,
      "aki": 8005,
      "ĠJr": 8006,
      "being": 8007,
      "cket": 8008,
      "Ġally": 8009,
      "govern": 8010,
      "ounts": 8011,
      "Ġannoun": 8012,
      ",)": 8013,
      "Bank": 8014,
      "dro": 8015,
      "fg": 8016,
      "vio": 8017,
      "Ġaz": 8018,
      "oric": 8019,
      "ately": 8020,
      "Ġcarr": 8021,
      "ĠlR": 8022,
      "Ġpto": 8023,
      "acd": 8024,
      "ĠWA": 8025,
      "ĠNex": 8026,
      "eef": 8027,
      "Ġanrd": 8028,
      "ĠGun": 8029,
      "rsl": 8030,
      "mpi": 8031,
      "Ġplant": 8032,
      "Ġ32": 8033,
      "Ġoffici": 8034,
      "ĠReg": 8035,
      "Ġurged": 8036,
      "Ġdevel": 8037,
      "ĠCanadian": 8038,
      "Ġeconomic": 8039,
      "ĠIPO": 8040,
      "Ġequip": 8041,
      "Ġbarrel": 8042,
      "Ise": 8043,
      "PE": 8044,
      "Yo": 8045,
      "kil": 8046,
      "keep": 8047,
      "oet": 8048,
      "Ġurs": 8049,
      "orti": 8050,
      "Ġears": 8051,
      "Ġhte": 8052,
      "Ġhthe": 8053,
      "Ġdit": 8054,
      "icer": 8055,
      "Ġmit": 8056,
      "aya": 8057,
      "ĠCamp": 8058,
      "ĠMol": 8059,
      "llow": 8060,
      "ofr": 8061,
      "ĠLee": 8062,
      "Ġstl": 8063,
      "eive": 8064,
      "ftware": 8065,
      "Ġpoin": 8066,
      "spec": 8067,
      "ĠMoz": 8068,
      "Ġfootball": 8069,
      "Ġcareer": 8070,
      "Ich": 8071,
      "MI": 8072,
      "Sup": 8073,
      "Sta": 8074,
      "base": 8075,
      "gas": 8076,
      "iro": 8077,
      "lete": 8078,
      "nion": 8079,
      "rus": 8080,
      "Ġsht": 8081,
      "Ġsrt": 8082,
      "Ġoal": 8083,
      "Ġices": 8084,
      "Ġril": 8085,
      "aret": 8086,
      "Ġcast": 8087,
      "ĠeF": 8088,
      "Ġbou": 8089,
      "Ġwide": 8090,
      "Ġpain": 8091,
      "Ġposs": 8092,
      "etb": 8093,
      "Ġtov": 8094,
      "ndo": 8095,
      "olis": 8096,
      "veil": 8097,
      "ĠWeek": 8098,
      "ĠLas": 8099,
      "Ġisa": 8100,
      "gei": 8101,
      "Ġchips": 8102,
      "show": 8103,
      "Ġcoal": 8104,
      "Ġ34": 8105,
      "tta": 8106,
      "tler": 8107,
      "arged": 8108,
      "Ġperfor": 8109,
      "ashing": 8110,
      "Ġwinning": 8111,
      "Ġpoli": 8112,
      "ĠPrim": 8113,
      "ĠComputer": 8114,
      "ĠAssoci": 8115,
      "ĠwIth": 8116,
      "Ġdirect": 8117,
      "ĠOhio": 8118,
      "Google": 8119,
      "LD": 8120,
      "Tex": 8121,
      "iid": 8122,
      "nhe": 8123,
      "rri": 8124,
      "sia": 8125,
      "Ġoir": 8126,
      "Ġfom": 8127,
      "Ġfresh": 8128,
      "Ġ-~": 8129,
      "ĠSri": 8130,
      "ĠAa": 8131,
      "Ġthce": 8132,
      "ĠMis": 8133,
      "ĠMag": 8134,
      "acb": 8135,
      "ieal": 8136,
      "ĠNr": 8137,
      "ĠFs": 8138,
      "iak": 8139,
      "thet": 8140,
      "rsh": 8141,
      "ĠJam": 8142,
      "ocus": 8143,
      "uments": 8144,
      "uccess": 8145,
      "Ġje": 8146,
      "Inte": 8147,
      "Ġoffice": 8148,
      "Ġabove": 8149,
      "ighb": 8150,
      "ĠMichael": 8151,
      "Ġfeor": 8152,
      "Ġprep": 8153,
      "ĠWoods": 8154,
      "ecause": 8155,
      "ĠGeneral": 8156,
      "cil": 8157,
      "dom": 8158,
      "fou": 8159,
      "hos": 8160,
      "hai": 8161,
      "zens": 8162,
      "Ġtfo": 8163,
      "Ġiew": 8164,
      "Ġlag": 8165,
      "Ġlater": 8166,
      "Ġnational": 8167,
      "Ġdal": 8168,
      "Ġdto": 8169,
      "inger": 8170,
      "ĠTes": 8171,
      "ĠMOS": 8172,
      "ĠFro": 8173,
      "llar": 8174,
      "owth": 8175,
      "ĠHl": 8176,
      "ĠLoss": 8177,
      "Ġkept": 8178,
      "ipt": 8179,
      "ssion": 8180,
      "Ġacq": 8181,
      "Ġ36": 8182,
      "aile": 8183,
      "assic": 8184,
      "cause": 8185,
      "Ġfror": 8186,
      "away": 8187,
      "Ġirst": 8188,
      "Thur": 8189,
      "Ġwarn": 8190,
      "96": 8191,
      "Pre": 8192,
      "mnt": 8193,
      "nag": 8194,
      "says": 8195,
      "tA": 8196,
      "uli": 8197,
      "wth": 8198,
      "wea": 8199,
      "Ġsenior": 8200,
      "Ġook": 8201,
      "helv": 8202,
      "ĠlL": 8203,
      "itel": 8204,
      "Ġdof": 8205,
      "acke": 8206,
      "entl": 8207,
      "ĠRic": 8208,
      "ĠDn": 8209,
      "Ġvend": 8210,
      "Ġstorm": 8211,
      "rsd": 8212,
      "ĠJer": 8213,
      "ivid": 8214,
      "lsl": 8215,
      "ĠKn": 8216,
      "efr": 8217,
      "mpics": 8218,
      "ĠVs": 8219,
      "oston": 8220,
      "Ġplane": 8221,
      "afl": 8222,
      "Ġ33": 8223,
      "rding": 8224,
      "Ġngs": 8225,
      "Ġresult": 8226,
      "izon": 8227,
      "racy": 8228,
      "aqi": 8229,
      "Iraqi": 8230,
      "Ġcampaign": 8231,
      "SS": 8232,
      "bile": 8233,
      "hird": 8234,
      "vu": 8235,
      "wel": 8236,
      "Ġrter": 8237,
      "ĠlF": 8238,
      "Ġlack": 8239,
      "itI": 8240,
      "Ġbilli": 8241,
      "Ġwu": 8242,
      "Ġwot": 8243,
      "Ġwireless": 8244,
      "Ġhro": 8245,
      "isio": 8246,
      "ĠTake": 8247,
      "igation": 8248,
      "ĠRem": 8249,
      "ĠDollar": 8250,
      "Ġvr": 8251,
      "ĠHO": 8252,
      "ĠHs": 8253,
      "ĠHer": 8254,
      "ĠLew": 8255,
      "odt": 8256,
      "ovr": 8257,
      "ĠTher": 8258,
      "Ġalready": 8259,
      "Ġseveral": 8260,
      "ĠCham": 8261,
      "rna": 8262,
      "resident": 8263,
      "ONG": 8264,
      "Ġimm": 8265,
      "rmy": 8266,
      "Ġrelea": 8267,
      "gery": 8268,
      "Ġemploy": 8269,
      "South": 8270,
      "UP": 8271,
      "Ur": 8272,
      "VE": 8273,
      "dep": 8274,
      "fri": 8275,
      "iia": 8276,
      "lce": 8277,
      "take": 8278,
      "uie": 8279,
      "zt": 8280,
      "Ġius": 8281,
      "Ġria": 8282,
      "Ġlid": 8283,
      "Ġfoe": 8284,
      "Ġpic": 8285,
      "Ġpls": 8286,
      "rease": 8287,
      "ĠCab": 8288,
      "Ġvar": 8289,
      "ltn": 8290,
      "ĠJim": 8291,
      "aining": 8292,
      "ĠVen": 8293,
      "iiy": 8294,
      "Ġalleg": 8295,
      "ihs": 8296,
      "pric": 8297,
      "State": 8298,
      "Ġicn": 8299,
      "lection": 8300,
      "Ġminist": 8301,
      "Ġlift": 8302,
      "Microsoft": 8303,
      "Ġspeed": 8304,
      "Ġdomin": 8305,
      "ĠVirgin": 8306,
      "Rl": 8307,
      "break": 8308,
      "call": 8309,
      "Ġtche": 8310,
      "inis": 8311,
      "Ġaod": 8312,
      "ĠsB": 8313,
      "Ġrly": 8314,
      "Ġlro": 8315,
      "ĠeD": 8316,
      "ĠeH": 8317,
      "isday": 8318,
      "ashes": 8319,
      "Ġinning": 8320,
      "uries": 8321,
      "ĠCE": 8322,
      "Ġofb": 8323,
      "ĠPrem": 8324,
      "Ġupp": 8325,
      "igo": 8326,
      "igat": 8327,
      "Ġvil": 8328,
      "ĠOpp": 8329,
      "chip": 8330,
      "ngl": 8331,
      "ctio": 8332,
      "appro": 8333,
      "evel": 8334,
      "Ġwithin": 8335,
      "Ġthatt": 8336,
      "rder": 8337,
      "Ġprevi": 8338,
      "ĠAmeri": 8339,
      "ĠGeorge": 8340,
      "ĠNajaf": 8341,
      "Ġjoint": 8342,
      "ĠWASHING": 8343,
      "ĠRussi": 8344,
      "Ġdigital": 8345,
      "&'": 8346,
      "Ira": 8347,
      "Pac": 8348,
      "YD": 8349,
      "fis": 8350,
      "fect": 8351,
      "hist": 8352,
      "kh": 8353,
      "nA": 8354,
      "wes": 8355,
      "where": 8356,
      "Ġaec": 8357,
      "Ġsinc": 8358,
      "esis": 8359,
      "Ġiea": 8360,
      "aton": 8361,
      "Ġcau": 8362,
      "Ġloy": 8363,
      "itin": 8364,
      "alI": 8365,
      "Ġnic": 8366,
      "stion": 8367,
      "stand": 8368,
      "ĠCarl": 8369,
      "olds": 8370,
      "ĠNu": 8371,
      "ĠNep": 8372,
      "ĠRt": 8373,
      "ĠRis": 8374,
      "ĠFree": 8375,
      "ntel": 8376,
      "ĠGt": 8377,
      "Ġregu": 8378,
      "life": 8379,
      "ifn": 8380,
      "ĠKl": 8381,
      "Ġjn": 8382,
      "Ġ65": 8383,
      "Ġmean": 8384,
      "posed": 8385,
      "ĠPrix": 8386,
      "rovers": 8387,
      "ĠMuslim": 8388,
      "ĠOPEC": 8389,
      "bou": 8390,
      "cop": 8391,
      "eor": 8392,
      "gian": 8393,
      "mel": 8394,
      "zing": 8395,
      "ĠtE": 8396,
      "ĠtF": 8397,
      "Ġsih": 8398,
      "enrs": 8399,
      "Ġlap": 8400,
      "etin": 8401,
      "ĠSH": 8402,
      "eler": 8403,
      "ĠCount": 8404,
      "olen": 8405,
      "toa": 8406,
      "toh": 8407,
      "enta": 8408,
      "raine": 8409,
      "Ġvide": 8410,
      "sein": 8411,
      "Ġrew": 8412,
      "Ġheal": 8413,
      "ĠJobs": 8414,
      "isted": 8415,
      "uded": 8416,
      "iih": 8417,
      "ĠChrist": 8418,
      "ffi": 8419,
      "Ġmoon": 8420,
      "ĠAfric": 8421,
      "NGTON": 8422,
      "loyees": 8423,
      "Gi": 8424,
      "Sund": 8425,
      "dor": 8426,
      "five": 8427,
      "pur": 8428,
      "ĠtR": 8429,
      "esident": 8430,
      "Ġram": 8431,
      "atis": 8432,
      "Ġcio": 8433,
      "Ġlun": 8434,
      "Ġnge": 8435,
      "Ġnamed": 8436,
      "Ġpair": 8437,
      "Ġthit": 8438,
      "ĠMak": 8439,
      "Ġ#,": 8440,
      "rast": 8441,
      "ller": 8442,
      "ĠUe": 8443,
      "ĠOld": 8444,
      "Ġyer": 8445,
      "ĠGla": 8446,
      "ĠLook": 8447,
      "Ġquit": 8448,
      "Ġjail": 8449,
      "dex": 8450,
      "sler": 8451,
      "tlhe": 8452,
      "Ġfoor": 8453,
      "ervices": 8454,
      "Ġqut": 8455,
      "AND": 8456,
      "ĠSpac": 8457,
      "echnology": 8458,
      "ĠScot": 8459,
      "Ġwhether": 8460,
      "ĠSaturd": 8461,
      "ĠHolly": 8462,
      "ĠLabor": 8463,
      "300": 8464,
      ";~": 8465,
      "Ger": 8466,
      "Ln": 8467,
      "Nor": 8468,
      "Oa": 8469,
      "bts": 8470,
      "home": 8471,
      "jured": 8472,
      "main": 8473,
      "market": 8474,
      "prom": 8475,
      "ĠaD": 8476,
      "Ġaco": 8477,
      "once": 8478,
      "itte": 8479,
      "Ġpv": 8480,
      "etc": 8481,
      "ĠSBC": 8482,
      "ĠTak": 8483,
      "ĠTiger": 8484,
      "Ġthough": 8485,
      "ĠNatio": 8486,
      "Ġvul": 8487,
      "ĠLI": 8488,
      "ively": 8489,
      "aba": 8490,
      "aven": 8491,
      "ourc": 8492,
      "Ġfirms": 8493,
      "Ġtiat": 8494,
      "Ġcoming": 8495,
      "fied": 8496,
      "Ġraised": 8497,
      "Ġmili": 8498,
      "Chin": 8499,
      "Ġinjured": 8500,
      "iplom": 8501,
      "53": 8502,
      "Cha": 8503,
      "Sat": 8504,
      "Wal": 8505,
      "XP": 8506,
      "die": 8507,
      "fen": 8508,
      "hnt": 8509,
      "lof": 8510,
      "lai": 8511,
      "tir": 8512,
      "uee": 8513,
      "Ġsra": 8514,
      "Ġsll": 8515,
      "Ġiday": 8516,
      "anish": 8517,
      "arq": 8518,
      "arin": 8519,
      "stry": 8520,
      "Ġdate": 8521,
      "ĠIL": 8522,
      "ĠAS": 8523,
      "ĠCall": 8524,
      "left": 8525,
      "ĠMov": 8526,
      "ĠMush": 8527,
      "amy": 8528,
      "ĠFlo": 8529,
      "Ġvit": 8530,
      "ĠHt": 8531,
      "bean": 8532,
      "ivn": 8533,
      "ivity": 8534,
      "ulr": 8535,
      "ability": 8536,
      "peo": 8537,
      "ober": 8538,
      "coach": 8539,
      "ĠInv": 8540,
      "deo": 8541,
      "wsuit": 8542,
      "Ġraise": 8543,
      "Ġfix": 8544,
      "Ġbui": 8545,
      "perts": 8546,
      "Ġpoor": 8547,
      "Ġleague": 8548,
      "Ġpolit": 8549,
      "ketball": 8550,
      "xpect": 8551,
      "Ġmorning": 8552,
      "ĠSteve": 8553,
      "FullQ": 8554,
      "Ġvicto": 8555,
      "ĠIslam": 8556,
      "Ġforeign": 8557,
      "Ġexecutive": 8558,
      "Cn": 8559,
      "iN": 8560,
      "mand": 8561,
      "Ġtell": 8562,
      "Ġaun": 8563,
      "ĠoT": 8564,
      "oral": 8565,
      "Ġrnd": 8566,
      "Ġlei": 8567,
      "itors": 8568,
      "Ġnov": 8569,
      "stop": 8570,
      "Ġwet": 8571,
      "Ġdies": 8572,
      "ĠSingh": 8573,
      "elI": 8574,
      "report": 8575,
      "ĠIu": 8576,
      "leb": 8577,
      "ouc": 8578,
      "igne": 8579,
      "ĠNs": 8580,
      "uso": 8581,
      "uset": 8582,
      "users": 8583,
      "Ġance": 8584,
      "chs": 8585,
      "chief": 8586,
      "hter": 8587,
      "Ġitis": 8588,
      "lsa": 8589,
      "ompan": 8590,
      "Ġque": 8591,
      "Ġleade": 8592,
      "rning": 8593,
      "onda": 8594,
      "profit": 8595,
      "ANG": 8596,
      "flict": 8597,
      "Ġtrip": 8598,
      "ĠJapanese": 8599,
      "ĠCrude": 8600,
      "Ġothers": 8601,
      "Ġbenef": 8602,
      "Ġproducts": 8603,
      "Ree": 8604,
      "fing": 8605,
      "gar": 8606,
      "hind": 8607,
      "light": 8608,
      "tte": 8609,
      "yan": 8610,
      "Ġsne": 8611,
      "only": 8612,
      "edI": 8613,
      "Ġews": 8614,
      "Ġhouse": 8615,
      "ĠSusp": 8616,
      "rog": 8617,
      "ĠBir": 8618,
      "ĠBow": 8619,
      "Ġush": 8620,
      "ieis": 8621,
      "ental": 8622,
      "ĠFund": 8623,
      "usa": 8624,
      "usb": 8625,
      "cht": 8626,
      "agr": 8627,
      "lib": 8628,
      "ĠJER": 8629,
      "abor": 8630,
      "nces": 8631,
      "arta": 8632,
      "ournal": 8633,
      "ubled": 8634,
      "antd": 8635,
      "Ġupgr": 8636,
      "Ġnewsp": 8637,
      "phon": 8638,
      "Ġserver": 8639,
      "ĠPalm": 8640,
      "ĠGeorg": 8641,
      "ĠYukos": 8642,
      "Gre": 8643,
      "Par": 8644,
      "fet": 8645,
      "jht": 8646,
      "nation": 8647,
      "oif": 8648,
      "pop": 8649,
      "tay": 8650,
      "xpe": 8651,
      "ĠrL": 8652,
      "edia": 8653,
      "Ġcorp": 8654,
      "iters": 8655,
      "Ġely": 8656,
      "ĠnW": 8657,
      "Ġwater": 8658,
      "Ġdip": 8659,
      "Ġmuc": 8660,
      "ĠSim": 8661,
      "ĠSant": 8662,
      "ĠSyst": 8663,
      "ropean": 8664,
      "Ġofc": 8665,
      "ĠMadrid": 8666,
      "ĠBol": 8667,
      "ĠBrow": 8668,
      "eav": 8669,
      "ldi": 8670,
      "mpa": 8671,
      "ovo": 8672,
      "Ġchie": 8673,
      "deay": 8674,
      "Ġspend": 8675,
      "nline": 8676,
      "ounded": 8677,
      "Ġprepar": 8678,
      "Ġaccount": 8679,
      "Ġdefeat": 8680,
      "Ġtimes": 8681,
      "Ġmember": 8682,
      "Ġhuge": 8683,
      "Ġrules": 8684,
      "ĠBAGHDAD": 8685,
      "CD": 8686,
      "Del": 8687,
      "May": 8688,
      "Per": 8689,
      "\\'": 8690,
      "bto": 8691,
      "lig": 8692,
      "mers": 8693,
      "ract": 8694,
      "uic": 8695,
      "ĠtN": 8696,
      "Ġtear": 8697,
      "Ġtwe": 8698,
      "Ġood": 8699,
      "arial": 8700,
      "Ġcoo": 8701,
      "Ġfic": 8702,
      "Ġbm": 8703,
      "Ġmini": 8704,
      "eline": 8705,
      "Ġints": 8706,
      "uthe": 8707,
      "urance": 8708,
      "ĠCur": 8709,
      "ĠPra": 8710,
      "ĠPric": 8711,
      "igher": 8712,
      "ieved": 8713,
      "iaI": 8714,
      "Ġanad": 8715,
      "ĠGri": 8716,
      "ĠHom": 8717,
      "ĠLeg": 8718,
      "unning": 8719,
      "Ġreas": 8720,
      "ques": 8721,
      "agen": 8722,
      "emi": 8723,
      "emt": 8724,
      "Ġko": 8725,
      "eful": 8726,
      "gtt": 8727,
      "Ġshr": 8728,
      "Ġquick": 8729,
      "ailer": 8730,
      "foot": 8731,
      "rror": 8732,
      "Ġcrash": 8733,
      "Ġbox": 8734,
      "Ġflight": 8735,
      "Ġannual": 8736,
      "atures": 8737,
      "Ġdecision": 8738,
      "Ġminister": 8739,
      "ĠFood": 8740,
      "ĠPalestin": 8741,
      "Ġhostage": 8742,
      "know": 8743,
      "ĠParis": 8744,
      "JA": 8745,
      "Oct": 8746,
      "UM": 8747,
      "Val": 8748,
      "best": 8749,
      "dp": 8750,
      "dic": 8751,
      "fot": 8752,
      "kel": 8753,
      "mant": 8754,
      "tth": 8755,
      "ĠoA": 8756,
      "Ġoas": 8757,
      "hell": 8758,
      "enet": 8759,
      "Ġrod": 8760,
      "Ġcode": 8761,
      "Ġfigh": 8762,
      "Ġfifth": 8763,
      "Ġwei": 8764,
      "etnt": 8765,
      "elds": 8766,
      "Ġgri": 8767,
      "ĠPT": 8768,
      "ieed": 8769,
      "ĠWI": 8770,
      "ĠOT": 8771,
      "ĠEli": 8772,
      "estic": 8773,
      "ĠHD": 8774,
      "unce": 8775,
      "ocl": 8776,
      "Ġkille": 8777,
      "uling": 8778,
      "uma": 8779,
      "abn": 8780,
      "coe": 8781,
      "Ġups": 8782,
      "nergy": 8783,
      "Ġ76": 8784,
      "Ġhiis": 8785,
      "ĠAfrican": 8786,
      "Ġleave": 8787,
      "Ġ\\\\": 8788,
      "ĠOlym": 8789,
      "ĠLeag": 8790,
      "Wednes": 8791,
      "94": 8792,
      "CEO": 8793,
      "Flor": 8794,
      "Iter": 8795,
      "Look": 8796,
      "iD": 8797,
      "killed": 8798,
      "late": 8799,
      "nay": 8800,
      "sign": 8801,
      "uid": 8802,
      "yed": 8803,
      "Ġtii": 8804,
      "Ġtive": 8805,
      "ĠaIn": 8806,
      "ĠsW": 8807,
      "Ġsoi": 8808,
      "ĠsIt": 8809,
      "onst": 8810,
      "aned": 8811,
      "orse": 8812,
      "ĠrW": 8813,
      "Ġnatio": 8814,
      "stin": 8815,
      "Ġplo": 8816,
      "Ġpict": 8817,
      "ilv": 8818,
      "ĠSom": 8819,
      "ĠTht": 8820,
      "otal": 8821,
      "adio": 8822,
      "ĠPales": 8823,
      "ĠPGA": 8824,
      "ĠBE": 8825,
      "ĠWAS": 8826,
      "ĠWireless": 8827,
      "ĠNations": 8828,
      "tew": 8829,
      "ĠandI": 8830,
      "estr": 8831,
      "avt": 8832,
      "ueh": 8833,
      "trac": 8834,
      "ĠVol": 8835,
      "Ġpled": 8836,
      "elled": 8837,
      "Ġtrading": 8838,
      ".,.": 8839,
      "Ġsuit": 8840,
      "Ġsupply": 8841,
      "Ġtroop": 8842,
      "Ġprofits": 8843,
      "etroit": 8844,
      "ĠPeopleSoft": 8845,
      "Ġalleged": 8846,
      "Orac": 8847,
      "Satur": 8848,
      "rP": 8849,
      "rve": 8850,
      "Ġsip": 8851,
      "Ġiee": 8852,
      "arp": 8853,
      "Ġeme": 8854,
      "Ġnol": 8855,
      "Ġwol": 8856,
      "Ġhof": 8857,
      "ĠScient": 8858,
      "ĠTv": 8859,
      "ĠPed": 8860,
      "ĠPrices": 8861,
      "ĠuP": 8862,
      "amer": 8863,
      "ĠWon": 8864,
      "ĠRef": 8865,
      "ntion": 8866,
      "aib": 8867,
      "ĠJean": 8868,
      "ĠThee": 8869,
      "tral": 8870,
      "ĠVene": 8871,
      "peal": 8872,
      "Ġchal": 8873,
      "ĠChampion": 8874,
      "ellig": 8875,
      "Ġ38": 8876,
      "erna": 8877,
      "Ġfoer": 8878,
      "nesota": 8879,
      "Ġclim": 8880,
      "Ġ99": 8881,
      "also": 8882,
      "ollow": 8883,
      "Ġsecu": 8884,
      "eleas": 8885,
      "rcent": 8886,
      "Ġindus": 8887,
      "ĠQue": 8888,
      "Unit": 8889,
      "Ġgiven": 8890,
      ";...": 8891,
      "Iday": 8892,
      "Tue": 8893,
      "blo": 8894,
      "gets": 8895,
      "iL": 8896,
      "lir": 8897,
      "nies": 8898,
      "oas": 8899,
      "tly": 8900,
      "tors": 8901,
      "Ġtew": 8902,
      "ĠtIe": 8903,
      "inq": 8904,
      "ĠsL": 8905,
      "Ġory": 8906,
      "Ġira": 8907,
      "Ġico": 8908,
      "Ġcil": 8909,
      "Ġcted": 8910,
      "Ġlbe": 8911,
      "itar": 8912,
      "Ġfli": 8913,
      "Ġbos": 8914,
      "Ġpany": 8915,
      "ĠAC": 8916,
      "ĠAz": 8917,
      "ĠMur": 8918,
      "ieu": 8919,
      "toc": 8920,
      "ĠFP": 8921,
      "ĠGas": 8922,
      "esta": 8923,
      "ĠHon": 8924,
      "ĠLs": 8925,
      "ĠLON": 8926,
      "hti": 8927,
      "hool": 8928,
      "Ġorm": 8929,
      "ĠYe": 8930,
      "ansas": 8931,
      "atiion": 8932,
      "Ġrese": 8933,
      "Ġwinn": 8934,
      "offer": 8935,
      "Ġcolor": 8936,
      "Ġcenter": 8937,
      "Ġstraight": 8938,
      "ĠUtah": 8939,
      "Ġsepar": 8940,
      "ĠNovember": 8941,
      "ĠChicago": 8942,
      "MT": 8943,
      "Netw": 8944,
      "Sd": 8945,
      "Tn": 8946,
      "bst": 8947,
      "bra": 8948,
      "iR": 8949,
      "iam": 8950,
      "lac": 8951,
      "made": 8952,
      "Ġtig": 8953,
      "Ġtrt": 8954,
      "Ġswe": 8955,
      "Ġiz": 8956,
      "Ġcial": 8957,
      "Ġlem": 8958,
      "Ġeap": 8959,
      "ĠnB": 8960,
      "Ġbio": 8961,
      "Ġbae": 8962,
      "Ġmig": 8963,
      "ĠSof": 8964,
      "ador": 8965,
      "ĠBlo": 8966,
      "ersh": 8967,
      "teer": 8968,
      "ĠDal": 8969,
      "ĠEas": 8970,
      "aiin": 8971,
      "Ġassa": 8972,
      "epend": 8973,
      "iied": 8974,
      "ĠThere": 8975,
      "Ġqual": 8976,
      "Ġplac": 8977,
      "Ġspy": 8978,
      "bert": 8979,
      "ĠItalian": 8980,
      "Ġidn": 8981,
      "Ġunde": 8982,
      "Ġbusi": 8983,
      "Ġtravel": 8984,
      "ĠAirways": 8985,
      "unched": 8986,
      "Ġmoved": 8987,
      "Ġinjury": 8988,
      "ĠChinese": 8989,
      "='": 8990,
      "Mus": 8991,
      "aj": 8992,
      "aat": 8993,
      "billion": 8994,
      "rise": 8995,
      "Ġsop": 8996,
      "Ġsud": 8997,
      "Ġsma": 8998,
      "Ġoer": 8999,
      "Ġoot": 9000,
      "Ġohn": 9001,
      "heo": 9002,
      "onic": 9003,
      "Ġims": 9004,
      "Ġcts": 9005,
      "Ġloe": 9006,
      "Ġelt": 9007,
      "Ġbow": 9008,
      "Ġbul": 9009,
      "Ġwll": 9010,
      "Ġpec": 9011,
      "Ġhid": 9012,
      "Ġhurt": 9013,
      "ĠSub": 9014,
      "ingI": 9015,
      "ĠAD": 9016,
      "ĠArr": 9017,
      "ndia": 9018,
      "idents": 9019,
      "omt": 9020,
      "Ġgir": 9021,
      "thn": 9022,
      "ĠRE": 9023,
      "teed": 9024,
      "riots": 9025,
      "ĠEnter": 9026,
      "iok": 9027,
      "ĠLl": 9028,
      "Ġatte": 9029,
      "seo": 9030,
      "thes": 9031,
      "aif": 9032,
      "aih": 9033,
      "lair": 9034,
      "Ġkick": 9035,
      "ĠKey": 9036,
      "Ġends": 9037,
      "Ġbyi": 9038,
      "Ġconn": 9039,
      "Ġseaso": 9040,
      "ogra": 9041,
      "Ġupd": 9042,
      "tax": 9043,
      "Ġroom": 9044,
      "Ġearlier": 9045,
      "Ġwiti": 9046,
      "ĠMajor": 9047,
      "atches": 9048,
      "Ġoperat": 9049,
      "Ġnucle": 9050,
      "Ġwoman": 9051,
      "Ġdrugs": 9052,
      "ĠSharon": 9053,
      "ĠTurk": 9054,
      "Ġwibh": 9055,
      "600": 9056,
      "Ang": 9057,
      "Lr": 9058,
      "MO": 9059,
      "bri": 9060,
      "dea": 9061,
      "fra": 9062,
      "fli": 9063,
      "gel": 9064,
      "iIn": 9065,
      "lP": 9066,
      "wc": 9067,
      "Ġtts": 9068,
      "Ġsii": 9069,
      "Ġows": 9070,
      "ĠiIs": 9071,
      "Ġicon": 9072,
      "Ġroo": 9073,
      "arh": 9074,
      "Ġlae": 9075,
      "Ġfio": 9076,
      "Ġfier": 9077,
      "Ġdru": 9078,
      "Ġmel": 9079,
      "ashe": 9080,
      "iders": 9081,
      "least": 9082,
      "ecb": 9083,
      "ĠPho": 9084,
      "ĠPhi": 9085,
      "ĠBon": 9086,
      "ĠRO": 9087,
      "tep": 9088,
      "ntg": 9089,
      "eeh": 9090,
      "iau": 9091,
      "ĠOR": 9092,
      "teri": 9093,
      "terror": 9094,
      "ĠJames": 9095,
      "eare": 9096,
      "ifl": 9097,
      "ĠKong": 9098,
      "ĠYasser": 9099,
      "ampions": 9100,
      "viol": 9101,
      "Ġwait": 9102,
      "Ġaccused": 9103,
      "ĠMinis": 9104,
      "Ġguard": 9105,
      "900": 9106,
      "Bra": 9107,
      "Iion": 9108,
      "Ko": 9109,
      "dol": 9110,
      "fv": 9111,
      "lop": 9112,
      "Ġtam": 9113,
      "Ġtum": 9114,
      "Ġsald": 9115,
      "esto": 9116,
      "oner": 9117,
      "anm": 9118,
      "Ġrio": 9119,
      "Ġroe": 9120,
      "Ġroa": 9121,
      "ĠfOr": 9122,
      "Ġeft": 9123,
      "Ġnfor": 9124,
      "Ġhunt": 9125,
      "isin": 9126,
      "ĠTE": 9127,
      "ĠCow": 9128,
      "Ġ.&": 9129,
      "iear": 9130,
      "Ġ',": 9131,
      "osday": 9132,
      "ĠFann": 9133,
      "ĠOpt": 9134,
      "quic": 9135,
      "ĠJac": 9136,
      "apa": 9137,
      "eart": 9138,
      "essor": 9139,
      "istry": 9140,
      "ĠKing": 9141,
      "Ġalong": 9142,
      "Ġadded": 9143,
      "ictor": 9144,
      "Ġrecover": 9145,
      "rali": 9146,
      "Stat": 9147,
      "Ġsuper": 9148,
      "Ġstem": 9149,
      "velop": 9150,
      "Ġtdhe": 9151,
      "ĠIsrae": 9152,
      "ĠGoogl": 9153,
      "Ġthroug": 9154,
      "Ġlevel": 9155,
      "Ġavoid": 9156,
      "64": 9157,
      "?-": 9158,
      "Dt": 9159,
      "Sm": 9160,
      "found": 9161,
      "nid": 9162,
      "nly": 9163,
      "pel": 9164,
      "qe": 9165,
      "rng": 9166,
      "right": 9167,
      "some": 9168,
      "vir": 9169,
      "xas": 9170,
      "~;": 9171,
      "Ġaward": 9172,
      "Ġsure": 9173,
      "ento": 9174,
      "Ġrights": 9175,
      "Ġlne": 9176,
      "Ġfsr": 9177,
      "ĠeR": 9178,
      "Ġbud": 9179,
      "Ġbiy": 9180,
      "elev": 9181,
      "Ġtothe": 9182,
      "ĠCubs": 9183,
      "ĠMir": 9184,
      "Ġged": 9185,
      "Ġgoo": 9186,
      "enty": 9187,
      "usd": 9188,
      "eew": 9189,
      "Ġ(,": 9190,
      "ĠGol": 9191,
      "Ġates": 9192,
      "quir": 9193,
      "emn": 9194,
      "hour": 9195,
      "ssed": 9196,
      "Ġenl": 9197,
      "Ġprofi": 9198,
      "ucc": 9199,
      "Ġcoac": 9200,
      "ogs": 9201,
      "ahs": 9202,
      "oya": 9203,
      "dtay": 9204,
      "Ġwilll": 9205,
      "ALEM": 9206,
      "Ġopening": 9207,
      "second": 9208,
      ",--": 9209,
      "33": 9210,
      "Comp": 9211,
      "ION": 9212,
      "Mt": 9213,
      "PR": 9214,
      "\\.": 9215,
      "bom": 9216,
      "core": 9217,
      "jobs": 9218,
      "pf": 9219,
      "vb": 9220,
      "yb": 9221,
      "Ġttr": 9222,
      "inning": 9223,
      "ĠaW": 9224,
      "Ġsoe": 9225,
      "ĠiThe": 9226,
      "anese": 9227,
      "Ġpon": 9228,
      "Ġdle": 9229,
      "ĠSev": 9230,
      "ĠSams": 9231,
      "elly": 9232,
      "ĠIand": 9233,
      "ĠIrn": 9234,
      "idy": 9235,
      "oser": 9236,
      "ĠNint": 9237,
      "entr": 9238,
      "tey": 9239,
      "ĠUnd": 9240,
      "ĠDame": 9241,
      "iout": 9242,
      "Ġstil": 9243,
      "lder": 9244,
      "sear": 9245,
      "apore": 9246,
      "eial": 9247,
      "Ġerr": 9248,
      "ĠThei": 9249,
      "Ġalm": 9250,
      "coi": 9251,
      "Ġ;-": 9252,
      "Ġ:-": 9253,
      "ully": 9254,
      "phins": 9255,
      "Ġterr": 9256,
      "opleSoft": 9257,
      "atlon": 9258,
      "Ġinterest": 9259,
      "Ġground": 9260,
      "Ġcheck": 9261,
      "cluding": 9262,
      "ĠHouston": 9263,
      ".\\\\": 9264,
      "BR": 9265,
      "Fin": 9266,
      "Factor": 9267,
      "Play": 9268,
      "Sw": 9269,
      "cue": 9270,
      "gai": 9271,
      "gov": 9272,
      "oct": 9273,
      "oks": 9274,
      "pend": 9275,
      "Ġoul": 9276,
      "ĠlE": 9277,
      "ĠlJ": 9278,
      "Ġnil": 9279,
      "sting": 9280,
      "Ġhii": 9281,
      "Ġdot": 9282,
      "Ġdeli": 9283,
      "ĠSot": 9284,
      "ĠAR": 9285,
      "ĠTou": 9286,
      "idon": 9287,
      "omr": 9288,
      "Ġugh": 9289,
      "igin": 9290,
      "ĠWn": 9291,
      "ĠNn": 9292,
      "usion": 9293,
      "ĠDt": 9294,
      "ĠDead": 9295,
      "Ġvon": 9296,
      "iman": 9297,
      "ĠHoll": 9298,
      "Ġitts": 9299,
      "ocal": 9300,
      "Ġenough": 9301,
      "tien": 9302,
      "Ġjet": 9303,
      "ĠStrip": 9304,
      "berg": 9305,
      "ORT": 9306,
      "Ġute": 9307,
      "Ġphot": 9308,
      "Ġcontrol": 9309,
      "ĠLeagu": 9310,
      "Ġpubl": 9311,
      "ĠPolice": 9312,
      "(-": 9313,
      "44": 9314,
      "98": 9315,
      "BUR": 9316,
      "Ild": 9317,
      "PO": 9318,
      "dg": 9319,
      "joy": 9320,
      "lne": 9321,
      "oie": 9322,
      "sic": 9323,
      "tlo": 9324,
      "vas": 9325,
      "wb": 9326,
      "Ġams": 9327,
      "ĠrN": 9328,
      "Ġrog": 9329,
      "Ġwos": 9330,
      "Ġpaid": 9331,
      "Ġdos": 9332,
      "iser": 9333,
      "urers": 9334,
      "olly": 9335,
      "temb": 9336,
      "ĠDl": 9337,
      "iail": 9338,
      "Ġyt": 9339,
      "unr": 9340,
      "rso": 9341,
      "ewn": 9342,
      "ĠJeff": 9343,
      "before": 9344,
      "Ġbefo": 9345,
      "ssa": 9346,
      "obal": 9347,
      "Ġhase": 9348,
      "iteh": 9349,
      "iction": 9350,
      "Ġ2000": 9351,
      "iscal": 9352,
      "Ġyoung": 9353,
      "unications": 9354,
      "Yan": 9355,
      "aL": 9356,
      "ious": 9357,
      "nnd": 9358,
      "pub": 9359,
      "qr": 9360,
      "rion": 9361,
      "sha": 9362,
      "tory": 9363,
      "wou": 9364,
      "zn": 9365,
      "zu": 9366,
      "Ġsoo": 9367,
      "Ġiad": 9368,
      "anf": 9369,
      "Ġraf": 9370,
      "Ġcnt": 9371,
      "itts": 9372,
      "Ġelo": 9373,
      "alin": 9374,
      "ĠnH": 9375,
      "Ġwoi": 9376,
      "Ġdio": 9377,
      "etf": 9378,
      "ĠSar": 9379,
      "elle": 9380,
      "ĠAna": 9381,
      "idng": 9382,
      "irts": 9383,
      "ĠMost": 9384,
      "ĠMary": 9385,
      "ĠBea": 9386,
      "osb": 9387,
      "eeo": 9388,
      "ĠDI": 9389,
      "ĠDro": 9390,
      "ĠanI": 9391,
      "sef": 9392,
      "nef": 9393,
      "nem": 9394,
      "agreed": 9395,
      "tery": 9396,
      "ĠJudge": 9397,
      "nso": 9398,
      "ĠKev": 9399,
      "ĠThs": 9400,
      "ĠThie": 9401,
      "ĠStudy": 9402,
      "Ġoffering": 9403,
      "contin": 9404,
      "itional": 9405,
      "ĠSunda": 9406,
      "ĠAustr": 9407,
      "EST": 9408,
      "Ġconsum": 9409,
      "League": 9410,
      "ĠGlobal": 9411,
      ",#": 9412,
      "DVD": 9413,
      "Exp": 9414,
      "Pod": 9415,
      "Vs": 9416,
      "cern": 9417,
      "dra": 9418,
      "equ": 9419,
      "eks": 9420,
      "file": 9421,
      "giant": 9422,
      "lnt": 9423,
      "lest": 9424,
      "esrs": 9425,
      "Ġiac": 9426,
      "Ġcet": 9427,
      "Ġdw": 9428,
      "asm": 9429,
      "ĠIst": 9430,
      "oled": 9431,
      "olid": 9432,
      "Ġgat": 9433,
      "ĠPau": 9434,
      "Ġonlin": 9435,
      "ersn": 9436,
      "ĠRay": 9437,
      "ĠFoo": 9438,
      "ĠFDA": 9439,
      "usin": 9440,
      "ĠEmb": 9441,
      "ĠHug": 9442,
      "Ġstates": 9443,
      "Ġreo": 9444,
      "thel": 9445,
      "emo": 9446,
      "iane": 9447,
      "Ġsever": 9448,
      "ĠChip": 9449,
      "onduct": 9450,
      "clu": 9451,
      "ihng": 9452,
      "ahy": 9453,
      "aIy": 9454,
      "Ġwitl": 9455,
      "Ġprime": 9456,
      "ĠPalestinian": 9457,
      "Ġsites": 9458,
      "Ġdelay": 9459,
      "Ġinvestors": 9460,
      "Ġsigns": 9461,
      "ĠAriz": 9462,
      "Ġconcern": 9463,
      "Ah": 9464,
      "CB": 9465,
      "HO": 9466,
      "Ow": 9467,
      "Sen": 9468,
      "bion": 9469,
      "bomb": 9470,
      "hro": 9471,
      "jng": 9472,
      "speed": 9473,
      "Ġtent": 9474,
      "Ġtme": 9475,
      "Ġsq": 9476,
      "Ġora": 9477,
      "Ġiid": 9478,
      "Ġcth": 9479,
      "Ġlk": 9480,
      "Ġlest": 9481,
      "Ġlled": 9482,
      "ĠSab": 9483,
      "ĠIit": 9484,
      "ĠCing": 9485,
      "olina": 9486,
      "ĠPeo": 9487,
      "Ġuin": 9488,
      "ĠRK": 9489,
      "ĠRese": 9490,
      "ĠOrl": 9491,
      "imore": 9492,
      "ĠER": 9493,
      "ĠHall": 9494,
      "ĠHead": 9495,
      "Ġstores": 9496,
      "Ġasnd": 9497,
      "isth": 9498,
      "ulp": 9499,
      "sson": 9500,
      "former": 9501,
      "ĠsaId": 9502,
      "evelop": 9503,
      "Ġ300": 9504,
      "Ġllion": 9505,
      "build": 9506,
      "Ġimpro": 9507,
      "Ġlink": 9508,
      "Ġsaiid": 9509,
      "ELS": 9510,
      "mitted": 9511,
      "ĠBagh": 9512,
      "FullQu": 9513,
      "Ġradio": 9514,
      "ĠService": 9515,
      "President": 9516,
      "Prime": 9517,
      "Ec": 9518,
      "Joh": 9519,
      "Year": 9520,
      "bng": 9521,
      "camp": 9522,
      "dri": 9523,
      "eing": 9524,
      "fers": 9525,
      "hne": 9526,
      "iut": 9527,
      "iate": 9528,
      "jl": 9529,
      "tack": 9530,
      "iners": 9531,
      "Ġala": 9532,
      "Ġsro": 9533,
      "ĠoC": 9534,
      "ania": 9535,
      "organ": 9536,
      "ennt": 9537,
      "Ġlir": 9538,
      "Ġlov": 9539,
      "Ġeec": 9540,
      "Ġnort": 9541,
      "Ġdeep": 9542,
      "icro": 9543,
      "Ġindu": 9544,
      "ĠAU": 9545,
      "ĠAub": 9546,
      "ĠCri": 9547,
      "irac": 9548,
      "Ġgal": 9549,
      "ĠPrl": 9550,
      "ĠBeg": 9551,
      "ĠBonds": 9552,
      "thin": 9553,
      "ĠNC": 9554,
      "ĠRI": 9555,
      "ĠFO": 9556,
      "riy": 9557,
      "ĠGn": 9558,
      "Ġforn": 9559,
      "Ġked": 9560,
      "Ġence": 9561,
      "Ġshows": 9562,
      "Ġarc": 9563,
      "Ġquarte": 9564,
      "dsay": 9565,
      "clh": 9566,
      "cles": 9567,
      "enses": 9568,
      "Ġcomes": 9569,
      "Ġuto": 9570,
      "Ġuthe": 9571,
      "Ġcrisis": 9572,
      "flu": 9573,
      "arrel": 9574,
      "Ġbusines": 9575,
      "Ġservi": 9576,
      "makers": 9577,
      "Ġfaces": 9578,
      "leader": 9579,
      "works": 9580,
      "Ġmerger": 9581,
      "ĠSwed": 9582,
      "82": 9583,
      "FC": 9584,
      "Spor": 9585,
      "boy": 9586,
      "court": 9587,
      "eA": 9588,
      "fight": 9589,
      "lks": 9590,
      "wir": 9591,
      "Ġoom": 9592,
      "Ġoand": 9593,
      "esI": 9594,
      "orst": 9595,
      "Ġrve": 9596,
      "Ġrae": 9597,
      "atives": 9598,
      "Ġciv": 9599,
      "Ġlew": 9600,
      "Ġfii": 9601,
      "Ġece": 9602,
      "ilh": 9603,
      "isv": 9604,
      "eters": 9605,
      "ĠSei": 9606,
      "Ġtouc": 9607,
      "ĠIni": 9608,
      "idc": 9609,
      "ĠCase": 9610,
      "eces": 9611,
      "Ġuu": 9612,
      "thern": 9613,
      "ĠFn": 9614,
      "lln": 9615,
      "Ġvel": 9616,
      "aian": 9617,
      "eared": 9618,
      "umi": 9619,
      "ĠVlad": 9620,
      "ĠStud": 9621,
      "ĠStart": 9622,
      "antic": 9623,
      "ightly": 9624,
      "hnology": 9625,
      "ickinfo": 9626,
      "tao": 9627,
      "ervic": 9628,
      "Ġ66": 9629,
      "bling": 9630,
      "ĠAfr": 9631,
      "Ġexpand": 9632,
      "Ġappar": 9633,
      "ronics": 9634,
      "Ġbusine": 9635,
      "Ġpublis": 9636,
      "Ġbanks": 9637,
      "Ġruling": 9638,
      "Ġpopular": 9639,
      "Ġfamily": 9640,
      "ĠRecord": 9641,
      "Europe": 9642,
      "istration": 9643,
      "Ġlooks": 9644,
      "ĠTaiwan": 9645,
      "Ġincrease": 9646,
      "91": 9647,
      "DO": 9648,
      "Iel": 9649,
      "PI": 9650,
      "Rei": 9651,
      "giv": 9652,
      "hich": 9653,
      "mbe": 9654,
      "pas": 9655,
      "poi": 9656,
      "sch": 9657,
      "xa": 9658,
      "Ġze": 9659,
      "ĠaInd": 9660,
      "hec": 9661,
      "onm": 9662,
      "Ġrfor": 9663,
      "Ġeep": 9664,
      "ĠnL": 9665,
      "Ġbthe": 9666,
      "ĠhIs": 9667,
      "isan": 9668,
      "etar": 9669,
      "otic": 9670,
      "ĠFA": 9671,
      "ĠFan": 9672,
      "tef": 9673,
      "Ġyl": 9674,
      "Ġyn": 9675,
      "Ġyar": 9676,
      "iml": 9677,
      "estt": 9678,
      "ĠLen": 9679,
      "Ġstage": 9680,
      "agi": 9681,
      "aiu": 9682,
      "eway": 9683,
      "ĠJew": 9684,
      "lout": 9685,
      "..,": 9686,
      "allas": 9687,
      "pple": 9688,
      "Ġcover": 9689,
      "tting": 9690,
      "ihg": 9691,
      "Ited": 9692,
      "oking": 9693,
      "noon": 9694,
      "attack": 9695,
      "ĠClub": 9696,
      "Internet": 9697,
      "ĠWood": 9698,
      "ĠGood": 9699,
      "Ġrivals": 9700,
      "Ġofficia": 9701,
      "Ġagreement": 9702,
      "Canad": 9703,
      "American": 9704,
      "97": 9705,
      "Def": 9706,
      "Game": 9707,
      "Mr": 9708,
      "OH": 9709,
      "dw": 9710,
      "ez": 9711,
      "gv": 9712,
      "hra": 9713,
      "iB": 9714,
      "Ġauth": 9715,
      "hens": 9716,
      "Ġiem": 9717,
      "orI": 9718,
      "Ġcthe": 9719,
      "Ġcars": 9720,
      "itm": 9721,
      "Ġeid": 9722,
      "Ġeom": 9723,
      "Ġnle": 9724,
      "Ġplt": 9725,
      "Ġpli": 9726,
      "eton": 9727,
      "ĠSti": 9728,
      "ĠAlt": 9729,
      "ĠAraf": 9730,
      "urb": 9731,
      "urge": 9732,
      "ĠCelt": 9733,
      "Ġofit": 9734,
      "Ġthde": 9735,
      "olls": 9736,
      "Ġgrew": 9737,
      "ĠBC": 9738,
      "tsn": 9739,
      "ĠFCC": 9740,
      "oward": 9741,
      "Ġ,(": 9742,
      "ĠHn": 9743,
      "ĠHits": 9744,
      "Ġstaff": 9745,
      "iller": 9746,
      "agt": 9747,
      "aka": 9748,
      "earing": 9749,
      "ocs": 9750,
      "rtl": 9751,
      "rtt": 9752,
      "Ġsafe": 9753,
      "Ġerd": 9754,
      "ĠVod": 9755,
      "Ġqui": 9756,
      "oiy": 9757,
      "Ġspokes": 9758,
      "merce": 9759,
      "Ġdeve": 9760,
      "ordin": 9761,
      "nlg": 9762,
      "ĠPrice": 9763,
      "apping": 9764,
      "666": 9765,
      "Ġeasy": 9766,
      "Ġstrik": 9767,
      "Ġruled": 9768,
      "Ġfollowing": 9769,
      "ĠIvory": 9770,
      "ĠDisney": 9771,
      "Ġreached": 9772,
      "&,": 9773,
      "34": 9774,
      "67": 9775,
      "DE": 9776,
      "SU": 9777,
      "cll": 9778,
      "curity": 9779,
      "fig": 9780,
      "free": 9781,
      "iun": 9782,
      "mee": 9783,
      "pil": 9784,
      "pee": 9785,
      "source": 9786,
      "tom": 9787,
      "Ġtag": 9788,
      "Ġoor": 9789,
      "Ġike": 9790,
      "Ġcai": 9791,
      "Ġfonr": 9792,
      "Ġboe": 9793,
      "Ġwhn": 9794,
      "Ġhims": 9795,
      "etm": 9796,
      "ĠCell": 9797,
      "ecks": 9798,
      "olin": 9799,
      "amd": 9800,
      "aming": 9801,
      "amily": 9802,
      "ĠRl": 9803,
      "teir": 9804,
      "ĠGets": 9805,
      "ĠEls": 9806,
      "ĠHamm": 9807,
      "agem": 9808,
      "ĠKil": 9809,
      "iier": 9810,
      "Ġorp": 9811,
      "Ġares": 9812,
      "ĠUSA": 9813,
      "Ġfoar": 9814,
      "Ġfront": 9815,
      "Star": 9816,
      "Thu": 9817,
      "Ġount": 9818,
      "scri": 9819,
      "airs": 9820,
      "Ġdefense": 9821,
      "Ġsurge": 9822,
      "Ġmobil": 9823,
      "Ġdebut": 9824,
      "Ġautom": 9825,
      "ĠSeptember": 9826,
      "ĠSmith": 9827,
      "ĠAstros": 9828,
      "ĠSprint": 9829,
      "Cal": 9830,
      "GB": 9831,
      "Pn": 9832,
      "TR": 9833,
      "ehe": 9834,
      "fp": 9835,
      "gency": 9836,
      "hse": 9837,
      "hone": 9838,
      "nlt": 9839,
      "rong": 9840,
      "tP": 9841,
      "wns": 9842,
      "xs": 9843,
      "Ġaip": 9844,
      "Ġoti": 9845,
      "Ġiir": 9846,
      "enf": 9847,
      "Ġrri": 9848,
      "Ġrge": 9849,
      "arns": 9850,
      "Ġcoe": 9851,
      "Ġfrl": 9852,
      "Ġnob": 9853,
      "Ġword": 9854,
      "Ġpun": 9855,
      "Ġdoe": 9856,
      "Ġmist": 9857,
      "Ġthese": 9858,
      "rows": 9859,
      "ĠToy": 9860,
      "uran": 9861,
      "Ġthas": 9862,
      "ĠMod": 9863,
      "ionn": 9864,
      "ĠPil": 9865,
      "Ġusi": 9866,
      "amid": 9867,
      "ĠRoc": 9868,
      "ĠanId": 9869,
      "Ġansd": 9870,
      "ĠOe": 9871,
      "imen": 9872,
      "ĠEW": 9873,
      "andt": 9874,
      "quire": 9875,
      "apo": 9876,
      "ĠKod": 9877,
      "Ġark": 9878,
      "iban": 9879,
      "Ġsport": 9880,
      "lny": 9881,
      "Ġ48": 9882,
      "Ġqn": 9883,
      "Ġami": 9884,
      "Ġ51": 9885,
      "Ġflat": 9886,
      "aze": 9887,
      "vestors": 9888,
      "Ġattac": 9889,
      "Ġodf": 9890,
      "Ġrising": 9891,
      "Ġfailed": 9892,
      "ĠCenter": 9893,
      "ĠArsenal": 9894,
      "ĠMerck": 9895,
      "likely": 9896,
      "Big": 9897,
      "DP": 9898,
      "Jan": 9899,
      "Mn": 9900,
      "NL": 9901,
      "Over": 9902,
      "Sb": 9903,
      "grow": 9904,
      "hto": 9905,
      "rO": 9906,
      "rice": 9907,
      "ĠaU": 9908,
      "Ġaond": 9909,
      "erly": 9910,
      "Ġssi": 9911,
      "Ġila": 9912,
      "orne": 9913,
      "enk": 9914,
      "Ġfcr": 9915,
      "Ġwirel": 9916,
      "Ġpee": 9917,
      "Ġhss": 9918,
      "icrosoft": 9919,
      "ĠIat": 9920,
      "ĠTeh": 9921,
      "ĠColl": 9922,
      "irp": 9923,
      "osit": 9924,
      "Ġvc": 9925,
      "Ġvet": 9926,
      "ĠOb": 9927,
      "ĠEver": 9928,
      "agers": 9929,
      "appo": 9930,
      "istic": 9931,
      "nco": 9932,
      "meet": 9933,
      "ucle": 9934,
      "ucial": 9935,
      "artment": 9936,
      "inez": 9937,
      "Ġchance": 9938,
      "Ġaren": 9939,
      "ĠStan": 9940,
      "Ġseid": 9941,
      "ansion": 9942,
      "Ġwhose": 9943,
      "ghts": 9944,
      "Ġgoes": 9945,
      "rgest": 9946,
      "Ġ55": 9947,
      "Ġ2002": 9948,
      "Ġtbhe": 9949,
      "Ġearth": 9950,
      "Ġ89": 9951,
      "ussia": 9952,
      "ĠPreside": 9953,
      "ĠPresiden": 9954,
      "inued": 9955,
      "Ġfilm": 9956,
      "ilities": 9957,
      "ĠEngl": 9958,
      "Ġmillio": 9959,
      "ĠWednesda": 9960,
      "Ġrebels": 9961,
      "CAA": 9962,
      ",..": 9963,
      "Lin": 9964,
      "Octo": 9965,
      "Tech": 9966,
      "did": 9967,
      "jet": 9968,
      "som": 9969,
      "vst": 9970,
      "yc": 9971,
      "Ġtthat": 9972,
      "ĠaE": 9973,
      "Ġaor": 9974,
      "Ġaib": 9975,
      "Ġois": 9976,
      "Ġiig": 9977,
      "Ġiie": 9978,
      "Ġiev": 9979,
      "Ġists": 9980,
      "Ġlrom": 9981,
      "Ġfrt": 9982,
      "Ġfine": 9983,
      "Ġfrr": 9984,
      "Ġnia": 9985,
      "ilion": 9986,
      "elar": 9987,
      "reI": 9988,
      "utc": 9989,
      "ĠAsi": 9990,
      "ĠTar": 9991,
      "Ġthink": 9992,
      "ĠMou": 9993,
      "thle": 9994,
      "amin": 9995,
      "iage": 9996,
      "Ġanh": 9997,
      "Ġandh": 9998,
      "Ġforec": 9999,
      "Ġforme": 10000,
      "lda": 10001,
      "rsa": 10002,
      "bef": 10003,
      "uper": 10004,
      "Ġkes": 10005,
      "oogle": 10006,
      "Ġpris": 10007,
      "uste": 10008,
      "Ġalth": 10009,
      "ibi": 10010,
      "ples": 10011,
      "tlh": 10012,
      "Ġabs": 10013,
      "close": 10014,
      "ighs": 10015,
      "Ġcomplet": 10016,
      "rged": 10017,
      "Ġtlat": 10018,
      "aida": 10019,
      "Ġurg": 10020,
      "Ġurt": 10021,
      "Ġefforts": 10022,
      "Ġwinter": 10023,
      "Ġstoc": 10024,
      "iefs": 10025,
      "Ġblack": 10026,
      "ĠPresi": 10027,
      "ĠBeat": 10028,
      "Ġinjur": 10029,
      "gener": 10030,
      "ĠHoward": 10031,
      "Ġcharged": 10032,
      "Ġdollars": 10033,
      "ocratic": 10034,
      "'\\": 10035,
      ",(": 10036,
      "Card": 10037,
      "HREF": 10038,
      "Pat": 10039,
[...]
